{
  "version": "1.0",
  "truncation": null,
  "padding": null,
  "added_tokens": [
    {
      "id": 0,
      "content": "<unk>",
      "single_word": false,
      "lstrip": false,
      "rstrip": false,
      "normalized": false,
      "special": true
    },
    {
      "id": 1,
      "content": "<s>",
      "single_word": false,
      "lstrip": false,
      "rstrip": false,
      "normalized": false,
      "special": true
    },
    {
      "id": 2,
      "content": "</s>",
      "single_word": false,
      "lstrip": false,
      "rstrip": false,
      "normalized": false,
      "special": true
    },
    {
      "id": 3,
      "content": "<pad>",
      "single_word": false,
      "lstrip": false,
      "rstrip": false,
      "normalized": false,
      "special": true
    }
  ],
  "normalizer": null,
  "pre_tokenizer": {
    "type": "ByteLevel",
    "add_prefix_space": false,
    "trim_offsets": true,
    "use_regex": true
  },
  "post_processor": null,
  "decoder": {
    "type": "ByteLevel",
    "add_prefix_space": true,
    "trim_offsets": true,
    "use_regex": true
  },
  "model": {
    "type": "BPE",
    "dropout": null,
    "unk_token": "<unk>",
    "continuing_subword_prefix": null,
    "end_of_word_suffix": null,
    "fuse_unk": false,
    "byte_fallback": false,
    "ignore_merges": false,
    "vocab": {
      "<unk>": 0,
      "<s>": 1,
      "</s>": 2,
      "<pad>": 3,
      "!": 4,
      "\"": 5,
      "#": 6,
      "$": 7,
      "%": 8,
      "&": 9,
      "'": 10,
      "(": 11,
      ")": 12,
      "*": 13,
      "+": 14,
      ",": 15,
      "-": 16,
      ".": 17,
      "/": 18,
      "0": 19,
      "1": 20,
      "2": 21,
      "3": 22,
      "4": 23,
      "5": 24,
      "6": 25,
      "7": 26,
      "8": 27,
      "9": 28,
      ":": 29,
      ";": 30,
      "<": 31,
      "=": 32,
      ">": 33,
      "?": 34,
      "@": 35,
      "A": 36,
      "B": 37,
      "C": 38,
      "D": 39,
      "E": 40,
      "F": 41,
      "G": 42,
      "H": 43,
      "I": 44,
      "J": 45,
      "K": 46,
      "L": 47,
      "M": 48,
      "N": 49,
      "O": 50,
      "P": 51,
      "Q": 52,
      "R": 53,
      "S": 54,
      "T": 55,
      "U": 56,
      "V": 57,
      "W": 58,
      "X": 59,
      "Y": 60,
      "Z": 61,
      "[": 62,
      "\\": 63,
      "]": 64,
      "^": 65,
      "_": 66,
      "`": 67,
      "a": 68,
      "b": 69,
      "c": 70,
      "d": 71,
      "e": 72,
      "f": 73,
      "g": 74,
      "h": 75,
      "i": 76,
      "j": 77,
      "k": 78,
      "l": 79,
      "m": 80,
      "n": 81,
      "o": 82,
      "p": 83,
      "q": 84,
      "r": 85,
      "s": 86,
      "t": 87,
      "u": 88,
      "v": 89,
      "w": 90,
      "x": 91,
      "y": 92,
      "z": 93,
      "{": 94,
      "|": 95,
      "}": 96,
      "~": 97,
      "¡": 98,
      "¢": 99,
      "£": 100,
      "¤": 101,
      "¥": 102,
      "¦": 103,
      "§": 104,
      "¨": 105,
      "©": 106,
      "ª": 107,
      "«": 108,
      "¬": 109,
      "®": 110,
      "¯": 111,
      "°": 112,
      "±": 113,
      "²": 114,
      "³": 115,
      "´": 116,
      "µ": 117,
      "¶": 118,
      "·": 119,
      "¸": 120,
      "¹": 121,
      "º": 122,
      "»": 123,
      "¼": 124,
      "½": 125,
      "¾": 126,
      "¿": 127,
      "À": 128,
      "Á": 129,
      "Â": 130,
      "Ã": 131,
      "Ä": 132,
      "Å": 133,
      "Æ": 134,
      "Ç": 135,
      "È": 136,
      "É": 137,
      "Ê": 138,
      "Ë": 139,
      "Ì": 140,
      "Í": 141,
      "Î": 142,
      "Ï": 143,
      "Ð": 144,
      "Ñ": 145,
      "Ò": 146,
      "Ó": 147,
      "Ô": 148,
      "Õ": 149,
      "Ö": 150,
      "×": 151,
      "Ø": 152,
      "Ù": 153,
      "Ú": 154,
      "Û": 155,
      "Ü": 156,
      "Ý": 157,
      "Þ": 158,
      "ß": 159,
      "à": 160,
      "á": 161,
      "â": 162,
      "ã": 163,
      "ä": 164,
      "å": 165,
      "æ": 166,
      "ç": 167,
      "è": 168,
      "é": 169,
      "ê": 170,
      "ë": 171,
      "ì": 172,
      "í": 173,
      "î": 174,
      "ï": 175,
      "ð": 176,
      "ñ": 177,
      "ò": 178,
      "ó": 179,
      "ô": 180,
      "õ": 181,
      "ö": 182,
      "÷": 183,
      "ø": 184,
      "ù": 185,
      "ú": 186,
      "û": 187,
      "ü": 188,
      "ý": 189,
      "þ": 190,
      "ÿ": 191,
      "Ā": 192,
      "ā": 193,
      "Ă": 194,
      "ă": 195,
      "Ą": 196,
      "ą": 197,
      "Ć": 198,
      "ć": 199,
      "Ĉ": 200,
      "ĉ": 201,
      "Ċ": 202,
      "ċ": 203,
      "Č": 204,
      "č": 205,
      "Ď": 206,
      "ď": 207,
      "Đ": 208,
      "đ": 209,
      "Ē": 210,
      "ē": 211,
      "Ĕ": 212,
      "ĕ": 213,
      "Ė": 214,
      "ė": 215,
      "Ę": 216,
      "ę": 217,
      "Ě": 218,
      "ě": 219,
      "Ĝ": 220,
      "ĝ": 221,
      "Ğ": 222,
      "ğ": 223,
      "Ġ": 224,
      "ġ": 225,
      "Ģ": 226,
      "ģ": 227,
      "Ĥ": 228,
      "ĥ": 229,
      "Ħ": 230,
      "ħ": 231,
      "Ĩ": 232,
      "ĩ": 233,
      "Ī": 234,
      "ī": 235,
      "Ĭ": 236,
      "ĭ": 237,
      "Į": 238,
      "į": 239,
      "İ": 240,
      "ı": 241,
      "Ĳ": 242,
      "ĳ": 243,
      "Ĵ": 244,
      "ĵ": 245,
      "Ķ": 246,
      "ķ": 247,
      "ĸ": 248,
      "Ĺ": 249,
      "ĺ": 250,
      "Ļ": 251,
      "ļ": 252,
      "Ľ": 253,
      "ľ": 254,
      "Ŀ": 255,
      "ŀ": 256,
      "Ł": 257,
      "ł": 258,
      "Ń": 259,
      "à¤": 260,
      "Ġà": 261,
      "à¦": 262,
      "à¥": 263,
      "Ġà¤": 264,
      "à²": 265,
      "à°": 266,
      "à´": 267,
      "à¬": 268,
      "à®": 269,
      "àª": 270,
      "à¨": 271,
      "à§": 272,
      "à¤¾": 273,
      "Ġà¦": 274,
      "à¥į": 275,
      "à¯": 276,
      "àµ": 277,
      "à±": 278,
      "à³": 279,
      "Ġà¨": 280,
      "à¤°": 281,
      "à«": 282,
      "àŃ": 283,
      "à©": 284,
      "Ġàª": 285,
      "à¦¾": 286,
      "ĠØ": 287,
      "à¥ĩ": 288,
      "à¤¿": 289,
      "Ġà¬": 290,
      "à¯į": 291,
      "àµį": 292,
      "à¤¤": 293,
      "à¤¨": 294,
      "Ġà°": 295,
      "Ġà²": 296,
      "ÛĮ": 297,
      "Ø§": 298,
      "à¤¯": 299,
      "à§ĩ": 300,
      "Ġà®": 301,
      "à¤ķ": 302,
      "à¦¿": 303,
      "à§į": 304,
      "Ġà´": 305,
      "à¥Ģ": 306,
      "àª¾": 307,
      "à³į": 308,
      "à±į": 309,
      "à¥ĭ": 310,
      "ĠÙ": 311,
      "à¤®": 312,
      "à¤²": 313,
      "à¤Ĥ": 314,
      "à¬¾": 315,
      "Ú©": 316,
      "à¤µ": 317,
      "Ø±": 318,
      "à¨¾": 319,
      "àŃį": 320,
      "à¤¸": 321,
      "à²¿": 322,
      "à¦°": 323,
      "à§°": 324,
      "Ûģ": 325,
      "Ġà¤ķ": 326,
      "à´¿": 327,
      "à°¿": 328,
      "à¦¨": 329,
      "à¬°": 330,
      "à¬¿": 331,
      "Ġt": 332,
      "ÙĪ": 333,
      "à¯ģ": 334,
      "à«ĩ": 335,
      "à®¿": 336,
      "à¦¤": 337,
      "à±ģ": 338,
      "à¥ģ": 339,
      "à°¾": 340,
      "Ġà¤¸": 341,
      "à®ķ": 342,
      "ÛĴ": 343,
      "ĠÚ©": 344,
      "à®¤": 345,
      "à¤¹": 346,
      "ÙĨ": 347,
      "à²°": 348,
      "à¦¯": 349,
      "Ġa": 350,
      "àª°": 351,
      "à¤¦": 352,
      "à´¨": 353,
      "à¤ª": 354,
      "à³ģ": 355,
      "à¦ķ": 356,
      "he": 357,
      "à¥¤": 358,
      "à²¾": 359,
      "à°°": 360,
      "Ġà¤ª": 361,
      "à¦²": 362,
      "in": 363,
      "à°¨": 364,
      "à¨°": 365,
      "Ġà¥": 366,
      "à²¦": 367,
      "àµģ": 368,
      "à´ķ": 369,
      "àŃĩ": 370,
      "à«į": 371,
      "à©Ģ": 372,
      "àª¨": 373,
      "ÙĦ": 374,
      "à°Ĥ": 375,
      "à©ĩ": 376,
      "à«Ģ": 377,
      "ĠØ§": 378,
      "à´¤": 379,
      "à´¾": 380,
      "à¨¿": 381,
      "à°²": 382,
      "à®°": 383,
      "à³Ĩ": 384,
      "à¦¼": 385,
      "à¦¬": 386,
      "à®Ł": 387,
      "Ġà¤®": 388,
      "à§ģ": 389,
      "à®¾": 390,
      "Øª": 391,
      "à¤ļ": 392,
      "à²¨": 393,
      "Ùħ": 394,
      "à´¯": 395,
      "à¤Ĺ": 396,
      "à¦®": 397,
      "Ġà¥¤": 398,
      "à²²": 399,
      "à´°": 400,
      "à¤£": 401,
      "Ġà¦ķ": 402,
      "à²¤": 403,
      "Ġthe": 404,
      "Ġà¤¹": 405,
      "re": 406,
      "on": 407,
      "à¬ķ": 408,
      "Ġà¤µ": 409,
      "ĠÙħ": 410,
      "à®©": 411,
      "à²Ĺ": 412,
      "àªĤ": 413,
      "à¬¨": 414,
      "à§ĭ": 415,
      "à®®": 416,
      "à®²": 417,
      "er": 418,
      "àŃģ": 419,
      "à°ķ": 420,
      "Ġà¤¨": 421,
      "Ġs": 422,
      "à´Ł": 423,
      "Ø³": 424,
      "Ġà¤¤": 425,
      "à®ª": 426,
      "à¬¤": 427,
      "Ġà¦¬": 428,
      "à¤Ł": 429,
      "Ø¯": 430,
      "à²µ": 431,
      "Úº": 432,
      "à¤ľ": 433,
      "Ġà¤ħ": 434,
      "an": 435,
      "Ġà¦¸": 436,
      "à¤·": 437,
      "à°¤": 438,
      "Ġà¦ª": 439,
      "à¥Ī": 440,
      "àª®": 441,
      "à¤¶": 442,
      "à¨Ĥ": 443,
      "at": 444,
      "àª¤": 445,
      "à«ĭ": 446,
      "à¥Ĥ": 447,
      "àªµ": 448,
      "à¤§": 449,
      "à²Ĥ": 450,
      "à¬¬": 451,
      "à¨¤": 452,
      "Ġw": 453,
      "ĠÛģ": 454,
      "Ġà¤Ĩ": 455,
      "à¯Ī": 456,
      "àµĨ": 457,
      "à²ķ": 458,
      "à®¯": 459,
      "Ġo": 460,
      "en": 461,
      "à¨¸": 462,
      "à²¯": 463,
      "à¨¨": 464,
      "à®³": 465,
      "à®±": 466,
      "à´²": 467,
      "Ġà¨¦": 468,
      "à§Ģ": 469,
      "Ġà¤¦": 470,
      "à¦¦": 471,
      "Ġà¤¬": 472,
      "à¨²": 473,
      "àª¯": 474,
      "à´Ĥ": 475,
      "Ġà¨ķ": 476,
      "is": 477,
      "Ġà¨¸": 478,
      "à¦¸": 479,
      "Ġc": 480,
      "it": 481,
      "à¦ĩ": 482,
      "Ġà¤°": 483,
      "à®µ": 484,
      "à°¦": 485,
      "à°¯": 486,
      "à±ĩ": 487,
      "Ġà¦Ĩ": 488,
      "à©°": 489,
      "àª¿": 490,
      "Ġà¤ľ": 491,
      "à±ĭ": 492,
      "ĠØ¨": 493,
      "àªķ": 494,
      "Ġb": 495,
      "à«ģ": 496,
      "à°Ł": 497,
      "or": 498,
      "Ø§Ø": 499,
      "Ġà¨¹": 500,
      "Ġà¤Ĺ": 501,
      "à¦Ł": 502,
      "es": 503,
      "Ġf": 504,
      "à©ĭ": 505,
      "à¨ķ": 506,
      "à©±": 507,
      "à¦ª": 508,
      "à¨¹": 509,
      "à¤¬": 510,
      "à¤¥": 511,
      "ed": 512,
      "ar": 513,
      "nd": 514,
      "Ġp": 515,
      "ÛĮÚº": 516,
      "à¤¡": 517,
      "ing": 518,
      "à´±": 519,
      "al": 520,
      "Ġàªķ": 521,
      "Ġà¤¯": 522,
      "Ġà¬ķ": 523,
      "à¬®": 524,
      "à²¸": 525,
      "ĠØ³": 526,
      "à°¸": 527,
      "à¦¹": 528,
      "Ġà¦®": 529,
      "Ġà¤Ń": 530,
      "Ú¾": 531,
      "à´ª": 532,
      "Ġà¬¸": 533,
      "à°®": 534,
      "à¦Ľ": 535,
      "à°µ": 536,
      "Ġm": 537,
      "à°¡": 538,
      "à´®": 539,
      "à¤Ń": 540,
      "à¤¾à¤Ĥ": 541,
      "à°ª": 542,
      "à²³": 543,
      "Ġin": 544,
      "Ġàªª": 545,
      "Ġto": 546,
      "Ġà¨¨": 547,
      "à¨¦": 548,
      "à¬²": 549,
      "Ġà¬ª": 550,
      "Ø¨": 551,
      "à¦ľ": 552,
      "Ġà¦¨": 553,
      "à¦Ĺ": 554,
      "Ġà¤²": 555,
      "ou": 556,
      "à´£": 557,
      "Ġof": 558,
      "à´µ": 559,
      "Ġà¦ı": 560,
      "ĠÙĨ": 561,
      "Ġà¨µ": 562,
      "Ġà¦¹": 563,
      "àŃŁ": 564,
      "à¬¹": 565,
      "à²¡": 566,
      "ĠØª": 567,
      "Ġh": 568,
      "Ú¯": 569,
      "àª²": 570,
      "Ġà®ª": 571,
      "as": 572,
      "à©ģ": 573,
      "à°Ĺ": 574,
      "à¤ı": 575,
      "à±Ģ": 576,
      "Ġà¦¦": 577,
      "à©Ī": 578,
      "ÙĪØ±": 579,
      "Ø§ÙĨ": 580,
      "Ġd": 581,
      "Ġàª¸": 582,
      "à´³": 583,
      "à¦·": 584,
      "Ġand": 585,
      "àª¾àªĤ": 586,
      "à¤ĥ": 587,
      "Ġà¦¤": 588,
      "Ġà°ª": 589,
      "Ġà®ķ": 590,
      "à¨¼": 591,
      "à¦¶": 592,
      "Ġ(": 593,
      "Ġà²®": 594,
      "à©Ĥ": 595,
      "à³ĩ": 596,
      "à°ļ": 597,
      "Ġà¬¬": 598,
      "ĠÚ©ÛĮ": 599,
      "à¬¸": 600,
      "à´ļ": 601,
      "àª¸": 602,
      "Ġàª¤": 603,
      "Ġà¤ī": 604,
      "à¨Ĩ": 605,
      "ĠÚ©ÛĴ": 606,
      "Ġà´ª": 607,
      "Ġà²¸": 608,
      "ic": 609,
      "ĠÙ¾": 610,
      "à²®": 611,
      "Ġàª®": 612,
      "Ġà¦ħ": 613,
      "ĠØ¯": 614,
      "Ġà¤¶": 615,
      "à¨®": 616,
      "ĠÙĪ": 617,
      "le": 618,
      "ĠÛ": 619,
      "àµĭ": 620,
      "à¨¾à¨Ĥ": 621,
      "àŃĭ": 622,
      "Ġà®µ": 623,
      "à¥ĩà¤Ĥ": 624,
      "à±Ĩ": 625,
      "Ġà°ķ": 626,
      "Ġà¨ª": 627,
      "à¤ĸ": 628,
      "ĠØ¬": 629,
      "à´¸": 630,
      "ion": 631,
      "à¬ĩ": 632,
      "Ġà®®": 633,
      "à¬ª": 634,
      "à²Ł": 635,
      "Ġà¤ļ": 636,
      "om": 637,
      "à¬£": 638,
      "à®ļ": 639,
      "Ġà²ķ": 640,
      "Ġà°µ": 641,
      "ĠÛĶ": 642,
      "Ø¹": 643,
      "Ø§Ø±": 644,
      "Ġ'": 645,
      "à´Ļ": 646,
      "à¦£": 647,
      "Ġà´ķ": 648,
      "àªŁ": 649,
      "à¦ļ": 650,
      "à¦¼à¦¾": 651,
      "à®¨": 652,
      "Ġà¨ľ": 653,
      "Ġn": 654,
      "à¦§": 655,
      "à®ķà®³": 656,
      "ÙĤ": 657,
      "à¯ĩ": 658,
      "àµĩ": 659,
      "Ġà®¤": 660,
      "Ġàªľ": 661,
      "il": 662,
      "Ġà®ħ": 663,
      "à¨£": 664,
      "Ġà°¸": 665,
      "ĠàªĽ": 666,
      "Ùģ": 667,
      "Ġàªħ": 668,
      "Ġà°®": 669,
      "Ġà¤ķà¤°": 670,
      "àª£": 671,
      "à®£": 672,
      "Ġ1": 673,
      "Ġth": 674,
      "àªª": 675,
      "à¬¥": 676,
      "à¬¦": 677,
      "àŃĢ": 678,
      "Ġà¬®": 679,
      "ĠàªĨ": 680,
      "Ġà¨ħ": 681,
      "Ġà®ļ": 682,
      "à¨µ": 683,
      "Ġà¤ĩ": 684,
      "à¦ĸ": 685,
      "à¨ľ": 686,
      "à¦¥": 687,
      "àª¹": 688,
      "Ġà²¨": 689,
      "Ġà°ħ": 690,
      "Ġà¨®": 691,
      "à¨ļ": 692,
      "à¯Ĩ": 693,
      "ĠÙħÛĮÚº": 694,
      "à¦¼à§ĩ": 695,
      "Ġà¨¤": 696,
      "àµģà´Ĥ": 697,
      "à¥ĥ": 698,
      "ent": 699,
      "Ġà¤ı": 700,
      "à¤Ī": 701,
      "à§±": 702,
      "Ø§ÙĦ": 703,
      "Ġàªµ": 704,
      "Ġ2": 705,
      "Ġà´µ": 706,
      "Ġà¨ĩ": 707,
      "Ġà´¸": 708,
      "à§Ī": 709,
      "am": 710,
      "ĠÛģÛĴ": 711,
      "Ġà²ħ": 712,
      "ĠS": 713,
      "à¨Ĺ": 714,
      "ĠT": 715,
      "àª¥": 716,
      "Ġl": 717,
      "Ġà¦¯": 718,
      "à¬Ł": 719,
      "ĠØ±": 720,
      "àª¦": 721,
      "Ġà®ĩ": 722,
      "Ġ-": 723,
      "Ġà¦ľ": 724,
      "à¨Ł": 725,
      "Ġà§": 726,
      "àªľ": 727,
      "st": 728,
      "à°¿à°Ĥ": 729,
      "Ø´": 730,
      "à¦Ń": 731,
      "àªĹ": 732,
      "ÛĮØ§": 733,
      "à¬Ļ": 734,
      "Ġàª¹": 735,
      "Ġà¦Ĺ": 736,
      "Ġre": 737,
      "à¬³": 738,
      "Ġà²ª": 739,
      "Ġà²¹": 740,
      "ĠA": 741,
      "ve": 742,
      "à¦ĵ": 743,
      "à¨ª": 744,
      "Ø¬": 745,
      "à³Ĥ": 746,
      "à²ª": 747,
      "Ġe": 748,
      "Ġà°ļ": 749,
      "à¬Ĺ": 750,
      "Ġà´®": 751,
      "Ġà¤ªà¤°": 752,
      "à¦¡": 753,
      "ĠÚ©Ø±": 754,
      "ĠØ§ÙĪØ±": 755,
      "id": 756,
      "Ġà´¨": 757,
      "ro": 758,
      "à¬·": 759,
      "Ġà¦ļ": 760,
      "Ġà¨²": 761,
      "à«ģàªĤ": 762,
      "Ġà®¨": 763,
      "Ġg": 764,
      "ĠI": 765,
      "ĠØ§Ø³": 766,
      "à¦Ĥ": 767,
      "Ø²": 768,
      "Ġà°¨": 769,
      "ĠÙĦ": 770,
      "ay": 771,
      "Ġà¨¬": 772,
      "Ġàª¨": 773,
      "Ġà´ħ": 774,
      "Ġbe": 775,
      "Ġ\"": 776,
      "Ġà²¬": 777,
      "Ġà¤Ĺà¤°": 778,
      "à¨Ī": 779,
      "à³Ģ": 780,
      "à³Ĭ": 781,
      "Ġà¬¨": 782,
      "ad": 783,
      "à¯ĭ": 784,
      "ØŃ": 785,
      "ĠÚ©Ûģ": 786,
      "ÚĨ": 787,
      "à¤°à¤¤": 788,
      "Ġà¦¶": 789,
      "àª¡": 790,
      "Ġà¤Ľ": 791,
      "à²Ĺà²³": 792,
      "Ġà¬ħ": 793,
      "ĠØĮ": 794,
      "Ø§Ùħ": 795,
      "à¤ł": 796,
      "Ġà¬ı": 797,
      "ÙĪÚº": 798,
      "à©į": 799,
      "ĠØ³ÛĴ": 800,
      "à±Ĥ": 801,
      "ct": 802,
      "Ġàª°": 803,
      "à§ĩà¥¤": 804,
      "Ġà¬¦": 805,
      "àª¶": 806,
      "à¤Ľ": 807,
      "à¤°à¤ķ": 808,
      "à¬¶": 809,
      "à¥ĭà¤Ĥ": 810,
      "à¬ľ": 811,
      "à³ĭ": 812,
      "âĢ": 813,
      "ĠÚ¯": 814,
      "Ġà¦ķà¦°": 815,
      "ĠØ¹": 816,
      "Ġon": 817,
      "à©Ĥà©°": 818,
      "Ġà¤¸à¤®": 819,
      "à¦ģ": 820,
      "Ġà¬¹": 821,
      "et": 822,
      "Ġà¦Ń": 823,
      "Ġà¦ķà§°": 824,
      "ut": 825,
      "ot": 826,
      "Ġà¦²": 827,
      "àµĢ": 828,
      "ÛĮÙĨ": 829,
      "ĠÚ©ÙĪ": 830,
      "Ġà°¤": 831,
      "Ġà¬ķà¬°": 832,
      "à²¬": 833,
      "Ø§Øª": 834,
      "ĠM": 835,
      "Ġis": 836,
      "à¬§": 837,
      "Ù¾": 838,
      "à¬¡": 839,
      "à¬Ľ": 840,
      "Ø¦": 841,
      "ur": 842,
      "im": 843,
      "ĠÛģÙĪ": 844,
      "ly": 845,
      "Ġà¬Ĩ": 846,
      "à¯į.": 847,
      "à¨¬": 848,
      "à¥Į": 849,
      "à±ģ.": 850,
      "Ġà²µ": 851,
      "Ġfor": 852,
      "à²£": 853,
      "à¤³": 854,
      "à´¦": 855,
      "à«ĩ.": 856,
      "àµ½": 857,
      "Ù¹": 858,
      "à¨¿à©±": 859,
      "Ġàªķàª°": 860,
      "ĠØ¢": 861,
      "ĠC": 862,
      "àª§": 863,
      "Ġà¤ĸ": 864,
      "Ġà¨°": 865,
      "à®Ļ": 866,
      "à¤ģ": 867,
      "Ġàª¬": 868,
      "àµ¼": 869,
      "à¤°à¤®": 870,
      "à¯Ĭ": 871,
      "à³Ĩ.": 872,
      "à¤µà¤°": 873,
      "ir": 874,
      "Ġà®İ": 875,
      "Ø§Ø¦": 876,
      "à²·": 877,
      "Ġà¦ī": 878,
      "ol": 879,
      "à¥ĩ.": 880,
      "ow": 881,
      "ÛĮÚ©": 882,
      "Ġy": 883,
      "ĠØŃ": 884,
      "à¤«": 885,
      "à´·": 886,
      "ĠÚ©Ø§": 887,
      "Ġà¨Ĺ": 888,
      "ig": 889,
      "el": 890,
      "à°·": 891,
      "Ġàªı": 892,
      "ĠØ§ÙĦ": 893,
      "Ġà¨ī": 894,
      "à¤ıà¤ķ": 895,
      "à±Ī": 896,
      "ver": 897,
      "à°ľ": 898,
      "Ġà¤Ĩà¤¹": 899,
      "à²¹": 900,
      "à¤¯à¤¤": 901,
      "ch": 902,
      "à®´": 903,
      "à«Ĥ": 904,
      "Ġà¬°": 905,
      "us": 906,
      "ce": 907,
      "Ġà¤¥": 908,
      "à¤ĩ": 909,
      "ĠP": 910,
      "Ġà°°": 911,
      "ak": 912,
      "Ġà¨ķà¨°": 913,
      "ĠØ´": 914,
      "Ġàªħàª¨": 915,
      "à¤°à¤£": 916,
      "à§Ĥ": 917,
      "ĠB": 918,
      "Ġà´¤": 919,
      "ĠØ§ÙĨ": 920,
      "àª³": 921,
      "Ġst": 922,
      "ĠØ®": 923,
      "à¤¯à¤ķ": 924,
      "à¨ĸ": 925,
      "ĠÙģ": 926,
      "Ġà¤ıà¤ķ": 927,
      "à²ļ": 928,
      "Ġà¤«": 929,
      "à°¿.": 930,
      "un": 931,
      "à¬ģ": 932,
      "Ġthat": 933,
      "ĠÙĨÛĴ": 934,
      "Ġà²¤": 935,
      "Ġàª¦": 936,
      "à§ĥ": 937,
      "Ġhe": 938,
      "Ġà²Ĩ": 939,
      "àµĤ": 940,
      "ith": 941,
      "à¬Ń": 942,
      "à²¦à²°": 943,
      "à¨¡": 944,
      "ation": 945,
      "à¤¼": 946,
      "Ġà´İ": 947,
      "..": 948,
      "Ø±ÛĮ": 949,
      "Ġà¬¤": 950,
      "Ġà¤ħà¤¸": 951,
      "à¬ļ": 952,
      "à°¶": 953,
      "à¤¹à¤°": 954,
      "à±Ĭ": 955,
      "Ġà²ĩ": 956,
      "ÛĮÛģ": 957,
      "à°¬": 958,
      "Øµ": 959,
      "ra": 960,
      "à®ªà®Ł": 961,
      "Ġàª¶": 962,
      "Ġ20": 963,
      "Ġà¤Ķ": 964,
      "à°§": 965,
      "à²ľ": 966,
      "Ġà²İ": 967,
      "Ġà¨Ĩ": 968,
      "àªļ": 969,
      "Ġàª²": 970,
      "ter": 971,
      "à¤ī": 972,
      "àµį.": 973,
      "à²¶": 974,
      "Ġà¤ħà¤¨": 975,
      "Ġk": 976,
      "Ġà¤ĺ": 977,
      "à¯Ģ": 978,
      "ÙĨÛĴ": 979,
      "à¤¤à¤°": 980,
      "Ú¾ÛĮ": 981,
      "ĠÙ¾Ø±": 982,
      "à±ģà°Ĥ": 983,
      "à¬¯": 984,
      "à¯Ĥ": 985,
      "Ġwith": 986,
      "Ġà¬ľ": 987,
      "ĠR": 988,
      "à¤¯à¤®": 989,
      "à²§": 990,
      "Ø®": 991,
      "Ġ.": 992,
      "Ġà¥¥": 993,
      "Ġit": 994,
      "Ġà¦¸à¦®": 995,
      "Ġà¨ħà¨¤": 996,
      "Ġal": 997,
      "ĠÙĤ": 998,
      "à¤ŀ": 999,
      "ul": 1000,
      "ag": 1001,
      "Ġà¬Ĺ": 1002,
      "Ġ:": 1003,
      "à©ĭà¨Ĥ": 1004,
      "ill": 1005,
      "Ġà°Ĩ": 1006,
      "Ġà¤Ķà¤°": 1007,
      "Ø§Ø¨": 1008,
      "à´§": 1009,
      "ĠD": 1010,
      "Ġà¬¯": 1011,
      "Ġan": 1012,
      "àª¬": 1013,
      "à´ŀ": 1014,
      "Ġà¦°": 1015,
      "Ġà®ī": 1016,
      "à¥Īà¤Ĥ": 1017,
      "Ġà¬Ń": 1018,
      "ĠH": 1019,
      "Ġà´ĩ": 1020,
      "Ġwh": 1021,
      "ÛĮØ±": 1022,
      "à¨§": 1023,
      "Ġas": 1024,
      "à²¿à²Ĥ": 1025,
      "à´¶": 1026,
      "ĠThe": 1027,
      "à¤ªà¤°": 1028,
      "à®µà®°": 1029,
      "à¥¦": 1030,
      "Ġà´ļ": 1031,
      "à¯į,": 1032,
      "à¤ķà¤°": 1033,
      "ÙĦÛĮ": 1034,
      "àª·": 1035,
      "àªĸ": 1036,
      "Ġà²°": 1037,
      "ĠÛģÛĮÚº": 1038,
      "à¤µà¤¸": 1039,
      "à¨¿à©°": 1040,
      "ĠàŃ": 1041,
      "ers": 1042,
      "àµ»": 1043,
      "à°£": 1044,
      "Ġà§°": 1045,
      "à²µà²°": 1046,
      "à¤¿à¤Ĥ": 1047,
      "à´Ĺ": 1048,
      "à¤ªà¤¨": 1049,
      "Ġà¦Ĩà§°": 1050,
      "ĠN": 1051,
      "Ġà¦¥": 1052,
      "Ġà°¦": 1053,
      "à¬Ĥ": 1054,
      "Ø§Ûģ": 1055,
      "ĠàªĹ": 1056,
      "Ġà´Ĩ": 1057,
      "à³ģ.": 1058,
      "Ø§Ø¯": 1059,
      "àªĪ": 1060,
      "à¦ł": 1061,
      "à¬ĸ": 1062,
      "ĠÚĨ": 1063,
      "Ġà¤®à¤¹": 1064,
      "ab": 1065,
      "Ġà¦ĵ": 1066,
      "em": 1067,
      "Ġà°¬": 1068,
      "ri": 1069,
      "Ġà°Ĺ": 1070,
      "Ġà¤§": 1071,
      "ĠÙĨÛģ": 1072,
      "os": 1073,
      "Ġà¦ıà¦ķ": 1074,
      "Ġà¦¹à¦¯": 1075,
      "and": 1076,
      "à¤¨à¤ķ": 1077,
      "à¤¢": 1078,
      "Ġyou": 1079,
      "à¤µà¤¤": 1080,
      "Ġ3": 1081,
      "Ġà¤Ł": 1082,
      "à¬¼": 1083,
      "à©ľ": 1084,
      "ÚĪ": 1085,
      "Ġà®İà®©": 1086,
      "à¤°à¤¸": 1087,
      "à¤ĺ": 1088,
      "âĢĻ": 1089,
      "Ġà°ĩ": 1090,
      "Ġà¦ıà¦ĩ": 1091,
      "Ġà¦ĩ": 1092,
      "Ġà¦ĸ": 1093,
      "Ġat": 1094,
      "est": 1095,
      "àµ¾": 1096,
      "ĠW": 1097,
      "Ġà¤°à¤¹": 1098,
      "à°¹": 1099,
      "Ġà°ī": 1100,
      "00": 1101,
      "up": 1102,
      "Ġàª¹àª¤": 1103,
      "Ø¶": 1104,
      "Ġà®Ĩ": 1105,
      "Ġà¤ĩà¤¤": 1106,
      "à²¦à²²": 1107,
      "à¥Īà¥¤": 1108,
      "à¯ģ.": 1109,
      "Ġcon": 1110,
      "ĠG": 1111,
      "Ø·": 1112,
      "à¥Ģà¤Ĥ": 1113,
      "od": 1114,
      "à¦Ļ": 1115,
      "um": 1116,
      "àµĬ": 1117,
      "Ġà¨ļ": 1118,
      "Ø§Ø³": 1119,
      "Ġà²¦": 1120,
      "Ġha": 1121,
      "Ġà¬¶": 1122,
      "Ġàª¥": 1123,
      "Ġwas": 1124,
      "Ġà¦ªà§°": 1125,
      "à´¨à´¤": 1126,
      "Ġà°²": 1127,
      "àŃĤ": 1128,
      "th": 1129,
      "àµģ.": 1130,
      "ld": 1131,
      "Ġse": 1132,
      "ac": 1133,
      "ĠØµ": 1134,
      "Ġà¤ĩà¤¸": 1135,
      "Ġv": 1136,
      "à¤ľà¤¨": 1137,
      "Ġà¨ĩà¨¸": 1138,
      "à´¹": 1139,
      "ÙĦÛģ": 1140,
      "à´ķà´³": 1141,
      "Ġà¥§": 1142,
      "if": 1143,
      "ĠK": 1144,
      "Ġcom": 1145,
      "Ø¦ÛĴ": 1146,
      "Ġà¦ħà¦¨": 1147,
      "Ġà²Ĺ": 1148,
      "rom": 1149,
      "àªı": 1150,
      "Úĳ": 1151,
      "her": 1152,
      "Ġà²ľ": 1153,
      "ÙĨØ¯": 1154,
      "à´´": 1155,
      "àªŃ": 1156,
      "à¬ī": 1157,
      "Ġà°ľ": 1158,
      "ate": 1159,
      "Ġwe": 1160,
      "à¨ĩ": 1161,
      "ew": 1162,
      "Ġpro": 1163,
      "ĠàªĨàªµ": 1164,
      "Ġare": 1165,
      "ĠF": 1166,
      "Ġde": 1167,
      "Ġà¬ĵ": 1168,
      "à´ľ": 1169,
      "ore": 1170,
      "à¬ı": 1171,
      "à§°à¦¤": 1172,
      "Ġà¤¡": 1173,
      "Ġà¬ī": 1174,
      "à¤°à¤µ": 1175,
      "à°Ń": 1176,
      "ØªÛĮ": 1177,
      "ain": 1178,
      "ĠàªŃ": 1179,
      "ia": 1180,
      "ÙĪÙĨ": 1181,
      "Ġà¨²à¨Ī": 1182,
      "op": 1183,
      "ĠØªÚ¾": 1184,
      "à¤°à¤¹": 1185,
      "ĠL": 1186,
      "à¤¾,": 1187,
      "à©Į": 1188,
      "ist": 1189,
      "ÛĮØ¯": 1190,
      "àŃĥ": 1191,
      "à¤Ļ": 1192,
      "Ġàªĸ": 1193,
      "Ġà¦Ľ": 1194,
      "à¦ľà¦¨": 1195,
      "res": 1196,
      "Ġby": 1197,
      "ment": 1198,
      "Ġr": 1199,
      "Ġ)": 1200,
      "Ġhas": 1201,
      "ØªÛĴ": 1202,
      "Ġà¬²": 1203,
      "à¤¯à¤¸": 1204,
      "ĠØªÙĪ": 1205,
      "à¬Ĩ": 1206,
      "Ġà¦§": 1207,
      "Ġà°İ": 1208,
      "Ġà¨ĸ": 1209,
      "Ġà¦«": 1210,
      "à¤¯à¤¨": 1211,
      "à³Ī": 1212,
      "à²Ń": 1213,
      "à²¥": 1214,
      "ĠØ¨Ú¾ÛĮ": 1215,
      "à¤®à¤¨": 1216,
      "à¨¥": 1217,
      "à¥ī": 1218,
      "Ġà¬¸à¬®": 1219,
      "ĠØ·": 1220,
      "Ġà¦Ĩà¦®": 1221,
      "ØªØ§": 1222,
      "Ġà¤¸à¤°": 1223,
      "igh": 1224,
      "à©Īà¥¤": 1225,
      "Ġà¬ªà¬°": 1226,
      "Ø¦ÛĮ": 1227,
      "à¬ł": 1228,
      "à¤ªà¤¤": 1229,
      "Ġàªļ": 1230,
      "Ġà¤Ĩà¤£": 1231,
      "à¤½": 1232,
      "ess": 1233,
      "pp": 1234,
      "ort": 1235,
      "Ġàªī": 1236,
      "Ġà¤µà¤°": 1237,
      "Ġ5": 1238,
      "ÙĨØ§": 1239,
      "Ġà¬ļ": 1240,
      "ik": 1241,
      "à´¡": 1242,
      "ant": 1243,
      "Ġà¬ıà¬¹": 1244,
      "Ġàªªàª°": 1245,
      "à¨ħ": 1246,
      "ÙĪÙĦ": 1247,
      "ang": 1248,
      "ĠÛĮÛģ": 1249,
      "Ġfrom": 1250,
      "Ġà¨¹à¨¨": 1251,
      "à©Ģà¨Ĥ": 1252,
      "ĠE": 1253,
      "Ġà¨Ń": 1254,
      "art": 1255,
      "Ø³Øª": 1256,
      "à¤µà¤¨": 1257,
      "à¦ŀ": 1258,
      "ĠJ": 1259,
      "à¤¤à¤®": 1260,
      "à°²à°¨": 1261,
      "à¬ķà¬°": 1262,
      "ĠØ²": 1263,
      "à´Ļà´³": 1264,
      "à¤¾.": 1265,
      "Ġex": 1266,
      "qu": 1267,
      "à¤¾à¤ģ": 1268,
      "à¦«": 1269,
      "à¦ķà¦²": 1270,
      "Ġà¥¨": 1271,
      "Ġà¤ħà¤§": 1272,
      "à°³": 1273,
      "Ġsh": 1274,
      "à¥ĩ,": 1275,
      "à¤¸à¤®": 1276,
      "Ġhave": 1277,
      "Ġ4": 1278,
      "à§ĩ,": 1279,
      "Ġsa": 1280,
      "Ġà´°": 1281,
      "à²µà²¨": 1282,
      "Ġà¦ªà¦°": 1283,
      "Ġà´İà´¨": 1284,
      "Ġà¤Ńà¤¨": 1285,
      "Ġà²¶": 1286,
      "ive": 1287,
      "ÙĨÛĮ": 1288,
      "à¤ħ": 1289,
      "àªĵ": 1290,
      "Ġà¦ĺ": 1291,
      "à´¬": 1292,
      "à¦¼à¥¤": 1293,
      "ies": 1294,
      "ĠÙĨÛģÛĮÚº": 1295,
      "à¤ķà¤¤": 1296,
      "à³Ĭà²Ĥ": 1297,
      "Ġà´¬": 1298,
      "ity": 1299,
      "ĠØ§ÛĮÚ©": 1300,
      "Ġwill": 1301,
      "à¨«": 1302,
      "à¤¸à¤ķ": 1303,
      "Ġ?": 1304,
      "Ġnot": 1305,
      "hi": 1306,
      "ok": 1307,
      "à¥Ģ.": 1308,
      "Ġà¤Ŀ": 1309,
      "à¦¾à¦ģ": 1310,
      "à°¾à°Ĥ": 1311,
      "ap": 1312,
      "Ġà¨«": 1313,
      "se": 1314,
      "à«ĩ,": 1315,
      "ÙĪØ¯": 1316,
      "Ġà¤īà¤ª": 1317,
      "à°¥": 1318,
      "à¨ī": 1319,
      "à¦ĸà¦¨": 1320,
      "Ġà®ĩà®°": 1321,
      "Ġà¤¤à¤°": 1322,
      "à¨Ń": 1323,
      "à´Ń": 1324,
      "Ø¸": 1325,
      "Ġà´ī": 1326,
      "ĠO": 1327,
      "Ġà¤īà¤¨": 1328,
      "à©ģà©±": 1329,
      "ÙĦØ§": 1330,
      "à®¸": 1331,
      "ĠØ¯Ø±": 1332,
      "ĠÚ©ÛĮØ§": 1333,
      "Ø§Ø²": 1334,
      "Ġà²Ī": 1335,
      "Ġà´Ĵ": 1336,
      "Ġpl": 1337,
      "Ġor": 1338,
      "'s": 1339,
      "Ġà¦Ł": 1340,
      "Ġà¦ľà¦¨": 1341,
      "Ġ!": 1342,
      "end": 1343,
      "à´¯à´¤": 1344,
      "ĠÙĪÛģ": 1345,
      "Ġà¦¬à¦²": 1346,
      "à¦¬à¦²": 1347,
      "Ġthis": 1348,
      "à¤Ĺà¤°": 1349,
      "ud": 1350,
      "Ø§ÛĮ": 1351,
      "Ġhis": 1352,
      "Ġle": 1353,
      "§à§": 1354,
      "Ø³ÛĮ": 1355,
      "à¤°à¤¦": 1356,
      "Ġà²®à²¤": 1357,
      "Ġch": 1358,
      "à¬ªà¬°": 1359,
      "Ġà¤¬à¤¨": 1360,
      "à¥Ģ,": 1361,
      "Ġà°ħà°¨": 1362,
      "à¦ī": 1363,
      "à¤¨à¤®": 1364,
      "à¤·à¤£": 1365,
      "red": 1366,
      "àªĩ": 1367,
      "Ġà°Ī": 1368,
      "à¬Ľà¬¨": 1369,
      "Ġàªªàª£": 1370,
      "ust": 1371,
      "Ġà´ľ": 1372,
      "à¦°à¦¤": 1373,
      "ÙħÛĮ": 1374,
      "ĠØ§Ù¾": 1375,
      "à¨ı": 1376,
      "à´¥": 1377,
      "ect": 1378,
      "ĠâĢ": 1379,
      "ah": 1380,
      "àµĪ": 1381,
      "à¤Ĺà¤¤": 1382,
      "à¤īà¤¨": 1383,
      "oc": 1384,
      "Ġà¤¤à¤¥": 1385,
      "à¨¼à¨¾": 1386,
      "Ġj": 1387,
      "Ġàª«": 1388,
      "iv": 1389,
      "Ġà¤Ĩà¤ª": 1390,
      "àª®àª¨": 1391,
      "nt": 1392,
      "ight": 1393,
      "Ø§Ú©": 1394,
      "à¬¬à¬°": 1395,
      "à¦¾à¥¤": 1396,
      "à¥§": 1397,
      "à¤Ĩ": 1398,
      "Ġà®Ĵ": 1399,
      "ĠØ±Ûģ": 1400,
      "à¤¸à¤°": 1401,
      "ear": 1402,
      "all": 1403,
      "à¤²à¤ķ": 1404,
      "à¤Ŀ": 1405,
      "Ġà²ļ": 1406,
      "à¤¾à¥¤": 1407,
      "Ġà¤ªà¤¨": 1408,
      "our": 1409,
      "à²¯à²²": 1410,
      "Ġàªıàªķ": 1411,
      "Ġà®ħà®¤": 1412,
      "Ġà¤ľà¤¨": 1413,
      "à¤¯à¤°": 1414,
      "ast": 1415,
      "à¬ĩà¬¥": 1416,
      "ĠØ¨Ûģ": 1417,
      "Ġà¨ĩà¨¹": 1418,
      "ĠØ¬ÙĪ": 1419,
      "Ø§Ø±ÛĮ": 1420,
      "Ġà¤®à¤¨": 1421,
      "Ġà¨ķà¨°à¨¨": 1422,
      "Ġà¬ħà¬¨": 1423,
      "ould": 1424,
      "ĠU": 1425,
      "à¤ķà¤²": 1426,
      "Ġà²Ń": 1427,
      "Ú¯Ø±": 1428,
      "à±Ĩà°Ĥ": 1429,
      "à¨°à¨¤": 1430,
      "Ġà¤¸à¤¹": 1431,
      "ard": 1432,
      "à¬°à¬ķ": 1433,
      "ial": 1434,
      "Ġà¦¡": 1435,
      "Ġàªķàª°àªµ": 1436,
      "Ġà¦Ĩà¦Ľ": 1437,
      "Ġà°¶": 1438,
      "Ġà¤ł": 1439,
      "ĠØ§ÛĮ": 1440,
      "Ġà¤ªà¤¹": 1441,
      "Ġàª°àª¹": 1442,
      "Ø«": 1443,
      "Ġà¤¨à¤¹": 1444,
      "Ġà²ī": 1445,
      "Ġà²¯": 1446,
      "Ġà²Ĵ": 1447,
      "à´°à´¤": 1448,
      "Ġgo": 1449,
      "àª°àª®": 1450,
      "à¤¶à¤¨": 1451,
      "ost": 1452,
      "àª°àª¨": 1453,
      "à®Łà®¤": 1454,
      "à´µà´°": 1455,
      "Ġà°¯": 1456,
      "àª«": 1457,
      "Ġà°Ń": 1458,
      "à¬ŀ": 1459,
      "à±ģ,": 1460,
      "Ġà¤¤à¤¤": 1461,
      "à«Ģ.": 1462,
      "à¬¿à¥¤": 1463,
      "àŃŁà¬°": 1464,
      "Ġà¤¯à¤¹": 1465,
      "à®ªà®¤": 1466,
      "Ġà¤Ńà¤ıà¤ķ": 1467,
      "à¤®à¤¤": 1468,
      "ong": 1469,
      "Ġà¦®à¦¨": 1470,
      "Ġà´¶": 1471,
      "ub": 1472,
      "so": 1473,
      "à¨¤à¨°": 1474,
      "à§°à¦£": 1475,
      "à¤¾à¤ĥ": 1476,
      "à§İ": 1477,
      "ep": 1478,
      "à²ķà²°": 1479,
      "à¦Ĺà¦¤": 1480,
      "ure": 1481,
      "Ġsp": 1482,
      "Ġà¥§à¥": 1483,
      "Ġà¬ĸ": 1484,
      "Ġ6": 1485,
      "ĠInd": 1486,
      "à¤µà¤²": 1487,
      "à§¦": 1488,
      "Ø§Ø¦ÛĮ": 1489,
      "à§°à§°": 1490,
      "àŃ±": 1491,
      "ich": 1492,
      "à°²à°ķ": 1493,
      "Ġà¤ķà¤®": 1494,
      "Ø°": 1495,
      "à®©à®°": 1496,
      "ÙĪÙħ": 1497,
      "à³ģ,": 1498,
      "Ġà¤ķà¤°à¤£": 1499,
      "à¬¼à¬¿": 1500,
      "ĠÙħÙĨ": 1501,
      "ÙĦÙħ": 1502,
      "à¥ģà¤Ĥ": 1503,
      "à¦®à¦¨": 1504,
      "ĠÙģØ±": 1505,
      "ide": 1506,
      "Ġà¦īà¦ª": 1507,
      "gh": 1508,
      "à®µà®¤": 1509,
      "Ġcan": 1510,
      "ĠØ¨ÛĮ": 1511,
      "Ġà®°": 1512,
      "ĠØ§ÙĦÙĦÛģ": 1513,
      "Ġ201": 1514,
      "Ġà¤ħà¤°": 1515,
      "Ġwor": 1516,
      "Ġab": 1517,
      "à¬¤à¬°": 1518,
      "à¤¦à¤°": 1519,
      "Ġà¤īà¤¤": 1520,
      "Ġà®µà®°": 1521,
      "à²¾à²Ĥ": 1522,
      "Ġà´²": 1523,
      "Ġ19": 1524,
      "ome": 1525,
      "Ø§ÙĨÛĮ": 1526,
      "à§Į": 1527,
      "Ġà¨Ĩà¨ª": 1528,
      "Ø¯Ûģ": 1529,
      "à¤¸à¤¨": 1530,
      "àªĽ": 1531,
      "à°µà°°": 1532,
      "out": 1533,
      "à¦¸à¦®": 1534,
      "à¤¦à¤¨": 1535,
      "Ġtheir": 1536,
      "Ġall": 1537,
      "Ġag": 1538,
      "ions": 1539,
      "à°°à°®": 1540,
      "à¦ķà§°": 1541,
      "à¦¨à§°": 1542,
      "à¨ĺ": 1543,
      "à¤®à¤§": 1544,
      "og": 1545,
      "ĠÛģÙħ": 1546,
      "rou": 1547,
      "Ġup": 1548,
      "Ġà¦ķà¦¥": 1549,
      "ĠØ±ÙĪ": 1550,
      "à³Ĩà²Ĥ": 1551,
      "Ġà°¹": 1552,
      "à¤ļà¤¨": 1553,
      "à²¤à²°": 1554,
      "à¦ı": 1555,
      "Ġà¤ķà¤¹": 1556,
      "ĠØªÚ¾Ø§": 1557,
      "à¤°à¤¯": 1558,
      "à¦¼à¦¿": 1559,
      "à²¯à²¨": 1560,
      "Ġne": 1561,
      "à²Ĺà²³à²¨": 1562,
      "ĠàªĨàªª": 1563,
      "Ġà¤ķà¤°à¤¤": 1564,
      "Ġà¤Ĩà¤²": 1565,
      "ĠØ¨Ø±": 1566,
      "Ġus": 1567,
      "à¦°à¦ķ": 1568,
      "Ġsaid": 1569,
      "Ġà¬¥": 1570,
      "Ġà¤ıà¤µ": 1571,
      "ice": 1572,
      "Ġà¨¸à¨ķ": 1573,
      "ĠØ§Ùħ": 1574,
      "Ġàª¸àª®": 1575,
      "ĠàªŁ": 1576,
      "Ġ202": 1577,
      "ack": 1578,
      "à¤Łà¤°": 1579,
      "à®±à®¤": 1580,
      "à©Ī,": 1581,
      "ell": 1582,
      "Ġad": 1583,
      "Ġà¤²à¤Ĺ": 1584,
      "à¦ĥ": 1585,
      "ĠÙĪØ§ÙĦ": 1586,
      "Ġàª§": 1587,
      "ther": 1588,
      "Ġà®ĩà®¨": 1589,
      "àª°àª£": 1590,
      "ame": 1591,
      "are": 1592,
      "Ġà¨°à¨¹": 1593,
      "à²ĸ": 1594,
      "Ġà¨¨à¨¹": 1595,
      "ĠV": 1596,
      "ind": 1597,
      "Ġà¤¸à¤ķ": 1598,
      "Ġà¦ıà¦¬": 1599,
      "à©Īà¨Ĥ": 1600,
      "ĠÛĮ": 1601,
      "ĠÙħØ¹": 1602,
      "ine": 1603,
      "à´ķà´°": 1604,
      "Ġ7": 1605,
      "Ġà¨¸à¨®": 1606,
      "Ġte": 1607,
      "Øº": 1608,
      "Ġà²ħà²µà²°": 1609,
      "à³ĥ": 1610,
      "Ġà¤Ľà¤¨": 1611,
      "Ġà¤¸à¤°à¤ķ": 1612,
      "ĠÙĦÛĮ": 1613,
      "à´¿.": 1614,
      "Ġalso": 1615,
      "Ġcomp": 1616,
      "Ġà§§à§": 1617,
      "The": 1618,
      "à¦¾,": 1619,
      "à´Łà´¤": 1620,
      "ib": 1621,
      "av": 1622,
      "ian": 1623,
      "ry": 1624,
      "à©ģà©°": 1625,
      "Ġwhe": 1626,
      "Ġà¤ķà¤°à¤¨": 1627,
      "à®ķà®ª": 1628,
      "à¤¤à¤¤": 1629,
      "à¬°à¬¤": 1630,
      "ated": 1631,
      "one": 1632,
      "ime": 1633,
      "Ġà¬®à¬§": 1634,
      "à´ķà´¯": 1635,
      "à¬°à¬®": 1636,
      "ĠIn": 1637,
      "à¦¤à§°": 1638,
      "ya": 1639,
      "ĠØ¨ÙĨ": 1640,
      "à±ĥ": 1641,
      "Ġà¬ĺ": 1642,
      "ÙĪÛĮ": 1643,
      "à¦¾à¦Ĥ": 1644,
      "à¦¿à¥¤": 1645,
      "Ġ10": 1646,
      "cc": 1647,
      "und": 1648,
      "port": 1649,
      "Ġà®ĩà®¤": 1650,
      "à¤Ĺà¤²": 1651,
      "à¦°à¦£": 1652,
      "à®¤à®²": 1653,
      "àª°àª¤": 1654,
      "Ġà¨¡": 1655,
      "à¤ĵ": 1656,
      "Ġà¨Ł": 1657,
      "à²¤à²¦": 1658,
      "à®Łà®®": 1659,
      "à´¯à´®": 1660,
      "à¤¤à¤²": 1661,
      "Ġà¨īà¨¸": 1662,
      "Ġà´Ĵà´°": 1663,
      "Ġint": 1664,
      "Ġme": 1665,
      "ff": 1666,
      "Ġà¤¬à¤¤": 1667,
      "à¤°à¤²": 1668,
      "ĠÚĪ": 1669,
      "à°¿,": 1670,
      "à©Ī.": 1671,
      "ĠÙħØŃ": 1672,
      "à¦¨à¦¤": 1673,
      "Ġà¤ħà¤ªà¤¨": 1674,
      "Ġà°Ł": 1675,
      "Ġbeen": 1676,
      "Ġà¤Ĩà¤°": 1677,
      "Ġwhich": 1678,
      "à´°à´®": 1679,
      "ĠÙ¾ÛĮ": 1680,
      "à¬¨à¬Ļ": 1681,
      "Ġout": 1682,
      "Ġà¬Ł": 1683,
      "à¨°à¨ķ": 1684,
      "Ø¯ÛĮ": 1685,
      "Ġà°®à°°": 1686,
      "Ġà¨īà¨¹": 1687,
      "à¤¸à¤²": 1688,
      "§àŃ": 1689,
      "Ġà¬ıà¬¬": 1690,
      "Ø±Ùģ": 1691,
      "à¤¯à¤µ": 1692,
      "à¦ĵà¦¯": 1693,
      "à¥¨": 1694,
      "à¬¨à¬°": 1695,
      "ĠØ¯ÛĮ": 1696,
      "Ú©Ú¾": 1697,
      "ĠØ¯ÙĪ": 1698,
      "Ġim": 1699,
      "Ġbut": 1700,
      "Ġà¨Ĩà¨ªà¨£": 1701,
      "Ġ8": 1702,
      "à´ķàµ¾": 1703,
      "Ġwho": 1704,
      "à¥Īà¤Ĥà¥¤": 1705,
      "à¨°à¨¸": 1706,
      "Ø§Ø¹": 1707,
      "ĠÛģÛĮ": 1708,
      "ue": 1709,
      "ĠCh": 1710,
      "à¦ªà¦¨": 1711,
      "à²¸à²²": 1712,
      "à¤²à¤¨": 1713,
      "ake": 1714,
      "Ġen": 1715,
      "Ġà¤Ĺà¤¯": 1716,
      "Ġà²ĩà²¦": 1717,
      "Ġà¤¤à¤¸": 1718,
      "à¤¤à¤ķ": 1719,
      "à¬°à¬°": 1720,
      "ip": 1721,
      "ĠØ¢Ù¾": 1722,
      "à¤¹à¤£": 1723,
      "ous": 1724,
      "à¦ĺ": 1725,
      "Ġoff": 1726,
      "ick": 1727,
      "Ø¨Ø±": 1728,
      "Ú©Ûģ": 1729,
      "à²°à²¦": 1730,
      "Ġà¦Ĩà¦°": 1731,
      "à¤µà¤®": 1732,
      "),": 1733,
      "ĠØªØ¹": 1734,
      "Ġà¬¸à¬¹": 1735,
      "à³ģà²Ĥ": 1736,
      "ĠÙħÙĪ": 1737,
      "à¤²à¤¯": 1738,
      "Ġàª¤àª®": 1739,
      "à¤®à¤ķ": 1740,
      "Ġà¨ªà¨°": 1741,
      "Ø±Øª": 1742,
      "Ġà«": 1743,
      "à®ķà®°": 1744,
      "Ø¨ÛĮ": 1745,
      "à¤¬à¤°": 1746,
      "Ġà®ķà®Ł": 1747,
      "à§°à¦ķ": 1748,
      "Ġdo": 1749,
      "à®ķà®®": 1750,
      "Ġàªĺ": 1751,
      "Ġà¤ħà¤Ń": 1752,
      "Ġàª¶àªķ": 1753,
      "ĠÙ¹": 1754,
      "Ġà°ı": 1755,
      "ĠTh": 1756,
      "à¨°à¨¨": 1757,
      "Ġper": 1758,
      "à®³à®¤": 1759,
      "à¤¤à¤µ": 1760,
      "Ġthey": 1761,
      "Ġà¦Ĩà¦¨": 1762,
      "Ú¾Ø±": 1763,
      "à¤²à¤®": 1764,
      "Ġun": 1765,
      "Ø§Úº": 1766,
      "à³Ĩ,": 1767,
      "Ġà´ħà´¤": 1768,
      "ĠÙħÛĮ": 1769,
      "àŃŁà¬ķ": 1770,
      "Ġà¥©": 1771,
      "Ø§Ø¦ÛĴ": 1772,
      "à¦¬à¦¨": 1773,
      "age": 1774,
      "à©ĩà¨Ĥ": 1775,
      "Ġman": 1776,
      "à¤Łà¤¨": 1777,
      "Ġone": 1778,
      "à«ĥ": 1779,
      "à¤¤à¤¨": 1780,
      "ĠY": 1781,
      "Ġà°¡": 1782,
      "Ġà´¦": 1783,
      "à¤¿à¤ĥ": 1784,
      "àª°àªķ": 1785,
      "Ġà¤Ĩà¤¯": 1786,
      "à¦Ĩ": 1787,
      "ĠÛĮØ§": 1788,
      "Ġà²²": 1789,
      "à²°à²¤": 1790,
      "Ġhad": 1791,
      "Ġ,": 1792,
      "ÙĦÛĴ": 1793,
      "àªŁàª²": 1794,
      "ÙĨÚ¯": 1795,
      "Ġà¬«": 1796,
      "à°ĸ": 1797,
      "Ġà¬ıà¬ķ": 1798,
      "Ġà¤ħà¤¤": 1799,
      "Ġà®ħà®µà®°": 1800,
      "Ġyour": 1801,
      "Ġcont": 1802,
      "ÙĦØ§Ùħ": 1803,
      "à¦¬à¦°": 1804,
      "Ġ9": 1805,
      "à¨Łà¨°": 1806,
      "ans": 1807,
      "à°°à°¤": 1808,
      "à«ĭ.": 1809,
      "à¤Ĭ": 1810,
      "Ġà°Ĵ": 1811,
      "à²¯à²ķ": 1812,
      "ĠØ¬Ø³": 1813,
      "à¤Łà¤ķ": 1814,
      "Ø§ØªÚ¾": 1815,
      "à°¦à°¨": 1816,
      "ĠØ§Ø³Øª": 1817,
      "à¦¬à§°": 1818,
      "Ġà´±": 1819,
      "àª¾.": 1820,
      "ail": 1821,
      "à¤°à¤ª": 1822,
      "Ġà¤µà¤¹": 1823,
      "Ġà§¨": 1824,
      "Ġà®¨à®Ł": 1825,
      "Ġcl": 1826,
      "Ġsu": 1827,
      "à©Ģà¥¤": 1828,
      "ook": 1829,
      "ere": 1830,
      "Ġà¦ħà¦Ń": 1831,
      "à¤°à¤¶": 1832,
      "Ġàª¯": 1833,
      "Ġà¦ıà¦Ł": 1834,
      "ĠØº": 1835,
      "à´«": 1836,
      "à¬°à¬£": 1837,
      "Ġà®Ĵà®°": 1838,
      "ec": 1839,
      "ress": 1840,
      "à°¦à°°": 1841,
      "Ġà¦Ĩà¦¹": 1842,
      "iz": 1843,
      "à²¿,": 1844,
      "ĠÙħØ³": 1845,
      "Ø§ØŃ": 1846,
      "à¦ļà¦¨": 1847,
      "Ø§ÙĤ": 1848,
      "à´Ļàµ¾": 1849,
      "à¬ĩà¬Ľ": 1850,
      "Ġà¨ĺ": 1851,
      "Ġà´ªà´±": 1852,
      "à¬¿à¬ģ": 1853,
      "act": 1854,
      "ÛĮÙħ": 1855,
      "able": 1856,
      "ob": 1857,
      "...": 1858,
      "Ġàª¡": 1859,
      "àªł": 1860,
      "à¤µà¤ķ": 1861,
      "à®¤à®¤": 1862,
      "Ġà¬°à¬¹": 1863,
      "ov": 1864,
      "à¤ªà¤¦": 1865,
      "à¤ķà¤¡": 1866,
      "Ġà®®à®±": 1867,
      "ike": 1868,
      "àµĥ": 1869,
      "Ø±ÙĪ": 1870,
      "ance": 1871,
      "Ġres": 1872,
      "à¤¨à¤¨": 1873,
      "ge": 1874,
      "Ġà¤¸à¤¬": 1875,
      "ĠÙħÙĦ": 1876,
      "Ø§Ùģ": 1877,
      "ary": 1878,
      "Ġexp": 1879,
      "à®ķà®µ": 1880,
      "Ġà¦®à¦¹": 1881,
      "à´Ĥ.": 1882,
      "à¤ªà¤ķ": 1883,
      "orm": 1884,
      "fter": 1885,
      "à®ľ": 1886,
      "ĠÙ¾Ûģ": 1887,
      "Ġà¬ķà¬¹": 1888,
      "Ġinc": 1889,
      "à¨°à¨®": 1890,
      "ally": 1891,
      "ĠÚ©Ø±ÙĨÛĴ": 1892,
      "Ġà®īà®³": 1893,
      "à¬«": 1894,
      "Ġapp": 1895,
      "ish": 1896,
      "Ġà®ı": 1897,
      "à°¯à°¨": 1898,
      "à´ĸ": 1899,
      "Ġà²ħà²¨": 1900,
      "à¥«": 1901,
      "very": 1902,
      "à¦²à¦¤": 1903,
      "à¤§à¤¨": 1904,
      "à²°à²µ": 1905,
      "à®°à®®": 1906,
      "aj": 1907,
      "ĠSt": 1908,
      "Ġà¦¸à¦®à¦¯": 1909,
      "Ġà°ªà°°": 1910,
      "à¤¬à¤¨": 1911,
      "aw": 1912,
      "Ġà°¸à°®": 1913,
      "Ú©Ø±": 1914,
      "à¨Ŀ": 1915,
      "à°°à°ķ": 1916,
      "à¯ģ,": 1917,
      "à¤¹à¤¤": 1918,
      "Ġà¬§": 1919,
      "à¦ªà¦¤": 1920,
      "àª¿àªĤ": 1921,
      "Ø§ÙĨÛĴ": 1922,
      "Ġwere": 1923,
      "à¨¦à¨°": 1924,
      "Ġover": 1925,
      "ØªÛģ": 1926,
      "du": 1927,
      "Ġà°«": 1928,
      "ase": 1929,
      "Ġà¤¯à¤¸": 1930,
      "Ġà¤ĵ": 1931,
      "à¤¨à¤¸": 1932,
      "à¦ªà§°": 1933,
      "ĠØ§Ø¨": 1934,
      "Ġnew": 1935,
      "ĠØ§Ù¾ÙĨÛĴ": 1936,
      "ire": 1937,
      "ord": 1938,
      "Ġà´Ń": 1939,
      "Ġà´Ĺ": 1940,
      "Ġits": 1941,
      "à¬ħ": 1942,
      "Ġsc": 1943,
      "Ġà¤īà¤¦": 1944,
      "Ø¹Ø¯": 1945,
      "Ġà¤¤à¤¦": 1946,
      "à¥ħ": 1947,
      "ite": 1948,
      "Ġà¤¬à¤¢": 1949,
      "Ġmore": 1950,
      "à¤°à¤Ń": 1951,
      "Ġà¨¯": 1952,
      "à°ģ": 1953,
      "ĠÚ¯ÛĮØ§": 1954,
      "à¤µà¤¶": 1955,
      "Ġàªķàª¹": 1956,
      "Ø¢": 1957,
      "Ġyear": 1958,
      "à¤¤à¤¸": 1959,
      "Ġà¤īà¤¨à¤ķ": 1960,
      "Ġà¨īà¨¨": 1961,
      "à¨ĩà¨Ĩ": 1962,
      "Ġà´¯": 1963,
      "à®·": 1964,
      "Ġà¦ıà¦ķà¦Ł": 1965,
      "Ø§ÙĨÛģ": 1966,
      "Ġà¨Ĳ": 1967,
      "à®ķà®¤": 1968,
      "Ġà¤ªà¤¤": 1969,
      "à®Łà®©": 1970,
      "ace": 1971,
      "pt": 1972,
      "àŃ¦": 1973,
      "Ġà¤Ĩà¤¤": 1974,
      "ĠÙħØ±": 1975,
      "Ġà´ªà´°": 1976,
      "à¤¯à¤µà¤¸": 1977,
      "à²¯à²µ": 1978,
      "à²¨à²²": 1979,
      "à¤®à¤²": 1980,
      "Ġà¬ľà¬£": 1981,
      "ĠIndia": 1982,
      "Ġà¦Ĩà¦Ĺ": 1983,
      "Ġà¤¦à¤°": 1984,
      "à¨īà¨£": 1985,
      "à®¯à®¤": 1986,
      "à¤ªà¤®": 1987,
      "Ġso": 1988,
      "Ġqu": 1989,
      "Ġà°Ĵà°ķ": 1990,
      "à¥ĩà¥¤": 1991,
      "à¥Ī,": 1992,
      "àª°àªµ": 1993,
      "ĠÚ©ÛģØ§": 1994,
      "Ġà¨ĩà¨ķ": 1995,
      "ign": 1996,
      "ach": 1997,
      "Ġàª¨àª¥": 1998,
      "Ġplay": 1999,
      "ult": 2000,
      "àµį,": 2001,
      "à¦ªà¦°": 2002,
      "Ġàªīàªª": 2003,
      "Ġà¤¸à¤¤": 2004,
      "Ġà´ĩà´¤": 2005,
      "Ø§Ø¬": 2006,
      "à°¯à°ķ": 2007,
      "à¦¼à§ĭ": 2008,
      "Ġà¨¸à¨ķà¨¦": 2009,
      "ence": 2010,
      "Ø§ÙĦÛĮ": 2011,
      "àª¨àª¨": 2012,
      "âĢĿ": 2013,
      "ie": 2014,
      "Ġher": 2015,
      "à°«": 2016,
      "à®Łà®°": 2017,
      "Ġà¦¬à§°": 2018,
      "à¬¬à¬¨": 2019,
      "ÙħØ§": 2020,
      "ai": 2021,
      "Ġà¤ªà¤¦": 2022,
      "Ûĥ": 2023,
      "ĠØ°": 2024,
      "ru": 2025,
      "ond": 2026,
      "Ġà®ħà®°": 2027,
      "à¤ĩà¤¨": 2028,
      "àªĿ": 2029,
      "à¤²à¤¤": 2030,
      "ven": 2031,
      "Ġà¬¬à¬°": 2032,
      "ations": 2033,
      "à¥ª": 2034,
      "à¥©": 2035,
      "à«Ģ,": 2036,
      "Ø§Ø´": 2037,
      "ĠØªÚ¾ÛĴ": 2038,
      "20": 2039,
      "Ù¹ÛĮ": 2040,
      "ĠâĢľ": 2041,
      "Ġà²¨à²¡": 2042,
      "ĠØªÙħ": 2043,
      "wo": 2044,
      "à¥Ń": 2045,
      "à¤°à¤¨": 2046,
      "Ġother": 2047,
      "à¨¼à©Ģ": 2048,
      "Ġam": 2049,
      "à®¤à®®": 2050,
      "Ġà¤¬à¤¹": 2051,
      "Ġà¨ªà¨¹": 2052,
      "Ġdis": 2053,
      "ĠIt": 2054,
      "vel": 2055,
      "Ġà²ªà²°": 2056,
      "Ġà´ĩà´¨": 2057,
      "Ġà¤Ĩà¤ľ": 2058,
      "à¦¤à¦°": 2059,
      "Ú©ÛĮ": 2060,
      "Ġà´«": 2061,
      "à¤ķà¤°à¤£": 2062,
      "Ġà´Ł": 2063,
      "ÙĤØª": 2064,
      "ount": 2065,
      "à¤ķà¤®": 2066,
      "Ġpart": 2067,
      "à¥Ģà¥¤": 2068,
      "Ġàªµàª§": 2069,
      "irst": 2070,
      "à¨¼à¨¿": 2071,
      "à«Ī": 2072,
      "à§ĭà¦ģ": 2073,
      "Ġabout": 2074,
      "à´°à´£": 2075,
      "à²¿.": 2076,
      "Ġà´ħà´µ": 2077,
      "Ġà¤ħà¤¸à¤²": 2078,
      "Ø±ØŃ": 2079,
      "ber": 2080,
      "à®¯à®²": 2081,
      "Ġ15": 2082,
      "ays": 2083,
      "à®¯à®®": 2084,
      "à²°à²£": 2085,
      "à¨Ĩà¨°": 2086,
      "Ġà¦¸à¦ķà¦²": 2087,
      "ÚĨÚ¾": 2088,
      "à®µà®©": 2089,
      "à´İ": 2090,
      "ĠHe": 2091,
      "Ġà¨ķà¨°à¨¦": 2092,
      "àŃĩà¥¤": 2093,
      "ĠàŃ§àŃ": 2094,
      "à²°à²ķ": 2095,
      "ile": 2096,
      "à²ĥ": 2097,
      "à¨ł": 2098,
      "own": 2099,
      "à¦·à¦£": 2100,
      "à°ķà°°": 2101,
      "Ú¯ÛĮ": 2102,
      "ĠÙĦØ¦ÛĴ": 2103,
      "à¥įà¥¤": 2104,
      "Ġpe": 2105,
      "ØªØ±": 2106,
      "ĠÙĦÛĮÛĴ": 2107,
      "à©Ģ,": 2108,
      "Ġà¨¬à¨£": 2109,
      "ĠØ³Ø§ØªÚ¾": 2110,
      "Ġàªµàª°": 2111,
      "ĠÙħÙĤ": 2112,
      "à¤¯à¤²": 2113,
      "Ġà²¸à²®": 2114,
      "à¦¦à§°": 2115,
      "à¥¬": 2116,
      "Ġà¥¤à¥¤": 2117,
      "ose": 2118,
      "ĠØªÚ©": 2119,
      "Ġà®Ł": 2120,
      "à¦¯à¦ķ": 2121,
      "Ġà¤Ĩà¤«": 2122,
      "Ġà¤ķà¤²": 2123,
      "Ġà¤ħà¤ª": 2124,
      "ĠØ¹Ùħ": 2125,
      "à¤¿,": 2126,
      "Ġ12": 2127,
      "à¤¯à¤ª": 2128,
      "pl": 2129,
      "à«ĩàª¾": 2130,
      "Ġtime": 2131,
      "à¦®à¦¤": 2132,
      "Ġà¨§": 2133,
      "ass": 2134,
      "ÛģØ±": 2135,
      "à¬¢": 2136,
      "à¦¿,": 2137,
      "àŃĮ": 2138,
      "Ġà¦Ĩà¦²": 2139,
      "ction": 2140,
      "ks": 2141,
      "Ġà¬¡": 2142,
      "à±į,": 2143,
      "àµ¼à´¤": 2144,
      "Ġà¦īà¦¦": 2145,
      "à³Į": 2146,
      "ĠSh": 2147,
      "Ġà¥ª": 2148,
      "Ġà´ħà´¨": 2149,
      "Ù¹Ø±": 2150,
      "ĠÙĦÙĪ": 2151,
      "Ġà¤Ĳ": 2152,
      "Ġà´¹": 2153,
      "à¤¡à¤²": 2154,
      "Ġàª®àª¹": 2155,
      "àª¾,": 2156,
      "à±Ĭà°Ĥ": 2157,
      "à¦¿à¦Ĥ": 2158,
      "Ġrec": 2159,
      "Ġà®ħà®®": 2160,
      "Ġà¬Ĩà¬¸": 2161,
      "int": 2162,
      "ÙģØ±": 2163,
      "Ġàª¬àª¨": 2164,
      "à´¾à´Ĥ": 2165,
      "à¦°à¦®": 2166,
      "Ġà¦¹à¦¬": 2167,
      "ÙħØ¯": 2168,
      "ĠØªØ±": 2169,
      "form": 2170,
      "ĠØ§Ø²": 2171,
      "ĠØ³Ø±": 2172,
      "à§¨": 2173,
      "Ġà¤®à¤§": 2174,
      "Ġlike": 2175,
      "à°¯à°®": 2176,
      "à¤µà¤¯": 2177,
      "Ġà¥«": 2178,
      "Ġà´¸à´®": 2179,
      "ll": 2180,
      "ne": 2181,
      "à¤¦à¤¸": 2182,
      "à¤¶à¤ķ": 2183,
      "Ø¬Ûģ": 2184,
      "Ġthere": 2185,
      "ÛĮØª": 2186,
      "Ġà´¡": 2187,
      "ings": 2188,
      "Ġafter": 2189,
      "Ġà¦¬à¦¹": 2190,
      "à¦²à¦ķ": 2191,
      "ition": 2192,
      "Ø¯Ø±": 2193,
      "à¨°à¨¦": 2194,
      "ĠØ¬Ø¨": 2195,
      "ade": 2196,
      "à¥ĭà¥¤": 2197,
      "Ġthem": 2198,
      "Ġar": 2199,
      "hed": 2200,
      "à¤°à¤ļ": 2201,
      "Ø³ØªØ§ÙĨ": 2202,
      "Ġà¤¹à¤ľ": 2203,
      "àµģà´Ĥ.": 2204,
      "Ġà¬ħà¬§": 2205,
      "Ø´ÙĨ": 2206,
      "ree": 2207,
      "à¦¬à¦¸": 2208,
      "Ġà¤ĩà¤¨": 2209,
      "à¥¥": 2210,
      "Ġà°īà°¨": 2211,
      "we": 2212,
      "à¦¼,": 2213,
      "ĠØ³Ú©": 2214,
      "oll": 2215,
      "ĠØ®ÙĪ": 2216,
      "à®¯à®°": 2217,
      "à¤¤à¤¦": 2218,
      "Ġà¦ħà¦¸à¦®": 2219,
      "à¤®à¤ļ": 2220,
      "à¦Ĺà§°": 2221,
      "à¦·à¦¯": 2222,
      "Ġà¤ħà¤¶": 2223,
      "àª¶àª¨": 2224,
      "ĠØ¹ÙĦ": 2225,
      "ĠØ¨Ø§": 2226,
      "à°Łà°°": 2227,
      "à²¡à²²": 2228,
      "à¤¼à¤¾": 2229,
      "à¨¯": 2230,
      "Ġà¬®à¬¹": 2231,
      "Ġà¦ļà¦²": 2232,
      "ĠÚ¯Ø§": 2233,
      "à¬Łà¬°": 2234,
      "Ġà¬ĩ": 2235,
      "à¦¢": 2236,
      "ĠÙģÛĮ": 2237,
      "àª¸àª¨": 2238,
      "à¤·à¤¯": 2239,
      "Ø¨Ûģ": 2240,
      "à¤Łà¤²": 2241,
      "Ø§Øµ": 2242,
      "à¥®": 2243,
      "ory": 2244,
      "Ġà¤¯à¤¦": 2245,
      "Ġwould": 2246,
      "Ġmat": 2247,
      "ark": 2248,
      "Ġà¦¸à¦¨": 2249,
      "day": 2250,
      "Ġagain": 2251,
      "Ġro": 2252,
      "ical": 2253,
      "ĠØ¯ÛĮØ§": 2254,
      "à´°à´µ": 2255,
      "ict": 2256,
      "Ġtr": 2257,
      "ĠàŃ¨": 2258,
      "à²°à²®": 2259,
      "ng": 2260,
      "à¦¸à¦ķà¦²": 2261,
      "ĠØ¨Ø¹Ø¯": 2262,
      "à¨¾,": 2263,
      "Ġfirst": 2264,
      "ĠAs": 2265,
      "Ġser": 2266,
      "Ġà¦¸à¦¹": 2267,
      "Ġ|": 2268,
      "Ġà¤ĺà¤°": 2269,
      "Ġany": 2270,
      "àªµàª¨": 2271,
      "à²Ĺà²³à²²": 2272,
      "Ø§Ø±ÛĴ": 2273,
      "ove": 2274,
      "Ġà®ªà®Ł": 2275,
      "à°İ": 2276,
      "ĠØ¬ÙĨ": 2277,
      "ents": 2278,
      "Ġà¦ħà¦§": 2279,
      "ÙħØ§ÙĨ": 2280,
      "reat": 2281,
      "000": 2282,
      "à¨ķà¨¸": 2283,
      "Ġà²¡": 2284,
      "à¤·à¤ķ": 2285,
      "Ġà¤¸à¤ķà¤¤": 2286,
      "à±Į": 2287,
      "à¬®à¬°": 2288,
      "oy": 2289,
      "Ġàª®àª³": 2290,
      "Ġà´ı": 2291,
      "à¥Ī.": 2292,
      "à¤ªà¤Ľ": 2293,
      "ĠØŃÚ©": 2294,
      "Ġpre": 2295,
      "Ġà´Ī": 2296,
      "à¥Įà¤Ĥ": 2297,
      "Ġà²Ł": 2298,
      "ors": 2299,
      "ĠÙħØª": 2300,
      "ens": 2301,
      "à²İ": 2302,
      "Ġà¬®à¬¨": 2303,
      "à¤¸à¤¤": 2304,
      "à®©à®¤": 2305,
      "ĠÚ©Ø±ØªÛĴ": 2306,
      "Ġà°ħà°µ": 2307,
      "mer": 2308,
      "uk": 2309,
      "Ø¬Ú¾": 2310,
      "à«ģàªĤ.": 2311,
      "Ġà¦Ĩà¦¸": 2312,
      "à¤®à¤°": 2313,
      "amp": 2314,
      "Ġà¦¹à¦²": 2315,
      "Ġà¤ĸà¤°": 2316,
      "à¦®à§°": 2317,
      "ĠÚ©ÙĪØ¦ÛĮ": 2318,
      "à¬Ĺà¬°": 2319,
      "à¤ªà¤¯": 2320,
      "ari": 2321,
      "à¦¶à¦¨": 2322,
      "Ġund": 2323,
      "à²«": 2324,
      "Ġà®µà®´": 2325,
      "à²¤à²¨": 2326,
      "Ġà¬Ľ": 2327,
      "à´²à´¯": 2328,
      "ople": 2329,
      "Ġwhen": 2330,
      "à¤µà¤ª": 2331,
      "ĠÙħØ´": 2332,
      "à¬ļà¬¨": 2333,
      "à¤¥à¤®": 2334,
      "Ġà¤Ĩà¤¦": 2335,
      "Ġàªĵ": 2336,
      "Ġacc": 2337,
      "Ġget": 2338,
      "Ġà´µà´°": 2339,
      "à²¦à²¨": 2340,
      "ÙĤÛĮ": 2341,
      "àªµàªµ": 2342,
      "à¨¾à¥¤": 2343,
      "à´¯à´ķ": 2344,
      "à¬³à¬°": 2345,
      "Ġno": 2346,
      "à¬¾,": 2347,
      "Ø³Ø±": 2348,
      "à¤°à¤§": 2349,
      "old": 2350,
      "Ġà¦¹à¦ĩ": 2351,
      "à¤Ĺà¤®": 2352,
      "Ġà¥¨à¥¦": 2353,
      "Ġà°ķà°²": 2354,
      "à¨¸à¨¤": 2355,
      "ash": 2356,
      "ef": 2357,
      "à´µà´¨": 2358,
      "19": 2359,
      "àªĨ": 2360,
      "à¦¤à¦¨": 2361,
      "Ġà´ĵ": 2362,
      "Ġà¤ªà¤ķ": 2363,
      "ound": 2364,
      "Ġà¦§à§°": 2365,
      "à¤¼à¥į": 2366,
      "te": 2367,
      "à¦²à¦¨": 2368,
      "à®³à®°": 2369,
      "Ġà¤¸à¤¨": 2370,
      "vern": 2371,
      "ÙĦÙĪ": 2372,
      "Ġà²Ĩà²Ĺ": 2373,
      "ĠØ§Ø¹": 2374,
      "à¬¿,": 2375,
      "Ġhim": 2376,
      "Ġà¨¬à¨¹": 2377,
      "àŃĩ,": 2378,
      "à±ĩà°Ĥ": 2379,
      "à¤µà¤£": 2380,
      "Ġà¤¤à¤ķ": 2381,
      "à¬ĥ": 2382,
      "à¤¨à¤¤": 2383,
      "à¨°à¨ľ": 2384,
      "Ġtwo": 2385,
      "àªľàª¨": 2386,
      "ĠØŃØ¶": 2387,
      "Ġà®ħà®Ł": 2388,
      "Ġà¦®à¦§": 2389,
      "Ġà¦¬à¦¨": 2390,
      "à²²à²µ": 2391,
      "ĠØ¶": 2392,
      "à¥ĭ,": 2393,
      "Ġà²Ĩà²°": 2394,
      "à®ŀ": 2395,
      "ĠØ¬Ø§Øª": 2396,
      "à°·à°¨": 2397,
      "à¬°à¬¸": 2398,
      "Ġà¦Ĩà¦¬": 2399,
      "Ġà²«": 2400,
      "Ġsome": 2401,
      "Ġ11": 2402,
      "à¤µà¤¦": 2403,
      "à®¤à®©": 2404,
      "Ġà°ħà°¯": 2405,
      "à¨Ľ": 2406,
      "Ġà¤ħà¤¸à¤¤": 2407,
      "Ġàªħàª®": 2408,
      "Ġà®ħà®©": 2409,
      "à¦ĩà¦¨": 2410,
      "ÙĪØ±ÛĮ": 2411,
      "à¦ľà§°": 2412,
      "à¤¯à¤¦": 2413,
      "à¬ĺ": 2414,
      "à¦²à§°": 2415,
      "à°®à°¨": 2416,
      "Ġ18": 2417,
      "à´ļà´¤": 2418,
      "à´°à´ķ": 2419,
      "àª¤àª¨": 2420,
      "ĠØ§ÛĮÙĨ": 2421,
      "ert": 2422,
      "Ġwork": 2423,
      "ĠØ³ÙĪ": 2424,
      "ÛĮÚ©ÙĨ": 2425,
      "à°°à°£": 2426,
      "Ġàª¨àª¹": 2427,
      "Ġàªªàª¡": 2428,
      "ĠÙħØ·": 2429,
      "ĠÚ©Ø³ÛĮ": 2430,
      "à¤Ńà¤µ": 2431,
      "Ġà¨ħà¨¸": 2432,
      "ĠÚ©Ùħ": 2433,
      "ĠØ¬Ø§ÙĨ": 2434,
      "à¤®à¤¸": 2435,
      "à¦¹à§°": 2436,
      "à¦ħ": 2437,
      "ĠØ³Ø¨": 2438,
      "Ġà¤Ĩà¤ªà¤²": 2439,
      "à¤ľà¤°": 2440,
      "Ġàª¥àª¯": 2441,
      "àª¯àª¨": 2442,
      "Ġà´¤à´¨": 2443,
      "ĠØªÚ¾ÛĮ": 2444,
      "Ġà¦Ĩà¦¦": 2445,
      "à¦ķà¦¤": 2446,
      "à¤Ľà¤¨": 2447,
      "Ġà¤¸à¤Ń": 2448,
      "à¥ģà¤ĥ": 2449,
      "Ġà¦ķà¦²": 2450,
      "à¨¬à¨°": 2451,
      "Ġà´¨à´Ł": 2452,
      "à¥¯": 2453,
      "à¦Łà¦¨": 2454,
      "à®²à®®": 2455,
      "Ġà²¸à²°": 2456,
      "anc": 2457,
      "Ø³ÛĴ": 2458,
      "iss": 2459,
      "ĠØ¨Úĳ": 2460,
      "Ġà¨®à¨¹": 2461,
      "Ġà¤Ĩà¤§": 2462,
      "Ġà®¯": 2463,
      "Ġà¦ķà¦®": 2464,
      "Ġpeople": 2465,
      "Ġà¤ħà¤²": 2466,
      "ÙĪØ±Øª": 2467,
      "à°ĥ": 2468,
      "Ġfe": 2469,
      "Ġbec": 2470,
      "ates": 2471,
      "à´¤à´®": 2472,
      "à²¯à²°": 2473,
      "ÙĪÛģ": 2474,
      "Ġ30": 2475,
      "Ġà¤īà¤¸": 2476,
      "Ø§Ø¡": 2477,
      "à¦°à¦¸": 2478,
      "à¥į,": 2479,
      "Ġà¨Ľ": 2480,
      "ĠÛģÙĪØ¦ÛĴ": 2481,
      "ĠÚ©Ú¾": 2482,
      "à¤½à¤ª": 2483,
      ").": 2484,
      "Ġà¤¹à¤°": 2485,
      "à®°à®¤": 2486,
      "ÛĮØ²": 2487,
      "Ġà¤¬à¤¸": 2488,
      "Ġinto": 2489,
      "Ġà¦Ĩà¦ķ": 2490,
      "Ġà¤Ĺà¤¤": 2491,
      "à¤®à¤£": 2492,
      "ĠØ¯ÙĨ": 2493,
      "ÙħÛģ": 2494,
      "à«ĢàªĤ": 2495,
      "Ġkn": 2496,
      "Ġà¦Ĩà¦ľ": 2497,
      "Ġunder": 2498,
      "Ġà¤¶à¤°": 2499,
      "Ġà¦ł": 2500,
      "à¤¨à¤²": 2501,
      "ĠNew": 2502,
      "Ø®Øª": 2503,
      "Ġà¥¬": 2504,
      "à°°à°¸": 2505,
      "urn": 2506,
      "Ġà¦ħà¦¤": 2507,
      "à¨ķà¨°": 2508,
      "eng": 2509,
      "à©Ģ.": 2510,
      "Ġour": 2511,
      "ana": 2512,
      "àªµàª¸": 2513,
      "àµ¼à´ķ": 2514,
      "Ġàªĩ": 2515,
      "à¤²à¤¬": 2516,
      "ĠÙĦÙĪÚ¯": 2517,
      "à¬ĩà¬¬": 2518,
      "Ġàªªàª¹": 2519,
      "à²¤à²µ": 2520,
      "vernment": 2521,
      "Ġadd": 2522,
      "Ġà¤ħà¤®": 2523,
      "à¤¹à¤¨": 2524,
      "à§§à§": 2525,
      "ĠØ¨Ø§Øª": 2526,
      "Ġà®ľ": 2527,
      "Ġà¤¹à¤®": 2528,
      "Ġà¤¨à¤µ": 2529,
      "Ġà¤²à¤ķ": 2530,
      "li": 2531,
      "Ġbet": 2532,
      "ÙħÙĨ": 2533,
      "Ġà¤ħà¤¬": 2534,
      "à¦²à¦¯": 2535,
      "Ġà¤ĩà¤¸à¤ķ": 2536,
      "Ġà²ı": 2537,
      "Ġà²®à²¨": 2538,
      "à¨ķà¨¤": 2539,
      "Ġthan": 2540,
      "ough": 2541,
      "Ġra": 2542,
      "à¦°à¦¬": 2543,
      "ĠØ§Ù¾ÙĨÛĮ": 2544,
      "Ġ200": 2545,
      "ĠØ¬Ø§": 2546,
      "ÙģØª": 2547,
      "Ġà®ħà®±": 2548,
      "à¤ķà¤¸": 2549,
      "ĠÛģÙĪØ§": 2550,
      "Ġà¦ķà¦°à¦¤": 2551,
      "à¬¬à¬¸": 2552,
      "Ġà¤¸à¤®à¤¯": 2553,
      "àª¤àª°": 2554,
      "à«ĭàªĤ": 2555,
      "àªµàª°": 2556,
      "à¦¦à¦¨": 2557,
      "ise": 2558,
      "à¬ľà¬¨": 2559,
      "Ġà¦¸à¦¬": 2560,
      "Ġà¤¶à¤ķ": 2561,
      "Ø§Ø±Ûģ": 2562,
      "Ġà¦ıà¦ĸà¦¨": 2563,
      "Ġà¦®à¦¤": 2564,
      "à¤µà¤ļ": 2565,
      "Ġà²ĩà²²": 2566,
      "oh": 2567,
      "ĠÚ©Ø§Ùħ": 2568,
      "Ġact": 2569,
      "à°µà°²": 2570,
      "ĠØ±Ú©Ú¾": 2571,
      "Ġà¤Ĩà¤®": 2572,
      "Ġà¦¯à¦¦": 2573,
      "à¬¦à¬°": 2574,
      "àªķàª°": 2575,
      "ek": 2576,
      "ĠØŁ": 2577,
      "Ġà¦īà¦ł": 2578,
      "à¦ķà¦°": 2579,
      "Ġà®ªà®²": 2580,
      "ĠØ·Ø±ØŃ": 2581,
      "à²¸à²°": 2582,
      "Ġà°¤à°¨": 2583,
      "ational": 2584,
      "Ġà¨Ĺà¨Ī": 2585,
      "vers": 2586,
      "àªĵàª¨": 2587,
      "à¨Ĺà¨°": 2588,
      "à¤¦à¤²": 2589,
      "Ġonly": 2590,
      "ĠØ§ØŃ": 2591,
      "ĠÙĨØ¸": 2592,
      "Ġà¤ħà¤µ": 2593,
      "Ġif": 2594,
      "à°²à°²": 2595,
      "Ġshe": 2596,
      "ĠØ£": 2597,
      "ĠÙĤØ±": 2598,
      "à¤§à¤°": 2599,
      "à´°à´¸": 2600,
      "Ġà°ľà°°": 2601,
      "ĠÙ¾Ø§Ú©": 2602,
      "Ġà¤ªà¤¹à¤²": 2603,
      "Ġ14": 2604,
      "Ġà¤ĳ": 2605,
      "à®°à®£": 2606,
      "Ġà²ľà²¨": 2607,
      "ath": 2608,
      "Ġsup": 2609,
      "à¨®à¨²": 2610,
      "ÙĨÛģ": 2611,
      "Ġi": 2612,
      "Ġà´Ĩà´°": 2613,
      "Ġà¬ķà¬²": 2614,
      "à¬®à¬¨": 2615,
      "à²¯à²¦": 2616,
      "à¬ªà¬£": 2617,
      "Ġà¦ıà¦¨": 2618,
      "Ġà´ķà´´": 2619,
      "ck": 2620,
      "à¤°à¤ľ": 2621,
      "ĠÛģØ±": 2622,
      "à¦¥à¦®": 2623,
      "uring": 2624,
      "Ġà¤ħà¤¹": 2625,
      "Ġà´ªà´±à´ŀ": 2626,
      "à®ĩ": 2627,
      "à©ĩ,": 2628,
      "Ġà²µà²°": 2629,
      "Ġà¦²à¦Ĺà¦¤": 2630,
      "à¦¤à¦ķ": 2631,
      "ĠØ±ÛģÛĴ": 2632,
      "als": 2633,
      "rit": 2634,
      "Ø¯Ø§": 2635,
      "à°¤à°°": 2636,
      "Ġà²İà²²": 2637,
      "Ġà¦ĩà¦¯": 2638,
      "à¤ªà¤£": 2639,
      "Ġà¤§à¤°": 2640,
      "Ġà¦¸à¦Ļ": 2641,
      "ug": 2642,
      "Ġà¦¬à¦Ľ": 2643,
      "aus": 2644,
      "à¦¾-": 2645,
      "à¤¨à¤µ": 2646,
      "Ġsec": 2647,
      "Ġà®ıà®±": 2648,
      "Ġteam": 2649,
      "ank": 2650,
      "Ġà¨¸à¨¨": 2651,
      "Ġà¬ħà¬Ń": 2652,
      "à°ªà°¡": 2653,
      "rough": 2654,
      "ĠØ¨Ú¾": 2655,
      "ĠThis": 2656,
      "ood": 2657,
      "ÛĮÙĦ": 2658,
      "à®¤à®°": 2659,
      "àµĮ": 2660,
      "Ġà¤īà¤¨à¤²": 2661,
      "Ġagainst": 2662,
      "àŃĪ": 2663,
      "ason": 2664,
      "Ġdec": 2665,
      "àªĥ": 2666,
      "ĠÛģÙĪÚº": 2667,
      "Ġà¦®à¦ĩ": 2668,
      "Ġmy": 2669,
      "Ġà®ĩà®²": 2670,
      "à©ĩà¥¤": 2671,
      "Ġà¦ħà¦¸": 2672,
      "row": 2673,
      "Ø§ÙĪØ±": 2674,
      "Ġà´ķà´£": 2675,
      "Ġ13": 2676,
      "Ġjust": 2677,
      "Ġà®ķà®²": 2678,
      "Ġà¤ľà¤¬": 2679,
      "Ø¯Ø§Ø±": 2680,
      "à°¨à°Ł": 2681,
      "Ġpol": 2682,
      "Ġà°¤à°°": 2683,
      "ting": 2684,
      "tern": 2685,
      "Ġà®µà®¨": 2686,
      "à¤·à¤¤": 2687,
      "Ġà²¬à²³": 2688,
      "Ġà¤ħà¤Ĺ": 2689,
      "vi": 2690,
      "ĠØ§Ú¯Ø±": 2691,
      "Ġop": 2692,
      "ning": 2693,
      "Ġ25": 2694,
      "Ġà¦¨à¦¹": 2695,
      "à´ĺ": 2696,
      "à¤ıà¤°": 2697,
      "Ġà¤¯à¤¥": 2698,
      "round": 2699,
      "à¤¸à¤¦": 2700,
      "à¨ĵ": 2701,
      "à¤²à¤²": 2702,
      "aking": 2703,
      "à®ķà®²": 2704,
      "àŃģà¬ģ": 2705,
      "à°ķà°²": 2706,
      "à³į,": 2707,
      "Ġà¬īà¬ª": 2708,
      "à¨°à¨Ł": 2709,
      "à¨ªà¨¤": 2710,
      "à²¬à²¹": 2711,
      "Ġà¬Ĩà¬®": 2712,
      "à²²à²ķ": 2713,
      "Ġà¤īà¤¸à¤ķ": 2714,
      "Ġà¤¤à¤¯": 2715,
      "Ġpr": 2716,
      "àªŁàª¨": 2717,
      "ĠÚ©Ø§Ø±": 2718,
      "Ġreg": 2719,
      "à°¤à°¨": 2720,
      "lud": 2721,
      "Ġtra": 2722,
      "ĠØªØŃ": 2723,
      "Ġà®ķà®£": 2724,
      "Ġàª®àª¨": 2725,
      "à®¿,": 2726,
      "ĠØ±Ø³": 2727,
      "à¥ģà¤ģ": 2728,
      "Ġback": 2729,
      "ft": 2730,
      "Ġà¨¸à¨Ń": 2731,
      "ĠàªĹàª¯": 2732,
      "à¤ªà¤¸": 2733,
      "Ġimp": 2734,
      "à®ªà®°": 2735,
      "Ø¹Ûģ": 2736,
      "à¨¸à¨Ł": 2737,
      "Ġà°µà°ļ": 2738,
      "à²°à²²": 2739,
      "ĠØ¨ÙĦ": 2740,
      "Ġà¤ļà¤²": 2741,
      "à¦¤à¦®": 2742,
      "Ġatt": 2743,
      "Ġ[": 2744,
      "ister": 2745,
      "Ġà®ļà®®": 2746,
      "ha": 2747,
      "à¤Ĺà¤£": 2748,
      "à´¯à´¨": 2749,
      "ÙħØª": 2750,
      "Ġà®¤à®®": 2751,
      "Ø§Ø¯ÛĮ": 2752,
      "Ġwhat": 2753,
      "àª¯àª®": 2754,
      "à¤¨à¤°": 2755,
      "à°°à°Ń": 2756,
      "Ġ16": 2757,
      "Ġà¦Ĩà¦ª": 2758,
      "ities": 2759,
      "man": 2760,
      "à¬¾à¥¤": 2761,
      "Ġfin": 2762,
      "Ġpo": 2763,
      "à²Ĺà²²": 2764,
      "Ûĵ": 2765,
      "ÛĮÚ©Ú¾": 2766,
      "à´Łà´Ļ": 2767,
      "Ġà¤¬à¤ľ": 2768,
      "ĠØ§ÙĨÛģ": 2769,
      "ÛĶ": 2770,
      "Ġà²ĸ": 2771,
      "à®®à®²": 2772,
      "Ġà¥Ń": 2773,
      "à°ªà°Ł": 2774,
      "ild": 2775,
      "Ġind": 2776,
      "ĠØ±Ø§": 2777,
      "àª¯àªķ": 2778,
      "ram": 2779,
      "à´ªà´¤": 2780,
      "Ġà¬¸à¬®à¬¸": 2781,
      "Ġà¦ıà¦°": 2782,
      "ĠÚĨØ§Ûģ": 2783,
      "à²¬à²°": 2784,
      "à§İà¦¸": 2785,
      "à°¯à°²": 2786,
      "ĠÙ¾Úĳ": 2787,
      "ĠÚ¯ÛĴ": 2788,
      "Ø§Ø¶": 2789,
      "Ġà®ĩà®©": 2790,
      "à¤µà¤¡": 2791,
      "ĠØ³Ø§ÙĦ": 2792,
      "ased": 2793,
      "à¬·à¬°": 2794,
      "Ġà¤¯à¤¤": 2795,
      "Ġà¨¹à¨°": 2796,
      "ident": 2797,
      "Ġco": 2798,
      "à¦¼à§Ģ": 2799,
      "Ġà¤Ĺà¤Ī": 2800,
      "Ġà¦¥à¦ķ": 2801,
      "à®²à®¤": 2802,
      "à¦Ľà¦¤": 2803,
      "à°Ĩ": 2804,
      "à§«": 2805,
      "êŀ": 2806,
      "à±ĭà°Ĥ": 2807,
      "Ġà®ªà®£": 2808,
      "Ġna": 2809,
      "à¤¦à¤µ": 2810,
      "à¤¶à¤¤": 2811,
      "ĠàªªàªĽ": 2812,
      "Ġàª¸àª°": 2813,
      "à«¦": 2814,
      "ØªÙħ": 2815,
      "à´·à´£": 2816,
      "Ġà¦ħà¦¬": 2817,
      "Ġcomm": 2818,
      "Ġà²Ĩà²¦à²°": 2819,
      "à¤¡à¤ķ": 2820,
      "'t": 2821,
      "à¤®à¤ª": 2822,
      "ĠØ§Ø±": 2823,
      "ix": 2824,
      "Ġà²ħà²µ": 2825,
      "hat": 2826,
      "Ġà¦ªà¦¡": 2827,
      "Ġem": 2828,
      "Ġà®ħà®°à®ļ": 2829,
      "....": 2830,
      "Ġhow": 2831,
      "à¤¸à¤¹": 2832,
      "ÛģÙħ": 2833,
      "Ġfil": 2834,
      "ĠÙĦÚ¯": 2835,
      "Ġke": 2836,
      "\\\\": 2837,
      "Ġmost": 2838,
      "àªªàª¨": 2839,
      "Ġà¦īà¦¤": 2840,
      "Ġà°Ĩà°°": 2841,
      "ÙģÛĮ": 2842,
      "à¤Łà¤®": 2843,
      "lect": 2844,
      "àµ½à´ķ": 2845,
      "Ġà°ħà°§": 2846,
      "à«Į": 2847,
      "à¤¬à¤²": 2848,
      "Ġlast": 2849,
      "à®¿.": 2850,
      "ced": 2851,
      "Ġà®®à®ķ": 2852,
      "àªŁàª°": 2853,
      "ĠÙĨØ§Ùħ": 2854,
      "à§°à¦®": 2855,
      "à´µà´¸": 2856,
      "Ġàª¦àª°": 2857,
      "Ġà²ħà²§": 2858,
      "Ġà²ķà²°": 2859,
      "Ġà¦§à¦°": 2860,
      "Ġinv": 2861,
      "à®¯à®©": 2862,
      "à´¨à´Ļ": 2863,
      "Ġàªıàªµ": 2864,
      "les": 2865,
      "oth": 2866,
      "Ġmin": 2867,
      "Ġàª¥àªĪ": 2868,
      "Ġbl": 2869,
      "êŀĮ": 2870,
      "ĠØ²ÛĮØ§": 2871,
      "Ġà´ħà´±": 2872,
      "Ġcount": 2873,
      "àµº": 2874,
      "à®Łà®Ļ": 2875,
      "Ġà®²": 2876,
      "à¦¤à¦¬": 2877,
      "Ø±Ûģ": 2878,
      "à²ľà²¨": 2879,
      "à¨¼à©ģ": 2880,
      "Ġà´®à´±": 2881,
      "à¥ĭ.": 2882,
      "à¬¸à¬°": 2883,
      "ĠØ¬Ø§Ø¦ÛĴ": 2884,
      "ink": 2885,
      "Ġà¦ıà¦¤": 2886,
      "Ġàª¤àª°": 2887,
      "Ġà¤¬à¤°": 2888,
      "Ġàªķàª°àª¤": 2889,
      "Ġà¤Ĩà¤Ĺ": 2890,
      "Ġlook": 2891,
      "à§±à§°": 2892,
      "az": 2893,
      "any": 2894,
      "àªī": 2895,
      "ĠØ¹ÙĦÛĮÛģ": 2896,
      "fore": 2897,
      "Ġà°ĵ": 2898,
      "Ġ0": 2899,
      "à¦°à¦¹": 2900,
      "à¦°à¦¦": 2901,
      "Ġcons": 2902,
      "Ú©ÙĦ": 2903,
      "Ġà¦¸à¦Ń": 2904,
      "à²²à²¦": 2905,
      "ĠÙĨÙĪ": 2906,
      "Ø¬ÙĪØ¯": 2907,
      "Ġà¤Ńà¤µ": 2908,
      "Ø§Ø¨ÙĤ": 2909,
      "à®¤à®ª": 2910,
      "à°¤à°®": 2911,
      "Ġrem": 2912,
      "Ġà®¤à®²": 2913,
      "à¬ľà¬°": 2914,
      "àªªàª°": 2915,
      "ĠÙĪÙĤØª": 2916,
      "à¬¸à¬¨": 2917,
      "Ġà°ĩà°¦": 2918,
      "à¤¾-": 2919,
      "ating": 2920,
      "à§±à¦¸": 2921,
      "ĠÙĪØ§ÙĦÛĴ": 2922,
      "Ġà´®à´¨": 2923,
      "ĠØ¨ÛģØª": 2924,
      "à²°à²¸": 2925,
      "à¤¦à¤®": 2926,
      "Ġneed": 2927,
      "àŃ¨": 2928,
      "àªľàª°": 2929,
      "ÙĦÙĤ": 2930,
      "Ġà®ªà®ķ": 2931,
      "Ġnow": 2932,
      "à¤°à¤¹à¤°": 2933,
      "uch": 2934,
      "Ġà¦ħà¦°": 2935,
      "à¤¼à¥Ģ": 2936,
      "ÙĪØ³": 2937,
      "ĠØŃØ¶Ø±Øª": 2938,
      "à¨ħà¨¦": 2939,
      "ever": 2940,
      "hip": 2941,
      "ĠÛģÙĪÙĨÛĴ": 2942,
      "à¤Īà¤²": 2943,
      "lic": 2944,
      "Ġwell": 2945,
      "Ġà¬ĵà¬¡": 2946,
      "ock": 2947,
      "à¦ĩà¦Ł": 2948,
      "ĠØ³ÛĮ": 2949,
      "àªµàª¤": 2950,
      "ĠØ¯ÙĪØ±": 2951,
      "Ġà¤µà¤¸": 2952,
      "Ġà¤ħà¤µà¤¸": 2953,
      "ĠØ¯ÛĮÚ©Ú¾": 2954,
      "Ġà°®à°¨": 2955,
      "à¦ĩà¦Ľ": 2956,
      "à¤ľà¤¯": 2957,
      "à¬°à¬¹": 2958,
      "àŃŁà¬¨": 2959,
      "Ġà¤Ĳà¤¸": 2960,
      "à¤łà¤®": 2961,
      "Ġcould": 2962,
      "Ġà²¬à²°": 2963,
      "Ġà¬īà¬ªà¬°": 2964,
      "à°µà°¡": 2965,
      "à¯Ī.": 2966,
      "fere": 2967,
      "à¨Ĭ": 2968,
      "Ġà¨®à¨¨": 2969,
      "Ġà¤®à¤°": 2970,
      "Ġà¥®": 2971,
      "Ġbr": 2972,
      "Ġstart": 2973,
      "à¤°à¤¬": 2974,
      "à®¤à®µ": 2975,
      "à´ĥ": 2976,
      "Ġà¨¤à¨°": 2977,
      "ata": 2978,
      "Ú¾ÙĪ": 2979,
      "Ġà²ħà²²": 2980,
      "Ø§Ø¤": 2981,
      "à¤ľà¤ķ": 2982,
      "Ġdes": 2983,
      "ĠØ¬Ùħ": 2984,
      "Ġà¤¤à¤ª": 2985,
      "Ġàªıàª¨": 2986,
      "à¬¼à¬¾": 2987,
      "ph": 2988,
      "à´¤à´¤": 2989,
      "à²Łà²°": 2990,
      "Ġ50": 2991,
      "Ġlead": 2992,
      "Ġshould": 2993,
      "Ġ17": 2994,
      "Ġprov": 2995,
      "àª²àª¨": 2996,
      "à¨°à¨µ": 2997,
      "ÙĪØª": 2998,
      "ward": 2999,
      "à°¸à°°": 3000,
      "à´¯à´ª": 3001,
      "à²®à²¨": 3002,
      "ons": 3003,
      "Ġà²§": 3004,
      "à¤¯à¤¯": 3005,
      "Ġà¤ľà¤°": 3006,
      "à¤¬à¤¤": 3007,
      "Ġinclud": 3008,
      "à®µà®Ł": 3009,
      "Ġà¤¨à¤Ĺà¤°": 3010,
      "à¬¤à¬¨": 3011,
      "à´³à´¤": 3012,
      ",\"": 3013,
      "à´¯à´¯": 3014,
      "ala": 3015,
      "icket": 3016,
      "ĠAnd": 3017,
      "à¬ªà¬¤": 3018,
      "ĠØ¹ÙĦÛĮ": 3019,
      "Ġà¤ªà¤£": 3020,
      "xt": 3021,
      "Ġà²¸à²¹": 3022,
      "Ú©ÛĴ": 3023,
      "à°°à°¨": 3024,
      "Ġset": 3025,
      "Ġà¦¬à¦¸": 3026,
      "à§©": 3027,
      "ĠGo": 3028,
      "à¤£à¤¯": 3029,
      "à´Łà´ķ": 3030,
      "Ġà¨¸à¨°à¨ķ": 3031,
      "àªķàª¨": 3032,
      "Ġà®ħà®¨": 3033,
      "ĠUn": 3034,
      "Ġà¤ªà¤¡": 3035,
      "Ġhel": 3036,
      "Ġfl": 3037,
      "àª¦àª°": 3038,
      "à§ª": 3039,
      "à¦ķà¦Ł": 3040,
      "à§°à¦¹": 3041,
      "ater": 3042,
      "à¬īà¬Ľ": 3043,
      "Ġà°§": 3044,
      "Ù¹Ú¾": 3045,
      "Ġà¨ħà¨ľ": 3046,
      "Ġ/": 3047,
      "Ġà¬¸à¬¬": 3048,
      "Ġà¤Ńà¤µà¤¤": 3049,
      "ĠØ¹Ø¨": 3050,
      "Ø²Ø§Ø±": 3051,
      "ollow": 3052,
      "Ġà²ħà²¦": 3053,
      "Ġà¤Ĩà¤µà¤¶": 3054,
      "à°¯à°¤": 3055,
      "Ġevery": 3056,
      "Ġà¦īà¦²": 3057,
      "Ġà¤Ī": 3058,
      "Ġà¤¬à¤ļ": 3059,
      "Ġà®¤à®©": 3060,
      "ĠÚ¯Ø¦ÛĮ": 3061,
      "Ġmon": 3062,
      "Ġmade": 3063,
      "Ġthese": 3064,
      "oss": 3065,
      "àª¤àª®": 3066,
      "Ø§Ø®": 3067,
      "à¤¦à¤¯": 3068,
      "à´¤à´°": 3069,
      "Ġà¨ľà¨¦": 3070,
      "Ġà°ķà°¨": 3071,
      "ĠIndian": 3072,
      "',": 3073,
      "Ġà¦²à¦Ĺ": 3074,
      "Ø§ÛĮØª": 3075,
      "ĠÙĨÙħ": 3076,
      "Ø±ÛĮÚ©": 3077,
      "ĠØ¬ÛĮ": 3078,
      "ĠØ²ÛĮØ§Ø¯Ûģ": 3079,
      "ĠÚ¯Ø¦ÛĴ": 3080,
      "à®ħ": 3081,
      "ÙĪØ¨": 3082,
      "Ġà§©": 3083,
      "Ġà®İà®¤": 3084,
      "à¤«à¤²": 3085,
      "hes": 3086,
      "Ġyears": 3087,
      "ĠØ³Ùħ": 3088,
      "à¬°à¬¬": 3089,
      "Ġmay": 3090,
      "ĠMin": 3091,
      "Ġeven": 3092,
      "à°²à°¤": 3093,
      "Ġà¤ķà¤¸": 3094,
      "Ġà¤¬à¤²": 3095,
      "à¤·à¤®": 3096,
      "à¤ľà¤¸": 3097,
      "arm": 3098,
      "Ġà°ħà°¦": 3099,
      "ĠÙĦÛĮÚ©ÙĨ": 3100,
      "Ġà¦¹à¦¤": 3101,
      "ual": 3102,
      "Ġà°¸à°°": 3103,
      "Ġà²īà²¤": 3104,
      "à¦¯à¦¨": 3105,
      "àª¦àª¨": 3106,
      "à¦¤à¦¤": 3107,
      "Ġà¤īà¤®": 3108,
      "hen": 3109,
      "ĠÛģÙĪØªØ§": 3110,
      "à¨Ĳ": 3111,
      "à¬¿à¬Ĥ": 3112,
      "à§ĭà¥¤": 3113,
      "à´¯à´Ļ": 3114,
      "Ġà¦ªà¦¦": 3115,
      "à°°à°µ": 3116,
      "oun": 3117,
      "ĠÚ¯ÛĮ": 3118,
      "ĠÚ©ÚĨÚ¾": 3119,
      "àª¢": 3120,
      "ÙħÛĮÙĨ": 3121,
      "Ġbeing": 3122,
      "ĠØ¯ÛĮÙĨ": 3123,
      "à¤ļà¤°": 3124,
      "ics": 3125,
      "à¨¼à©ĩ": 3126,
      "Ġà®ħà®µ": 3127,
      "ife": 3128,
      "Ġà¦¦à¦²": 3129,
      "enc": 3130,
      "Ġà¨ħà¨¨": 3131,
      "ĠàªĪ": 3132,
      "ited": 3133,
      "à´Łà´¨": 3134,
      "à¤ķà¤¨": 3135,
      "à¦¹à¦¤": 3136,
      "à¦ªà¦ķ": 3137,
      "Ġwhile": 3138,
      "ĠØ§Ùģ": 3139,
      "ause": 3140,
      "Ġsuch": 3141,
      "ina": 3142,
      "Ġà¦¤à¦¥": 3143,
      "Ġà®ķà®°": 3144,
      "à¨®à¨°": 3145,
      "Ġà¤®à¤¹à¤¤": 3146,
      "Ġà²®à²¹": 3147,
      "ĠÛģÙĪÚ¯": 3148,
      "à¤¤à¤ª": 3149,
      "Ġà²ªà²¡": 3150,
      "Ġmake": 3151,
      "Ġent": 3152,
      "Ġà¬Ĩà¬ªà¬£": 3153,
      "Ġà¦Ĩà¦¤": 3154,
      "à®Łà®²": 3155,
      "Ġà¬ªà¬¡": 3156,
      "Ġà¤Ĩà¤¨": 3157,
      "ÛĮØ§Øª": 3158,
      "ved": 3159,
      "Ġwhere": 3160,
      "ĠÚ¯Ø±": 3161,
      "olog": 3162,
      "Ġhelp": 3163,
      "Ġà¦¬à¦°": 3164,
      "Ġac": 3165,
      "à¦ĩà¦ķ": 3166,
      ",âĢĿ": 3167,
      "Ġà²¬à²Ĺ": 3168,
      "Ġà¤ķà¤¥": 3169,
      "Ġà´İà´¤": 3170,
      "Ġà´¨à´Łà´¤": 3171,
      "ann": 3172,
      "ĠRe": 3173,
      "à¤£à¤¤": 3174,
      "Ġà®ħà®²": 3175,
      "ĠÙ¾ÛĮØ´": 3176,
      "à¤¯à¤ļ": 3177,
      "Ø®Øµ": 3178,
      "à¦Ŀ": 3179,
      "Ġà¤¶à¤¬": 3180,
      "ĠAn": 3181,
      "à°¾,": 3182,
      "Ġàª¶àª°": 3183,
      "ific": 3184,
      "à¦¯à¦¬": 3185,
      "ĠØ·Ø±Ùģ": 3186,
      "Ġph": 3187,
      "Ġà¤īà¤ļ": 3188,
      "à¬ĩà¬Ľà¬¨": 3189,
      "à¨ķà¨²": 3190,
      "Ġà¤ļà¤°": 3191,
      "à¨°à¨¬": 3192,
      "Ġà®ħà®ª": 3193,
      "Ġà®Ĩà®ķ": 3194,
      "Ġà¤ªà¤¶": 3195,
      "Ġà¬īà¬¤": 3196,
      "Ġà²ħà²Ń": 3197,
      "Ġà¨Ĺà¨ı": 3198,
      "Ġà¤®à¤¤": 3199,
      "Ġà²¨à²®": 3200,
      "à°Ĥ.": 3201,
      "Ġà®Ĩà®£": 3202,
      "à¤µà¤µ": 3203,
      "àªħ": 3204,
      "Ġà¤¸à¤®à¤¸": 3205,
      "Ġà§¨à§¦": 3206,
      "à®¯à®ķ": 3207,
      "à²·à²£": 3208,
      "ĠPr": 3209,
      "ÙĪØ²": 3210,
      "àª®àª£": 3211,
      "à¤ªà¤²": 3212,
      "ĠDe": 3213,
      "à¤®à¤¦": 3214,
      "ĠÙħÛĮØ±": 3215,
      "Ġshow": 3216,
      "Ġthrough": 3217,
      "à²ł": 3218,
      "Ġass": 3219,
      "ures": 3220,
      "Ġà¤Ĩà¤µ": 3221,
      "Ġworld": 3222,
      "Ġ24": 3223,
      "ÙħØ§ÙĦ": 3224,
      "à¬¾'": 3225,
      "à¦¸à¦¨": 3226,
      "à®ĥ": 3227,
      "ĠÚ©Øª": 3228,
      "à¤ıà¤¸": 3229,
      "à´Ĺà´¤": 3230,
      "Ġà¤®à¤²": 3231,
      "à¨ĥ": 3232,
      "à¨¸à¨²": 3233,
      "Ġev": 3234,
      "±Û": 3235,
      "à®©à®®": 3236,
      "à¦ļà¦²": 3237,
      "Ġ;": 3238,
      "Ġà¨µà¨§": 3239,
      "ĠWe": 3240,
      "à¤ĥ,": 3241,
      "Ġà¬ķà¬®": 3242,
      "à¦¯à¦¤": 3243,
      "à¦¬à¦¤": 3244,
      "à¤§à¤¤": 3245,
      "au": 3246,
      "Ġmed": 3247,
      "pe": 3248,
      "à¨ªà¨°": 3249,
      "àª°àª¸": 3250,
      "à¨Ĩà¨¨": 3251,
      "Ø¨Øª": 3252,
      "Ġrel": 3253,
      "esh": 3254,
      "à²Ĺà²°": 3255,
      "ĠØ·ÙĪØ±": 3256,
      "à¬¶à¬°": 3257,
      "ĠÙħØ¯": 3258,
      "à®ļà®®": 3259,
      "à¦ĩà¦²": 3260,
      "ful": 3261,
      "Ġprodu": 3262,
      "ÛĮØ§Úº": 3263,
      "get": 3264,
      "other": 3265,
      "Ø§Ø¦ÛĮÚº": 3266,
      "à²ĺ": 3267,
      "Ġà´¨à´²": 3268,
      "amil": 3269,
      "ĠØ§ÙĪ": 3270,
      "Ġà¦Ĩà¦¶": 3271,
      "ĠØŃØ§ÙĦ": 3272,
      "à´¨à´®": 3273,
      "à¤¦à¤¤": 3274,
      "Ġpers": 3275,
      "ĠÙ¾Ú¾Ø±": 3276,
      "Ġend": 3277,
      "Ġà¥§à¥¦": 3278,
      "Ġgovernment": 3279,
      "ĠØ¨ÚĨ": 3280,
      "à¤Ĺà¤µ": 3281,
      "à¤ľà¤²": 3282,
      "Ġdif": 3283,
      "Ġà´īà´£": 3284,
      "Ġà®¸": 3285,
      "ÙĪÙħØª": 3286,
      "me": 3287,
      "à¤§à¤ķ": 3288,
      "Ġbu": 3289,
      "ower": 3290,
      "Ġà°µà°°": 3291,
      "à¦ľà¦¤": 3292,
      "ĠØ«": 3293,
      "à²¯à²¤": 3294,
      "Ø§ÙĨØ§": 3295,
      "à°Łà°¨": 3296,
      "Ø§ÛģØ±": 3297,
      "Ġwant": 3298,
      "ĠØ§Ø³ÛĴ": 3299,
      "à¤¯à¤Ń": 3300,
      "Ġmany": 3301,
      "Ġà¤ķà¤ª": 3302,
      "à²ªà²°": 3303,
      "à¨¹à¨°": 3304,
      "Ġrun": 3305,
      "Ġdef": 3306,
      "han": 3307,
      "Ġà¦ıà¦¸": 3308,
      "Ġà®ªà®¤": 3309,
      "Ġà®īà®£": 3310,
      "à®¯à®ª": 3311,
      "à°¨à°¦": 3312,
      "à¤Ĭà¤¨": 3313,
      "à¦¨à¦ķ": 3314,
      "Ġàªīàªªàª°": 3315,
      "ject": 3316,
      "ular": 3317,
      "à¤®à¤®": 3318,
      "ices": 3319,
      "Ġx": 3320,
      "à¤¦à¤ķ": 3321,
      "Ġà¤ľà¤®": 3322,
      "à¬ĵ": 3323,
      "Ġtake": 3324,
      "à§§": 3325,
      "ince": 3326,
      "à¥Īà¤ĥ": 3327,
      "Ġreport": 3328,
      "Ġà¦Ĩà¦ªà¦¨": 3329,
      "Ġà®İà®Ł": 3330,
      "à®±à®ª": 3331,
      "àªĹàª°": 3332,
      "com": 3333,
      "Ġgood": 3334,
      "àªĺ": 3335,
      "led": 3336,
      "ĠØ§Ø³ÙĦØ§Ùħ": 3337,
      "à°¬à°¡": 3338,
      "Ġà¤Ńà¤ı": 3339,
      "Ġà´ħà´Ł": 3340,
      "ĠØ§Ø¬": 3341,
      "Ġdi": 3342,
      "ĠÚ©Ø±ÙĨØ§": 3343,
      "arn": 3344,
      "ible": 3345,
      "Ġà¬ķà¬¥": 3346,
      "àªĪàª¨": 3347,
      "Ġà¨¸à¨¹": 3348,
      "à°¯à°µ": 3349,
      "à´°à´Ļ": 3350,
      "ara": 3351,
      "Ġfilm": 3352,
      "à¤¼à¥ĩ": 3353,
      "ï·": 3354,
      "rib": 3355,
      "Ġà®ªà®°": 3356,
      "Ġdid": 3357,
      "ga": 3358,
      "Ġà¤¸à¤¦à¤¸": 3359,
      "Ġà¤ħà¤ķ": 3360,
      "ments": 3361,
      "à¤ļà¤ķ": 3362,
      "ility": 3363,
      "Ġà´ŀ": 3364,
      "Ġbefore": 3365,
      "à¦·à¦ķ": 3366,
      "Ġwin": 3367,
      "Ġà²¤à²®": 3368,
      "ĠBut": 3369,
      "ĠÙħØ¬": 3370,
      "à¨°à¨Ĺ": 3371,
      "à§Ģ,": 3372,
      "ĠÙĪØ³": 3373,
      "Ġà¦¸à¦¦": 3374,
      "Ġà¬ł": 3375,
      "Ġà²ĩà²¨": 3376,
      "Ġàªīàª¤": 3377,
      "Ġà¬¸à¬°à¬ķ": 3378,
      "à¦°à¦¯": 3379,
      "à¤ľà¤ª": 3380,
      "elf": 3381,
      "Ġà¤Ĩà¤ªà¤ķ": 3382,
      "ues": 3383,
      "Ġà¤Ńà¤°": 3384,
      "ĠØ±ÛģØ§": 3385,
      "à¬·à¬£": 3386,
      "à¤¹à¤®": 3387,
      "à®®à®©": 3388,
      "à¤Ńà¤°": 3389,
      "à¦¯à§°": 3390,
      "Ġà¤Ĺà¤ı": 3391,
      "Ġà¦¨à¦¤": 3392,
      "Ġà¤¶à¤ķà¤¤": 3393,
      "Ġà¦ķà¦¯": 3394,
      "à´£à´®": 3395,
      "Ġà°ħà°²": 3396,
      "Ġà¤¨à¤¯": 3397,
      "Ġcr": 3398,
      "ï·º": 3399,
      "à´¤à´²": 3400,
      "ĠCom": 3401,
      "wn": 3402,
      "à°Ĥ,": 3403,
      "ĠØ®ÙĪØ¯": 3404,
      "ĠØ¯ÙĦ": 3405,
      "ss": 3406,
      "Ġàªľàª£": 3407,
      "à²°à²¡": 3408,
      "à¨²à¨¤": 3409,
      "à°¦à°²": 3410,
      "ĠØªØ¹Ø§ÙĦÛĮ": 3411,
      "Ġà¦¦à§°": 3412,
      "Ġà¤ľà¤Ĺ": 3413,
      "ted": 3414,
      "à¤°à¤ĸ": 3415,
      "ĠàŃ©": 3416,
      "ÙĪØ§ÙĦ": 3417,
      "ĠØ®Ø§ÙĨ": 3418,
      "Ġday": 3419,
      "Ø´ÛĮ": 3420,
      "Ġsy": 3421,
      "ĠNews": 3422,
      "Ġà¦ķà¦¬": 3423,
      "Ġà´ªà´±à´¯": 3424,
      "Ġà«§": 3425,
      "à§¬": 3426,
      "ĠØ¶Ø±": 3427,
      "ĠAl": 3428,
      "ÙħÙĦ": 3429,
      "à´®à´¯": 3430,
      "Ġà¤¢": 3431,
      "Ġà¬ĺà¬Ł": 3432,
      "Ġà²Ĩà²¦": 3433,
      "à¥Ĥà¤Ĥ": 3434,
      "gan": 3435,
      "à¦ĩà¦¬": 3436,
      "à¤²à¤µ": 3437,
      "à¥ĩà¤ĥ": 3438,
      "Ġà¨²à¨Ĺ": 3439,
      "Ġà¬Ĩà¬ī": 3440,
      "à¤ĸà¤¨": 3441,
      "Ø³Ø§": 3442,
      "Ġpres": 3443,
      "ĠÙĨÛĮ": 3444,
      "Ġà´īà´ª": 3445,
      "à°ķà°¡": 3446,
      "Ġà¨ı": 3447,
      "Ġthree": 3448,
      "à°ªà°°": 3449,
      "à²¯à²®": 3450,
      "à°ļà°¡": 3451,
      "Ø£": 3452,
      "ani": 3453,
      "ĠØ´Ø±": 3454,
      "ati": 3455,
      "Ġà²ħà²°": 3456,
      "Ġà¬¬à¬¨": 3457,
      "à°ľà°¨": 3458,
      "à¤®à¤¹": 3459,
      "ĠÙħØ³ÙĦÙħ": 3460,
      "ÙĪØ§ÙĨ": 3461,
      "ĠZ": 3462,
      "Ġ21": 3463,
      "Ġmem": 3464,
      "à´¿à´Ĥ": 3465,
      "ĠØ§ÙĨØª": 3466,
      "à¬°à¬¦": 3467,
      "Ġvery": 3468,
      "Ø¯Ùħ": 3469,
      "Ġthen": 3470,
      "ÙĪÙĦÛĮ": 3471,
      "Ġà¬°à¬ĸ": 3472,
      "Ġà°Ĩà°¯à°¨": 3473,
      "ont": 3474,
      "Ġfollow": 3475,
      "à²Ĺà²¦": 3476,
      "air": 3477,
      "der": 3478,
      "Ġà¨¸à¨¥": 3479,
      "Ġà°·": 3480,
      "Ġà¤¬à¤¡": 3481,
      "Ġà¦ĩà¦¤": 3482,
      "ee": 3483,
      "à«ĭ,": 3484,
      "à°µà°¨": 3485,
      "ĠØ¨ÛĮØ§ÙĨ": 3486,
      "velop": 3487,
      "Ġknow": 3488,
      "ĠØ¢ÙĨ": 3489,
      "ement": 3490,
      "Ġà¦ĺà¦Łà¦¨": 3491,
      "Ġduring": 3492,
      "à¤ĩà¤¤": 3493,
      "ĠØ¬Ûģ": 3494,
      "Ġdown": 3495,
      "à¤®à¤µ": 3496,
      "à´µà´¤": 3497,
      "ÙĦØ³": 3498,
      "Ġcap": 3499,
      "Ġà¨¥": 3500,
      "Ġàª¸àª®àª¯": 3501,
      "ax": 3502,
      "Ġà¦¤à¦¬": 3503,
      "à¤¤à¤¯": 3504,
      "Ġà¤¨à¤®": 3505,
      "Ġret": 3506,
      "à°¨à°¨": 3507,
      "Ġà®®à®©": 3508,
      "its": 3509,
      "à¬ĩà¬ª": 3510,
      "Ġàªĺàª£": 3511,
      "à²³à²Ĺ": 3512,
      "Ġà®Ĩà®©": 3513,
      "ÙĦØ§ÙĤ": 3514,
      "ĠØ§Ø¯": 3515,
      "à¤ĸà¤°": 3516,
      "Ġcent": 3517,
      "ĠÙģØ±ÙħØ§": 3518,
      "ĠàªĿ": 3519,
      "ĠÙĪØ²": 3520,
      "à°Ĩà°°": 3521,
      "Ġà¨ħà¨§": 3522,
      "Ġà¤ĺà¤Łà¤¨": 3523,
      "ĠÙ¾Ø§Ú©Ø³ØªØ§ÙĨ": 3524,
      "Ġsm": 3525,
      "à§®": 3526,
      "ÙĦØ§Ùģ": 3527,
      "Ġbat": 3528,
      "ĠàªıàªŁàª²": 3529,
      "ĠØ§Ø®": 3530,
      "à¥Īà¤Ĥ,": 3531,
      "à¤Ĺà¤¨": 3532,
      "à¬ķà¬Ļ": 3533,
      "Ú©Ø§": 3534,
      "à¤¶à¤¬": 3535,
      "Ġà°®à°¹": 3536,
      "à²Ĺà²¤": 3537,
      "à®µà®²": 3538,
      "ĠØµØŃ": 3539,
      "Ġhigh": 3540,
      "à¤¹à¤ķ": 3541,
      "à¬īà¬¥": 3542,
      "Ġà¤Ĩà¤¶": 3543,
      "à§Ń": 3544,
      "à®ļà®°": 3545,
      "irect": 3546,
      "Ġà¬¬à¬¹": 3547,
      "Ġ100": 3548,
      "Ġà¦¢": 3549,
      "à¤Ĥ.": 3550,
      "Ġà¨ĩà¨¨": 3551,
      "Ġà°ħà°®": 3552,
      "àª®àª¤": 3553,
      "à¨µà¨°": 3554,
      "à²ªà²¡": 3555,
      "Ġà¦¸à¦°": 3556,
      "à®³à®µ": 3557,
      "Ġà´°à´£": 3558,
      "Ġà°ħà°Ń": 3559,
      "à¤µà¤³": 3560,
      "ĠÛģÙĪØ¦ÛĮ": 3561,
      "Ġresp": 3562,
      "ĠØ¨Ø§ÙĦ": 3563,
      "Ġà°İà°¨": 3564,
      "à¦ļà§°": 3565,
      "à¦²à¦¬": 3566,
      "à¦§à¦¨": 3567,
      "Ġà²¤à²¨": 3568,
      "Ġà¥¯": 3569,
      "à¬°à¬Ļ": 3570,
      "ener": 3571,
      "alth": 3572,
      "Ø§Ø·": 3573,
      "way": 3574,
      "à¤ķà¤ª": 3575,
      "Ġright": 3576,
      "Ġà°ĩà°ª": 3577,
      "àŃŁà¬¤": 3578,
      "à¬Ĺà¬²": 3579,
      "Ġà®ĵ": 3580,
      "à¤Ńà¤¨": 3581,
      "Ú©Øª": 3582,
      "à²µà²£": 3583,
      "à¤§à¤µ": 3584,
      "à´¨à´¯": 3585,
      "ĠØªÙħØ§Ùħ": 3586,
      "Ø¨ÙĦ": 3587,
      "à¨¾.": 3588,
      "à¦¯à¦®": 3589,
      "Ġà¦Ĺà¦¤": 3590,
      "Ġsub": 3591,
      "Ġà®ħà®£": 3592,
      "Ġà¦īà¦ļ": 3593,
      "Ġà¬¸à¬°": 3594,
      "ĠàªĨàª°": 3595,
      "ble": 3596,
      "à²¨à²¦": 3597,
      "à¬Ĩà¬°": 3598,
      "ween": 3599,
      "Ġà¤ĭ": 3600,
      "à°µà°¤": 3601,
      "à¦īà¦¨": 3602,
      "à´·à´¨": 3603,
      "à¬¦à¬¨": 3604,
      "à´°à´¯": 3605,
      "ung": 3606,
      "ital": 3607,
      "Ġàªľàª°": 3608,
      "Ġà¦¸à§°": 3609,
      "Ġà¤¸à¤ļ": 3610,
      "à¤°à¤®à¤£": 3611,
      "Ġà¨ķà¨¹": 3612,
      "àŃª": 3613,
      "Ø§Ù¾": 3614,
      "Ġbel": 3615,
      "Ġà¤īà¤²": 3616,
      "à¥ĭà¤ĥ": 3617,
      "Ġàª¹àªµ": 3618,
      "à¨ħà¨°": 3619,
      "ĠØ¨Ø¯": 3620,
      "Ġà®īà®°": 3621,
      "ĠØ¯ÛĴ": 3622,
      "Ġnews": 3623,
      "ĠØ´Ûģ": 3624,
      "à´Ĥ,": 3625,
      "à®İ": 3626,
      "Ġà¤ªà¤°à¤®": 3627,
      "ĠÚ©Ø±Ø¯": 3628,
      "Ġàª¨àªµ": 3629,
      "Ú©Ø§Ø±": 3630,
      "Ġà¬Ĩà¬ľ": 3631,
      "Ġway": 3632,
      "ĠÙħØ·Ø§Ø¨ÙĤ": 3633,
      "ange": 3634,
      "Ġbo": 3635,
      "Ġà¦¸à¦¤": 3636,
      "à´°à´¨": 3637,
      "à²¥à²µ": 3638,
      "eri": 3639,
      "à´²à´¤": 3640,
      "ĠÙĨØ¸Ø±": 3641,
      "chn": 3642,
      "à¨²à¨ķ": 3643,
      "à¦·à¦¤": 3644,
      "ĠØ§Øª": 3645,
      "ĠÙ¾ÛģÙĦÛĴ": 3646,
      "à¦¿-": 3647,
      "ÙĤÙĦ": 3648,
      "ĠØŃÚ©ÙĪÙħØª": 3649,
      "Ġà¬ħà¬°": 3650,
      "àŃ§àŃ": 3651,
      "Ġà¨µà¨°à¨¤": 3652,
      "ames": 3653,
      "ral": 3654,
      "à¤Ĥ,": 3655,
      "à¨Ĺà¨¤": 3656,
      "à²Łà²ķ": 3657,
      "Ġà¤¸à¤µ": 3658,
      "à¦°à¦¶": 3659,
      "Ġgame": 3660,
      "Ġhand": 3661,
      "ared": 3662,
      "ĠØ³ÙĨ": 3663,
      "à¨ĸà¨£": 3664,
      "à¤²à¤Ĺ": 3665,
      "à¦®à¦²": 3666,
      "à¦¨à¦¨": 3667,
      "àªĹàª¨": 3668,
      "har": 3669,
      "Ġbetween": 3670,
      "Ġà°ªà°¨": 3671,
      "Ġà²¨à²¨": 3672,
      "In": 3673,
      "à¯Ī,": 3674,
      "à´µà´¶": 3675,
      "Ø³Ùħ": 3676,
      "ĠØ¹Ø±": 3677,
      "Ġà¤īà¤ķ": 3678,
      "ĠTe": 3679,
      "Ġà¦²à¦ķ": 3680,
      "à¦®à¦ķ": 3681,
      "18": 3682,
      "à¨¤à¨®": 3683,
      "Ġàªıàª®": 3684,
      "Ġ2022": 3685,
      "àª³àªµ": 3686,
      "Ġsee": 3687,
      "Ġà§§à§¯": 3688,
      "à°ªà°¤": 3689,
      "10": 3690,
      "atch": 3691,
      "à¤¬à¤¦": 3692,
      "ĠØªØ§": 3693,
      "Ġà¦ıà¦²": 3694,
      "Ġà®®à®¤": 3695,
      "à²ªà²¨": 3696,
      "à¤¬à¤Ī": 3697,
      "à°ļà°¨": 3698,
      "Ø¬ÛĮ": 3699,
      "à¬ĸà¬°": 3700,
      "ĠØ§ÙĨØ³": 3701,
      "à¤¶à¤®": 3702,
      "ĠÂ": 3703,
      "à´²à´ª": 3704,
      "à³ĩà²Ĥ": 3705,
      "É¨": 3706,
      "cess": 3707,
      "ĠMar": 3708,
      "à¬ĩà¬¨": 3709,
      "à²°à²°": 3710,
      "à°Łà°²": 3711,
      "à¤¨à¤ª": 3712,
      "ull": 3713,
      "ale": 3714,
      "àª¸àª®": 3715,
      "Ġà®Ĭ": 3716,
      "ĠØŃØ³": 3717,
      "ric": 3718,
      "à¦°à¦¥à¦®": 3719,
      "Ġà¤Ĩà¤ķ": 3720,
      "Ġà´ħà´¦": 3721,
      "Ø§ØµÙĦ": 3722,
      "ative": 3723,
      "à¬³à¬¨": 3724,
      "Ġlong": 3725,
      "ÙħØ±": 3726,
      "Ø§ØŃØ¨": 3727,
      "à°¤à°²": 3728,
      "Ġsur": 3729,
      "Ġàªĸàª°": 3730,
      "Ġà¦¨à¦¹à¦¯": 3731,
      "à°ħ": 3732,
      "Ġà¨¨à¨µ": 3733,
      "Ġbest": 3734,
      "ĠÙħÙĦÚ©": 3735,
      "ĠØ§Ûģ": 3736,
      "à¦¶à§°": 3737,
      "Ġ22": 3738,
      "Ġà²īà²¦": 3739,
      "Ġà¤°à¤ķ": 3740,
      "Ġà¤Ĩà¤ıà¤ķ": 3741,
      "à¤¶à¤²": 3742,
      "à°Ĺà°°": 3743,
      "ĠHow": 3744,
      "Ø§Ø¦ÙĦ": 3745,
      "à¤łà¤ķ": 3746,
      "à´±à´¤": 3747,
      "Ø¯Ø§ÙĦ": 3748,
      "à¬£à¬¸": 3749,
      "à²Łà²¨": 3750,
      "ered": 3751,
      "iness": 3752,
      "ving": 3753,
      "à§Ģà¥¤": 3754,
      "ĠAr": 3755,
      "Ġà¤ħà¤¦": 3756,
      "à¨µà¨¨": 3757,
      "ÛĮÙĨÛĮ": 3758,
      "na": 3759,
      "Ġà¬ªà¬ķ": 3760,
      "à¨¼à¨¾à¨Ĥ": 3761,
      "àŃŁà¬®": 3762,
      "Ġà¬ıà¬¥": 3763,
      "Ġà®®à®°": 3764,
      "Ġcall": 3765,
      "Ġinst": 3766,
      "ĠÙĦÙĪÚ¯ÙĪÚº": 3767,
      "à¬¾à¬ģ": 3768,
      "Ġà°µà°¸": 3769,
      "Ġ2023": 3770,
      "àª¨àª®": 3771,
      "Ġàª¬àª¹": 3772,
      "Ġoffic": 3773,
      "ĠPro": 3774,
      "Ġà®īà®±": 3775,
      "àª°àª¥": 3776,
      "à°·à°¯": 3777,
      "à¤ıà¤®": 3778,
      "à§±à¦¨": 3779,
      "Ġà¬īà¬¦": 3780,
      "à¬°à¬¥": 3781,
      "àŃ«": 3782,
      "à¤·à¤¦": 3783,
      "ĠÙĪØ¬Ûģ": 3784,
      "àªķàª²": 3785,
      "à¦Łà¦ķ": 3786,
      "Ġà²ĩà²°": 3787,
      "Ġà¤°à¤¸": 3788,
      "Ġpost": 3789,
      "à¨ľà¨¨": 3790,
      "à¤¯à¤¹": 3791,
      "Ġà¨ķà¨®": 3792,
      "àªªàª£": 3793,
      "ĠØªÙĤ": 3794,
      "Ġà¬¬à¬¡": 3795,
      "ple": 3796,
      "ĠÚ©Ø´": 3797,
      "Ø§Ø±Øª": 3798,
      "à¤ħà¤¨": 3799,
      "ĠLe": 3800,
      "à§¯": 3801,
      "à¬°à¬¶": 3802,
      "à±į.": 3803,
      "à¤µà¤Ń": 3804,
      "Ġà¬§à¬°": 3805,
      "Ġàª¤àª¥": 3806,
      "à°°à°ľ": 3807,
      "à¤¦à¤¶": 3808,
      "à¤²à¤¸": 3809,
      "à¤®à¤Ĺ": 3810,
      "Ġà§«": 3811,
      "à«ĩàªĤ": 3812,
      "à¥Ĵ": 3813,
      "à³į.": 3814,
      "à¬²à¬°": 3815,
      "à¤ĸà¤²": 3816,
      "ised": 3817,
      "ied": 3818,
      "read": 3819,
      "Ġà´¨àµ½à´ķ": 3820,
      "Ġà¤ıà¤¸": 3821,
      "Ġà¬ĺà¬°": 3822,
      "à´¤à´¨": 3823,
      "ution": 3824,
      "Ġter": 3825,
      "Ġeff": 3826,
      "ourt": 3827,
      "à´ħ": 3828,
      "à²µà²²": 3829,
      "ĠØ¨ÛĴ": 3830,
      "àªĹàª¤": 3831,
      "Ġàª§àª°": 3832,
      "ĠYou": 3833,
      "Ġà¤ıà¤®": 3834,
      "Ġà§ª": 3835,
      "à¤¤à¤ļ": 3836,
      "Ġàª¸àª¹": 3837,
      "à®®à®¤": 3838,
      "à¦°à¦¨": 3839,
      "Ø§ÙħÙĦ": 3840,
      "à¤µà¤°à¤£": 3841,
      "Ø³Ú©": 3842,
      "Ø§ØªÛĴ": 3843,
      "Ġng": 3844,
      "à¤Ĺà¤³": 3845,
      "ĠÙĪÛĮ": 3846,
      "ĠàªĨàªªàª£": 3847,
      "à±ģà°ģ": 3848,
      "ĠØ±ÙĪØ²": 3849,
      "Ø§ÛĮØ§": 3850,
      "à´®à´¤": 3851,
      "ys": 3852,
      "Ġnum": 3853,
      "Ġà²ķà²¡": 3854,
      "Ġà´²à´Ń": 3855,
      "ane": 3856,
      "à´ªà´ķ": 3857,
      "aka": 3858,
      "Ġà¤¸à¤ª": 3859,
      "à²³à²²": 3860,
      "Ġà¬¬à¬¸": 3861,
      "Ġà¨ķà¨°à¨ķ": 3862,
      "à¦°à¦Ń": 3863,
      "ĠÙħØŃÙħØ¯": 3864,
      "Ġcountry": 3865,
      "à¦ĩà¦¯": 3866,
      "ren": 3867,
      "Ġmark": 3868,
      "ĠØ¯Ø§Ø±": 3869,
      "ĠØµØ±Ùģ": 3870,
      "à²µà²¤": 3871,
      "oot": 3872,
      "ĠØµØ§ØŃØ¨": 3873,
      "ĠØ¨Ø§Ø±": 3874,
      "ĠIs": 3875,
      "ĠØ¹ÙħØ±": 3876,
      "Ġà´µà´¨": 3877,
      "ars": 3878,
      "Ġgu": 3879,
      "ĠØ§ÙĦÙħ": 3880,
      "à¤£à¤¸": 3881,
      "ÙĨÚĨ": 3882,
      "Ġà¦ĩà¦¨": 3883,
      "ling": 3884,
      "50": 3885,
      "à±ĩ.": 3886,
      "à¤¯à¤¥": 3887,
      "ĠMinister": 3888,
      "Ġà¦ħà¦ª": 3889,
      "ged": 3890,
      "Ġà´ıà´±": 3891,
      "Ġà¨ĩà¨²": 3892,
      "Ġav": 3893,
      "à¦¦à¦ķ": 3894,
      "Ġdoes": 3895,
      "Ġà¤¸à¤ŀ": 3896,
      "ĠàªĨàªľ": 3897,
      "à²°à²¨": 3898,
      "Ġsame": 3899,
      "Ġed": 3900,
      "Ġà²ķà²²": 3901,
      "ĠÚ©Ø±ØªØ§": 3902,
      "Ġà¤¶à¤¹à¤°": 3903,
      "Ġà´İà´²": 3904,
      "Ġ40": 3905,
      "ĠØ³Ø§Ùħ": 3906,
      "à¬ĩà¬²": 3907,
      "Ġseason": 3908,
      "Ġsign": 3909,
      "ĠAll": 3910,
      "à¬¤à¬®": 3911,
      "à²¯à²¦à²²": 3912,
      "àªŀ": 3913,
      "Ġla": 3914,
      "à´Łà´°": 3915,
      "Ġdet": 3916,
      "à°¨à°®": 3917,
      "à¨¸à¨®": 3918,
      "àª¸àª°": 3919,
      "Ġàªľàªµ": 3920,
      "ision": 3921,
      "ĠàªĨàªĹ": 3922,
      "Ġ23": 3923,
      "àª¬àª°": 3924,
      "Ġà¨ĺà¨°": 3925,
      "Ġà¤¸à¤¦": 3926,
      "à®²à®ķ": 3927,
      "Ġàªħàª°": 3928,
      "à¬Ŀ": 3929,
      "Ġmuch": 3930,
      "ĠÙģØ±ÙħØ§ÛĮØ§": 3931,
      "ĠØ§Øµ": 3932,
      "àª²àª®": 3933,
      "à´ķà´¤": 3934,
      "ĠÚ©Ø±ÛĮÚº": 3935,
      "Ġ=": 3936,
      "à¨ķà¨Ł": 3937,
      "Ġgiv": 3938,
      "à´ªà´¨": 3939,
      "bs": 3940,
      "à®µà®®": 3941,
      "Ġà¤¤à¤°à¤¹": 3942,
      "Ġà´·": 3943,
      "à´°à´¦": 3944,
      "Ġà²İà²¨": 3945,
      "Ø±ÛĮÙģ": 3946,
      "Ġà°īà°¦": 3947,
      "ĠØªØ¨": 3948,
      "uc": 3949,
      "Ġtop": 3950,
      "Ġear": 3951,
      "ave": 3952,
      "ĠØ¹ÙĦÙħ": 3953,
      "Ġpoint": 3954,
      "à¬§à¬°": 3955,
      "Ġvi": 3956,
      "Ġà¦¨à¦¯": 3957,
      "Ø±ÛĮØ¨": 3958,
      "ĠÙĦÛĴ": 3959,
      "à¨¸à¨°": 3960,
      "Ġà¤Ĩà¤Ī": 3961,
      "Ġbus": 3962,
      "Ġmonth": 3963,
      "ĠAm": 3964,
      "ract": 3965,
      "ĠÙħØ¬Ú¾": 3966,
      "àµ¼à´¨": 3967,
      "Ġbecause": 3968,
      "à¤ķà¤ķ": 3969,
      "à¦ķà¦ķ": 3970,
      "Ġ2020": 3971,
      "à¤µà¤ľ": 3972,
      "àª¥àªµ": 3973,
      "à¨²à¨¦": 3974,
      "à¬°à¬Ń": 3975,
      "ĠØ¨ÙĨØ¯": 3976,
      "med": 3977,
      "Ġsay": 3978,
      "ines": 3979,
      "à¤¶à¤¯": 3980,
      "à¤¨à¤ļ": 3981,
      "Ġà¤ľà¤¨à¤¤": 3982,
      "ner": 3983,
      "à®ķà®´": 3984,
      "ĠÚ©ÙĨ": 3985,
      "à°°à°¯": 3986,
      "ĠØŃÙĤ": 3987,
      "Ġstud": 3988,
      "ĠRs": 3989,
      "Ġtak": 3990,
      "àªĸàª¤": 3991,
      "Ø§Ø¹Øª": 3992,
      "à¤ķà¤Ł": 3993,
      "Ġà°ħà°ª": 3994,
      "Ġà¤µà¤ķ": 3995,
      "Ġà¤ħà¤ļ": 3996,
      "Ġà¤§à¤¨": 3997,
      "Ġcol": 3998,
      "Ġà¬¸à¬®àŃŁà¬°": 3999,
      "Ġiss": 4000,
      "Ġperson": 4001,
      "Ġà¤Ĭ": 4002,
      "Ġà¤ħà¤¥": 4003,
      "Ø¨Ø§ÙĨ": 4004,
      "Ġrele": 4005,
      "io": 4006,
      "à®±à®©": 4007,
      "Ġ2021": 4008,
      "Ġdevelop": 4009,
      "Ġà¬ľà¬¨": 4010,
      "ĠÚ©ØªØ§Ø¨": 4011,
      "ĠâĢĵ": 4012,
      "à²²à²¸": 4013,
      "àµ¼à´Ł": 4014,
      "Ġà²ķà²³": 4015,
      "Ġà°ĸ": 4016,
      "Ġàª¬àª§": 4017,
      "iy": 4018,
      "ts": 4019,
      "à®Łà®ª": 4020,
      "ke": 4021,
      "ins": 4022,
      "à¤Ĺà¤ķ": 4023,
      "Ġserv": 4024,
      "Ġà²ķà²¨": 4025,
      "Ġsecond": 4026,
      "ĠØ¸": 4027,
      "Ú©ÙĨ": 4028,
      "Ø§ÙħÛĮ": 4029,
      "ness": 4030,
      "ĠØ²ÙĨØ¯": 4031,
      "à®ķà®Ł": 4032,
      "Ġà´Ĩà´¦": 4033,
      "hile": 4034,
      "Ġchar": 4035,
      "Ġang": 4036,
      "Ġà°ħà°°": 4037,
      "iya": 4038,
      "à¬¬à¬³": 4039,
      "à¨°à¨Ń": 4040,
      "Ø´Øª": 4041,
      "ĠØ±Ø³ÙĪÙĦ": 4042,
      "ĠÙħØµ": 4043,
      "Ġcur": 4044,
      "Ġ&": 4045,
      "à¤Ńà¤¯": 4046,
      "ces": 4047,
      "à´¯à´°": 4048,
      "Ġà¦īà¦¨": 4049,
      "à²ªà²¤": 4050,
      "uss": 4051,
      "Ġàª²àªĹ": 4052,
      "Ġà´¸à´¹": 4053,
      "Ġà¤ķà¤Ī": 4054,
      "à²°à²¦à²²": 4055,
      "ĠÙ¾ÛĮØ¯": 4056,
      "Ġfour": 4057,
      "line": 4058,
      "à¦ĸà¦¤": 4059,
      "à¬Ĺà¬¤": 4060,
      "ĠÛģÙĪØªÛĮ": 4061,
      "ms": 4062,
      "illion": 4063,
      "ĠØ¯ÙĪØ³Ø±": 4064,
      "à¤ľà¤®": 4065,
      "ĠÙĪØ§ÙĤ": 4066,
      "ĠØ§ÙĤ": 4067,
      "ĠØ®Ø·": 4068,
      "Ġtrans": 4069,
      "Ġdisc": 4070,
      "à¨Ĺà¨²": 4071,
      "ĠÙĪØ²ÛĮØ±": 4072,
      "ÙĤÛģ": 4073,
      "àªŁàª®": 4074,
      "Ġàª«àª°": 4075,
      "ĠàŃª": 4076,
      "Ġhere": 4077,
      "à®¤à®ķ": 4078,
      "ØºÛĮØ±": 4079,
      "ious": 4080,
      "à¤¹à¤¸": 4081,
      "Ġaround": 4082,
      "Ġ$": 4083,
      "à®Ĩ": 4084,
      "à°µà°ļ": 4085,
      "ÙĪØ¹": 4086,
      "à¦¦à¦°": 4087,
      "Ġdiffere": 4088,
      "àª·àª£": 4089,
      "Ġà¦¬à¦Ľà¦°": 4090,
      "ĠÙħÙĪØ¬ÙĪØ¯": 4091,
      "àŃ±à¬°": 4092,
      "à°°à°ª": 4093,
      "à¦°à¦§": 4094,
      "Ġboth": 4095,
      "à¤ħà¤°": 4096,
      ".\"": 4097,
      "ected": 4098,
      "Ġ*": 4099,
      "Ġstr": 4100,
      "Ġbig": 4101,
      "àŃ©": 4102,
      "à¨°à¨¥": 4103,
      "ĠØ¯ÙĨÛĮØ§": 4104,
      "Ġgreat": 4105,
      "Ġà¦«à¦²": 4106,
      "ĠØ¬Ø§ØªØ§": 4107,
      "à°ĺ": 4108,
      "Ġà¨¸à¨Ł": 4109,
      "à¤£à¤®": 4110,
      "ute": 4111,
      "Ġà®¹": 4112,
      "àª¡àª¨": 4113,
      "Ġwom": 4114,
      "Ġà¤¸à¤¯": 4115,
      "à¤½à¤¨": 4116,
      "Ġown": 4117,
      "Ġinter": 4118,
      "ĠâĢĺ": 4119,
      "ĠØ´Ø®Øµ": 4120,
      "à¦¸à¦²": 4121,
      "ross": 4122,
      "à¤ĩà¤ıà¤ķ": 4123,
      "land": 4124,
      "ĠàŃ«": 4125,
      "Ġà¤Ńà¤¯": 4126,
      "Ġà¬Ŀ": 4127,
      "Ġà°ªà°¦": 4128,
      "ĠÙĪØ±": 4129,
      "Ġà²ħà²¤": 4130,
      "Ġà¬Ĩà¬ķ": 4131,
      "Ġins": 4132,
      "Ġà¦ļà¦ķ": 4133,
      "Ġmatch": 4134,
      "ĠX": 4135,
      "Ġà¦¸à¦°à¦ķ": 4136,
      "à°¯à°°": 4137,
      "Ġà¦ıà¦®à¦¨": 4138,
      "Ġà®ĩà®¤à®©": 4139,
      "Ġà¦ªà¦¥": 4140,
      "Ġà¤ľà¤¸": 4141,
      "Ġà¬ħà¬¸": 4142,
      "ĠàªĨàªªàªµ": 4143,
      "Ġcome": 4144,
      "ĠOn": 4145,
      "à´¿,": 4146,
      "àªĩàª¨": 4147,
      "ÙĦÙģ": 4148,
      "ĠÙ¾Ø§Ø³": 4149,
      "à«§": 4150,
      "Ġà¤ĺà¤Ł": 4151,
      "à¬Łà¬ķ": 4152,
      "à´±à´µ": 4153,
      "Ġà²ħà²¥à²µ": 4154,
      "Ġà¤«à¤°": 4155,
      "pr": 4156,
      "à¦¬à¦¬": 4157,
      "Ġspec": 4158,
      "Ġà´ķà´®": 4159,
      "àªĪàªı": 4160,
      "Ġà®ļà®°": 4161,
      "ĠØ±ÛĮ": 4162,
      "eth": 4163,
      "Ġà°¤à°®": 4164,
      "ta": 4165,
      "Ġà¤ľà¤²": 4166,
      "à¬¤à¬ķ": 4167,
      "Ġà°ħà°¤": 4168,
      "istr": 4169,
      "à´²à´ķ": 4170,
      "Ġàª¸àª°àªķ": 4171,
      "Ġà®µà®´à®Ļ": 4172,
      "à°²à°¯": 4173,
      "à§ģà¦ģ": 4174,
      "Ġà¦°à¦¯": 4175,
      "Ùĳ": 4176,
      "ÙĪÙĨÚ©Ûģ": 4177,
      "à¨°à¨ļ": 4178,
      "Ġà´ħà´Ń": 4179,
      "Ġï·º": 4180,
      "Ġà°ķà°°": 4181,
      "à¦¨à¦Ł": 4182,
      "à§ĩà¦ģ": 4183,
      "à¦£à§°": 4184,
      "à¤°à¤¥à¤®": 4185,
      "à«ĤàªĤ": 4186,
      "Ġà°ħà°ķ": 4187,
      "à¤°à¤¦à¤°": 4188,
      "ool": 4189,
      "Ġpub": 4190,
      "à´ķà´±": 4191,
      "Ġthose": 4192,
      "àµ¼à´®": 4193,
      "à²°à²¹": 4194,
      "Ġmod": 4195,
      "à®ļà®©": 4196,
      "Ġà¨ķà¨Ī": 4197,
      "ĠWor": 4198,
      "àŃŁà¬¬": 4199,
      "ÚĪÛĮ": 4200,
      "à§°à¦¸": 4201,
      "ĠÙħØ°": 4202,
      "Ġà¦¸à¦®à¦¸": 4203,
      "ording": 4204,
      "àªķàª¡": 4205,
      "Ġstate": 4206,
      "à°¡à°²": 4207,
      "à¦¼à§ĩà¥¤": 4208,
      "à°ķà°ª": 4209,
      "Ġà®ħà®´": 4210,
      "à¨°à¨«": 4211,
      "ĠÙģØ±Ùħ": 4212,
      "Ġà¤¤à¤¨": 4213,
      "ĠØŃØ§ØµÙĦ": 4214,
      "Ġà²ĺ": 4215,
      "Ġà¤¨à¤ķ": 4216,
      "à´ķà´®": 4217,
      "stem": 4218,
      "30": 4219,
      "ÙĴ": 4220,
      "Ġà¬²à¬ķ": 4221,
      "ĠÙ¾ÛģÙĨÚĨ": 4222,
      "tain": 4223,
      "Ø§ÙĨÙĪÚº": 4224,
      "Ġàªħàª¥àªµ": 4225,
      "à´¯à´±": 4226,
      "à§±à¦¤": 4227,
      "à²¤à²®": 4228,
      "ĠØ¯Ûģ": 4229,
      "ty": 4230,
      "à°¨à°ª": 4231,
      "ĠØ´ÛĮ": 4232,
      "à¥Īà¤Ĥ.": 4233,
      "à¦ĩà¦¤": 4234,
      "Ġ26": 4235,
      "àªĸàªµ": 4236,
      "Ġà®ħà®¤à®©": 4237,
      "ĠÙģÛĮØµ": 4238,
      "per": 4239,
      "ĠØªØµ": 4240,
      "Ġà°İà°ķ": 4241,
      "ĠÛ±Û": 4242,
      "à¨°à¨§": 4243,
      "à¤ıà¤Ĺ": 4244,
      "Ġà¦¶à¦¤": 4245,
      "to": 4246,
      "ĠØ§ÙħØ§Ùħ": 4247,
      "à¥Ģ-": 4248,
      "wa": 4249,
      "Ġà®®à®£": 4250,
      "tle": 4251,
      "à¤°à¤¯à¤¤": 4252,
      "Ġdel": 4253,
      "Ġà¤ľà¤¹": 4254,
      "ÙĪØ§": 4255,
      "à¦¬à¦ķ": 4256,
      "alk": 4257,
      "Ġmov": 4258,
      "à²Ńà²µ": 4259,
      "Ġà¬ħà¬¬": 4260,
      "Ġà¨¸à¨µ": 4261,
      "à¥ĳ": 4262,
      "à²¨à²µ": 4263,
      "Ġà¦Ĩà¦®à¦°": 4264,
      "Ġgl": 4265,
      "àª¯àª¤": 4266,
      "Ġcar": 4267,
      "Ġà¤īà¤ł": 4268,
      "Ġuse": 4269,
      "à¬°à¬¥à¬®": 4270,
      "Ġsince": 4271,
      "à´ªà´Ł": 4272,
      "ama": 4273,
      "à¤ļà¤¤": 4274,
      "Ġà¤¹à¤µ": 4275,
      "Ġà®¤à®°": 4276,
      "à¦¨à¦¯": 4277,
      "Ø´Ûģ": 4278,
      "Ġext": 4279,
      "à¤¸à¤ļ": 4280,
      "à¤ľà¤¤": 4281,
      "ology": 4282,
      "Ġ28": 4283,
      "à¤§à¤®": 4284,
      "Ġà¨ķà¨²": 4285,
      "Ġà¤Ĺà¤£": 4286,
      "Ġà¦ķà¦°à¦Ľ": 4287,
      "à°®à°°": 4288,
      "ĠQ": 4289,
      "à®ķà®©": 4290,
      "Ġà¤¨à¤°": 4291,
      "Ġà¬ħà¬¤": 4292,
      "ĠØ¢Ø¦ÛĮ": 4293,
      "Ġinf": 4294,
      "ĠØ¨ÙĨØ§": 4295,
      "Ġà´ķà´°": 4296,
      "à¤°à¤ķà¤°à¤£": 4297,
      "à¬²à¬ķ": 4298,
      "à²ķà²°à²£": 4299,
      "Ġà¤ªà¤Ľ": 4300,
      "à°¨à°ķ": 4301,
      "Ġsl": 4302,
      "Ġà°ļà°°": 4303,
      "Ġlife": 4304,
      "ĠThey": 4305,
      "Ġà¤°à¤ĸ": 4306,
      "ters": 4307,
      "Ġà¨¸à¨°": 4308,
      "à°¨à°µ": 4309,
      "Ġà¦ıà¦ľà¦¨": 4310,
      "Ø¨Ø§Ø±": 4311,
      "Ø³Ù¹": 4312,
      "à°·à°£": 4313,
      "à°²à°ª": 4314,
      "Ġà¦ĵà¦ª": 4315,
      "Ġcompany": 4316,
      "Ġà°²à°ķ": 4317,
      "Ġà¦ħà§°": 4318,
      "ern": 4319,
      "Ġà®Ĵà®©": 4320,
      "Ġà¨ªà¨¤": 4321,
      "Ġinvest": 4322,
      "àªļàª¨": 4323,
      "uth": 4324,
      "Ø§Ø³Øª": 4325,
      "à¨Ĩà¨¦": 4326,
      "à¤¯à¤¶": 4327,
      "à°·à°²": 4328,
      "ĠØ±Ø¶": 4329,
      "à®¹": 4330,
      "à¤ļà¤²": 4331,
      "à°Ĺà°²": 4332,
      "Ġà¤īà¤ªà¤¸": 4333,
      "à´Ńà´µ": 4334,
      "à°°à°²": 4335,
      "Ġà¤¨à¤¦": 4336,
      "ĠShe": 4337,
      "à¬ķà¬®": 4338,
      "ĠÚ©Ø±ÛĴ": 4339,
      "ĠÙħÛģ": 4340,
      "ĠFor": 4341,
      "Ġà²Īà²Ĺ": 4342,
      "Ġcontin": 4343,
      "ÙĦÙĪÙħ": 4344,
      "riv": 4345,
      "à¤µà¤§": 4346,
      "à®ļà®¤": 4347,
      "ĠØ¹ÙĨ": 4348,
      "à®³à®®": 4349,
      "Ġà°ªà°Ł": 4350,
      "ĠSing": 4351,
      "à¤¾'": 4352,
      "Ġsoc": 4353,
      "ĠØªÛĮ": 4354,
      "ten": 4355,
      "Ġà®ĩà®ª": 4356,
      "ather": 4357,
      "ST": 4358,
      "à²ħ": 4359,
      "Ġà¦Ĩà¦¯": 4360,
      "imes": 4361,
      "Åĭ": 4362,
      "Th": 4363,
      "à¤ĩà¤²": 4364,
      "ouse": 4365,
      "à²ŀ": 4366,
      "Ġ2019": 4367,
      "Ø¯ÙĪ": 4368,
      "ĠÙ¹ÛĮ": 4369,
      "à¤¹à¤²": 4370,
      "Ġà¨¸à¨¬": 4371,
      "Ġà¦¹à¦ļ": 4372,
      "Ġà¤Ĩà¤ªà¤£": 4373,
      "à´²à´µ": 4374,
      "ĠÃ": 4375,
      "Ġà¦ļà§°à¦ķ": 4376,
      "Ġ#": 4377,
      "ĠÚ©ÙĦ": 4378,
      "Ġàªħàª§": 4379,
      "Ġà²İà²°à²¡": 4380,
      "àµ»à´¸": 4381,
      "Ġà´®à´¤": 4382,
      "à²¦à²ķ": 4383,
      "ished": 4384,
      "Ġrequ": 4385,
      "Ø§Ø¯Ûģ": 4386,
      "ĠAd": 4387,
      "Ġà´ħà´®": 4388,
      "ĠÙĪØ³ÙĦÙħ": 4389,
      "à®¯à®µ": 4390,
      "Ġà¦¬à¦¡": 4391,
      "àª¯àª°": 4392,
      "Ġà°īà°ª": 4393,
      "à´ªà´°": 4394,
      "à²¸à²¬": 4395,
      "à®¤à®©à®°": 4396,
      "à¦¨à¦¬": 4397,
      "ĠØ¹ÙħÙĦ": 4398,
      "Ġz": 4399,
      "àª°àª¦": 4400,
      "Ġà²¬à²¹": 4401,
      "Ġvis": 4402,
      "à´Łà´¯": 4403,
      "Ġà¤ļà¤¤": 4404,
      "Ġà¬¤à¬¥": 4405,
      "rent": 4406,
      "Ġà¨ľà¨¨": 4407,
      "à¤¶à¤¸": 4408,
      "à¨¾à¨Ĥ,": 4409,
      "Ġann": 4410,
      "²Û": 4411,
      "Ġmen": 4412,
      "ĠØ§Ø´": 4413,
      "à¤ĩà¤Ł": 4414,
      "be": 4415,
      "à°İà°¸": 4416,
      "Ġdem": 4417,
      "Ġnext": 4418,
      "ÙĨØ³": 4419,
      "à¤ªà¤·": 4420,
      "à¨°à¨¡": 4421,
      "Ú©ÙĪ": 4422,
      "à¦Ĺà¦²": 4423,
      "Ġimport": 4424,
      "à¤Ĺà¤¸": 4425,
      "ĠØ®ÙĦØ§Ùģ": 4426,
      "Ġà¬ªà¬¦": 4427,
      "Ġgoing": 4428,
      "Ġhapp": 4429,
      "àª¡àªµ": 4430,
      "Ġà®®à®Ł": 4431,
      "Ġcase": 4432,
      "Ġà¦ħà¦²": 4433,
      "Ġ27": 4434,
      "àŃĩà¬ģ": 4435,
      "Ġ199": 4436,
      "Ø¹Øª": 4437,
      "ĠØ§Ø³ÛĮ": 4438,
      "Ġsupport": 4439,
      "à¨¢": 4440,
      "à§°à¦¦": 4441,
      "ĠØ¢Ø¨": 4442,
      "à¤¸à¤ª": 4443,
      "Ġplace": 4444,
      "à¥¤\"": 4445,
      "à¬®à¬ķ": 4446,
      "ĠØºÛĮØ±": 4447,
      "Ġincluding": 4448,
      "Ġopp": 4449,
      "à¤¥à¤ķ": 4450,
      "à´ķà´²": 4451,
      "ali": 4452,
      "à¨¬à¨²": 4453,
      "Ġà¤ªà¤ŀ": 4454,
      "Ġà®¨à®®": 4455,
      "Ġconf": 4456,
      "ists": 4457,
      "ized": 4458,
      "ĠØ±ÛģÛĮ": 4459,
      "Ġstill": 4460,
      "ada": 4461,
      "ĠØ§Ø³ØªØ¹": 4462,
      "Ġà¥§à¥¯": 4463,
      "Ġà°Ĩà°®": 4464,
      "ĠÙ¾ÛĮØ¯Ø§": 4465,
      "ÙĪØ±Ù¹": 4466,
      "Ġdep": 4467,
      "Ġhead": 4468,
      "Ġà¦īà¦ªà¦¸": 4469,
      "Ø¢ÙĨ": 4470,
      "11": 4471,
      "à¦Łà§°": 4472,
      "Ġà¦ĺà§°": 4473,
      "ĠHowever": 4474,
      "Ġà¨īà¨¤": 4475,
      "Ġà¤®à¤¦": 4476,
      "Ġà¬Ĩà¬°à¬®": 4477,
      "Ġread": 4478,
      "ering": 4479,
      "à¦¸à¦ķà¦²à§°": 4480,
      "à±ĩ,": 4481,
      "Ø«Ø±": 4482,
      "Ġà¦ªà¦¤": 4483,
      "ets": 4484,
      "Ġà¦ħà¦¹": 4485,
      "à¨®à¨£": 4486,
      "àª°àª¹": 4487,
      "ĠÙħØ²": 4488,
      "Ġfamil": 4489,
      "à¤¡à¤°": 4490,
      "Ø¹ÙĨÛĮ": 4491,
      "ÙĪÙĨÙĪÚº": 4492,
      "ody": 4493,
      "ier": 4494,
      "Ġà¬ķà¬°à¬¨": 4495,
      "Ġform": 4496,
      "Ġsk": 4497,
      "à¦ªà¦¦": 4498,
      "à°¾.": 4499,
      "à´µàµ¼": 4500,
      "à¬³à¬ķ": 4501,
      "roup": 4502,
      "Ġà®µà®ķ": 4503,
      "Ø¹ÛĮ": 4504,
      "ention": 4505,
      "à¤¨à¤®à¤¨": 4506,
      "Ġdirect": 4507,
      "à¤®à¤¯": 4508,
      "Ø§Ø¸": 4509,
      "à®£à®®": 4510,
      "à®±à®ķ": 4511,
      "Ġàªķàª²": 4512,
      "Ġfew": 4513,
      "Ġà¨Ńà¨°": 4514,
      "à§ĩ?": 4515,
      "à®Łà®ķ": 4516,
      "Ġà´ħà´§": 4517,
      "ĠEng": 4518,
      "erest": 4519,
      "Ġà¦ħà¦¬à¦¸": 4520,
      "à¨ªà¨¨": 4521,
      "Ġà®¤à®Ł": 4522,
      "àª¾àªĤ,": 4523,
      "à°¨à°°": 4524,
      "Ġà¤µà¤¨": 4525,
      "à°Ĺà°¤": 4526,
      "ÙĦÛĮÙħ": 4527,
      "à¦¶à¦ķ": 4528,
      "à°¯à°¡": 4529,
      "ĠÚĪÛĮ": 4530,
      "Ġà¬Łà¬Ļ": 4531,
      "ently": 4532,
      "àŃĢ,": 4533,
      "à¦¸à§°": 4534,
      "ĠÙĦÛĮØ§": 4535,
      "ÙĪÙĨÛĮ": 4536,
      "ĠDel": 4537,
      "à¤ľà¤Ĺ": 4538,
      "ĠÙĨØ§": 4539,
      "Ġàª¸àª¤": 4540,
      "Ġà´ªà´¤": 4541,
      "ĠØ¬ÙĦ": 4542,
      "con": 4543,
      "Ġrep": 4544,
      "à²²à²°": 4545,
      "àªķàª®": 4546,
      "aim": 4547,
      "à¬¬à¬¤": 4548,
      "Ġà°ªà°¡": 4549,
      "à¤¹à¤£à¤ľ": 4550,
      "Ġà¨Ĩà¨¦": 4551,
      "ĠÛĮÚ©": 4552,
      "ÙĪØ§Ø±": 4553,
      "Ġà¨¸à¨ª": 4554,
      "à´µà´¯": 4555,
      "à±Ģ,": 4556,
      "ĠØ¯Ø¹": 4557,
      "à¤¸à¤µ": 4558,
      "Ġà®ļà®¨": 4559,
      "Ġà²Ĩà²¯": 4560,
      "Ġà¦¹à¦ĩà¦¯": 4561,
      "à¦¤à§°à¦¤": 4562,
      "af": 4563,
      "àŃ®": 4564,
      "à®±à®®": 4565,
      "à®±à®©à®°": 4566,
      "ĠUS": 4567,
      "Ġà¥§à¥§": 4568,
      "iel": 4569,
      "Ġà®İà®´": 4570,
      "Ġcor": 4571,
      "à°Ĺà°¨": 4572,
      "ĠØ´Ø¯": 4573,
      "Ġà¤¦à¤ķ": 4574,
      "ĠØ³ÛĮØ§": 4575,
      "Ø§Ú¯Ø±": 4576,
      "Ġàªªàª¤": 4577,
      "Ġà¦¸à¦ķ": 4578,
      "Ġcre": 4579,
      "à¨®à¨¤": 4580,
      "ĠØ§ÙĨÛģÛĮÚº": 4581,
      "Ġà¤¦à¤²": 4582,
      "ÚĳÛĮ": 4583,
      "Ġà¤·": 4584,
      "à²¨à²¡": 4585,
      "ĠØ³ÙħØ¬Ú¾": 4586,
      "à°²à°®": 4587,
      "à¬Ĩà¬¯": 4588,
      "Ġà°İà°²": 4589,
      "ÙħÛĮØ±": 4590,
      "à±Ĥ.": 4591,
      "ĠØ´ÛģØ±": 4592,
      "Ġà¤ħà¤ľ": 4593,
      "Ġperform": 4594,
      "à¤¯à¤£": 4595,
      "à±Ģà°Ĥ": 4596,
      "ĠÙĦÚ©Ú¾": 4597,
      "ĠÙ¾Ø³": 4598,
      "à¦ĩà§°": 4599,
      "Ġà´Ĩà´¶": 4600,
      "ene": 4601,
      "à¬ªà¬¡": 4602,
      "Ġleg": 4603,
      "Ġà¦Ľà¦¬": 4604,
      "ĠàŃ¨àŃ¦": 4605,
      "Ġconc": 4606,
      "ĠØ¢Ø±": 4607,
      "ĠàªħàªŃ": 4608,
      "à¬¬à¬ķ": 4609,
      "à®¯à®Ļ": 4610,
      "à®´à®¨": 4611,
      "à¤¬à¤¹": 4612,
      "Ġfact": 4613,
      "ij": 4614,
      "ĠØ¥": 4615,
      "Ġà®Ĩà®¯": 4616,
      "Ġcomple": 4617,
      "à®°à®ļ": 4618,
      "Ġstat": 4619,
      "à¤¯à¤µà¤¹": 4620,
      "à´ĩ": 4621,
      "Ġfound": 4622,
      "Ġà²Ĳ": 4623,
      "à¬°à¬¨": 4624,
      "à¦¹à¦²": 4625,
      "Ġfind": 4626,
      "à²¡à²¬": 4627,
      "à«¨": 4628,
      "Ġà¤īà¤ªà¤²à¤¬": 4629,
      "lo": 4630,
      "Ġà´ħà´²": 4631,
      "Ġà¦¶à¦ķ": 4632,
      "Ø§ØªÛĮ": 4633,
      "Ġà¤«à¤²": 4634,
      "rid": 4635,
      "Ġà®Ĳ": 4636,
      "ĠØ®ÛĮ": 4637,
      "ĠThere": 4638,
      "ĠIf": 4639,
      "à¦Ľà§°": 4640,
      "à¨Łà¨¨": 4641,
      "--": 4642,
      "ÙĨØ¬": 4643,
      "à«ģàªĤ,": 4644,
      "à¦¯à¦¬à¦¸": 4645,
      "mit": 4646,
      "à²Ĺà²¡": 4647,
      "Ġprom": 4648,
      "Ġart": 4649,
      "à®ķà®ķ": 4650,
      "à²ĩ": 4651,
      "à´¹à´¤": 4652,
      "12": 4653,
      "à°Łà°ķ": 4654,
      "ĠÙħØ®Øª": 4655,
      "à²ķà²²": 4656,
      "à²¶à²¨": 4657,
      "Ġà¤®à¤ľ": 4658,
      "ideo": 4659,
      "gest": 4660,
      "à°°à°¹": 4661,
      "Ġà®ĩà®µà®°": 4662,
      "ided": 4663,
      "ĠØµÙĪØ±Øª": 4664,
      "ission": 4665,
      "à²¤à²¹": 4666,
      "Ġà¤¬à¤¦à¤²": 4667,
      "Ġà¬Ĩà¬¦": 4668,
      "Ġprot": 4669,
      "cept": 4670,
      "Ġmain": 4671,
      "Ġàª¥àª¤": 4672,
      "Ġfeat": 4673,
      "à¤¥à¤¨": 4674,
      "ages": 4675,
      "ĠØµÙĦÛĮ": 4676,
      "à´ķàµ¾à´ķ": 4677,
      "à´Ļàµ¾à´ķ": 4678,
      "Ġhealth": 4679,
      "Ġà¤īà¤ªà¤¯": 4680,
      "àªªàª¤": 4681,
      "Ġcare": 4682,
      "à¦Ļà§°": 4683,
      "Ġàªħàª¹": 4684,
      "bo": 4685,
      "Ġche": 4686,
      "Ġà¬¸à¬¨": 4687,
      "à¬¶à¬¨": 4688,
      "Ġà¦ĺà¦Ł": 4689,
      "ĠØ¨ÙĦÚ©Ûģ": 4690,
      "àŃ¯": 4691,
      "ĠWorld": 4692,
      "à¨¸à¨¦": 4693,
      "Ġma": 4694,
      "à¤¸à¤¸": 4695,
      "ality": 4696,
      "à¤½à¤¸": 4697,
      "à§ĭà¦ģà¥¤": 4698,
      "à°ł": 4699,
      "Ġofficial": 4700,
      "ĠÚ©ÛģÙĨØ§": 4701,
      "ants": 4702,
      "Ġà¤¹à¤¸": 4703,
      "à²µà²¦": 4704,
      "Ġà¤°à¤¹à¤¨": 4705,
      "):": 4706,
      "els": 4707,
      "ĠÙħÚ¯Ø±": 4708,
      "Ġà¥§à¥¨": 4709,
      "àŃ¬": 4710,
      "ĠÙĨØ´": 4711,
      "15": 4712,
      "à¤īà¤Ł": 4713,
      "Ġvari": 4714,
      "ism": 4715,
      "à¬ªà¬ķ": 4716,
      "Ġhome": 4717,
      "Ġdifferent": 4718,
      "à²Ĩ": 4719,
      "à°°à°¦": 4720,
      "à¨¸à¨ª": 4721,
      "Ø¯ÛĮØ«": 4722,
      "Ġopen": 4723,
      "Ġà´µà´³": 4724,
      "Ġà°ĩà°ķ": 4725,
      "à®±à®¨": 4726,
      "Ġpass": 4727,
      "à°¬à°°": 4728,
      "àŃŃ": 4729,
      "Ġà²ĵ": 4730,
      "Ġà°¦à°°": 4731,
      "ĠSingh": 4732,
      "ĠÚ¯Ú¾Ø±": 4733,
      "ÙĪÙĤ": 4734,
      "Ġstre": 4735,
      "Ġà´µà´²": 4736,
      "à´ł": 4737,
      "Ġà´Ĩà´ķ": 4738,
      "Ġà¬Ĩà¬¶": 4739,
      "Ġinform": 4740,
      "Ġà¥§à¥«": 4741,
      "Ġpos": 4742,
      "Ġmar": 4743,
      "à´Ļà´¨": 4744,
      "à¤ĩà¤°à¤¹": 4745,
      "Ġà¨ĵ": 4746,
      "ush": 4747,
      "Ù¾Ø±": 4748,
      "Ġsim": 4749,
      "Ġà²¸à²²": 4750,
      "Ġà²ªà²¤": 4751,
      "Ġà´ľà´¨": 4752,
      "Ġsit": 4753,
      "à¤łà¤¨": 4754,
      "Ġà´¬à´¨": 4755,
      "ork": 4756,
      "Ġtoo": 4757,
      "ĠAss": 4758,
      "à¤Ĺà¤¦": 4759,
      "à¤Ńà¤ķ": 4760,
      "à¥Įà¤ģ": 4761,
      "umb": 4762,
      "à¨²à¨£": 4763,
      "Ġà°ħà°¸": 4764,
      "ĠØŃØµ": 4765,
      "à¥¤à¥¤": 4766,
      "ĠÙĪØ§ÙĦÛĮ": 4767,
      "Ġà²ıà²¨": 4768,
      "ÙĪÙ¹": 4769,
      "àŃ§": 4770,
      "Ġopt": 4771,
      "Ġused": 4772,
      "Ġà¤ªà¤¢": 4773,
      "Ġà¦ķà¦°à¦¬": 4774,
      "à¤°à¤®à¤®": 4775,
      "ĠØªÙĨ": 4776,
      "Ġ]": 4777,
      "Ø°Ø§": 4778,
      "Ġtechn": 4779,
      "à¨£à¨ķ": 4780,
      "Ġà®İà®²": 4781,
      "à¤¨à¤¯": 4782,
      "ĠÙħÚ©": 4783,
      "ÙĦØ¨": 4784,
      "à¨¨à¨ķ": 4785,
      "à¬¤à¬Ļ": 4786,
      "à¤Łà¤¤": 4787,
      "Ġà²īà²ª": 4788,
      "urs": 4789,
      "ĠÚĨÚ¾ÙĪ": 4790,
      "Ġàªħàª¤": 4791,
      "à¦®à¦°": 4792,
      "Ú¯Ø§Ûģ": 4793,
      "ases": 4794,
      "Ġà®Ĩà®Ł": 4795,
      "à´ķà´£": 4796,
      "à¦®à¦¬": 4797,
      "ĠØ§ÙĨÛģÙĪÚº": 4798,
      "ves": 4799,
      "Ġdon": 4800,
      "Ġanother": 4801,
      "à¨¸à¨ķ": 4802,
      "ries": 4803,
      "Ø²ÛĮ": 4804,
      "à¦Ĺà¦°": 4805,
      "à¦§à§°": 4806,
      "Ġà§¬": 4807,
      "Ġà´Ĵà´¨": 4808,
      "Ġà¤¸à¤¬à¤¸": 4809,
      "à¬¾à¬Ĥ": 4810,
      "Ġà²ĩà²¦à²°": 4811,
      "Ġadv": 4812,
      "ĠØ¨ÛĮÙĨ": 4813,
      "Ġà°īà°¤": 4814,
      "Ø¯Ø§Ø¯": 4815,
      "à¤³à¤¤": 4816,
      "Ġnumber": 4817,
      "Ġà¨Ŀ": 4818,
      "Ġà²¸à²¦": 4819,
      "ives": 4820,
      "à¤µà¤ľà¤¨": 4821,
      "Ġsystem": 4822,
      "Ġà¤°à¤µ": 4823,
      "à¦¥à¦¨": 4824,
      "ĠRaj": 4825,
      "Ġà®Ĩà®°": 4826,
      "à²¡à²°": 4827,
      "Ġà¦ķà¦°à¦²": 4828,
      "Ġlat": 4829,
      "Ø¸Ùħ": 4830,
      "ÛģØ§Ø±": 4831,
      "ĠÙĨÙĤ": 4832,
      "à¤ķà¤µ": 4833,
      "Ġà´Ĩà´µà´¶": 4834,
      "Ġà°Ĳ": 4835,
      "outh": 4836,
      "ĠØªØ¬": 4837,
      "Ġloc": 4838,
      "àªķàª¸": 4839,
      "à¤¯à¤Ĺ": 4840,
      "Ġà°¸à°¹": 4841,
      "ÙħÛĮÚº": 4842,
      "Ġà¤¨à¤¨": 4843,
      "eg": 4844,
      "ĠàªĬ": 4845,
      "à¦¹à¦¨": 4846,
      "à¨¬à¨¦": 4847,
      "hief": 4848,
      "Ġweek": 4849,
      "Ø±ÙĪØ¹": 4850,
      "ĠØ§ÛĴ": 4851,
      "Ġà«¨": 4852,
      "Ġincre": 4853,
      "Ġbusiness": 4854,
      "Ġput": 4855,
      "à°ļà°°": 4856,
      "Ġthink": 4857,
      "à¤²à¤°": 4858,
      "ired": 4859,
      "Ġà®Ī": 4860,
      "àµģà´Ĥ,": 4861,
      "à¦Ĺà¦£": 4862,
      "Ġà²ªà²ķ": 4863,
      "Ġà¤¸à¤®à¤°": 4864,
      "Ġà¤¸à¤²": 4865,
      "Ġthough": 4866,
      "min": 4867,
      "ĠØ¬Ø§ÙĨØ¨": 4868,
      "à¦¬à¦ª": 4869,
      "Ġà¨µà¨ľ": 4870,
      "ĠØ¯ÙĪÙĨÙĪÚº": 4871,
      "à¬ªà¬¨": 4872,
      "Ø§Ø¦ÙĨ": 4873,
      "ĠÛģÙĪÚ¯Ø§": 4874,
      "à¤¨à¤¦": 4875,
      "à¤ļà¤®": 4876,
      "ĠÙħØ§ÙĦ": 4877,
      "Ġpower": 4878,
      "ird": 4879,
      "ÛģØ§ÛĮ": 4880,
      "uj": 4881,
      "à´¤àµ½": 4882,
      "à¤Ńà¤ıà¤ķ": 4883,
      "Ġgrow": 4884,
      "ĠÙĨÚ©": 4885,
      "Ġà°®à°§": 4886,
      "Ġàªµàªĸàª¤": 4887,
      "à¦¨à¦¸": 4888,
      "Ġà¤īà¤ªà¤ļ": 4889,
      "ĠÙ¾ÚĳÚ¾": 4890,
      "Ġà²Ĩà²¸": 4891,
      "ka": 4892,
      "Ġcle": 4893,
      "à´§à´¤": 4894,
      "rest": 4895,
      "Ġà¦Ĺà¦²": 4896,
      "à¦¼à§ģ": 4897,
      "ĠØ³Ú©ØªØ§": 4898,
      "à§°à¦¬": 4899,
      "à®¯à®±": 4900,
      "Ġà¦Ńà¦¯": 4901,
      "Ġàª°àª¸": 4902,
      "Ġà®¨à®Łà®¤": 4903,
      "ho": 4904,
      "à¦Ľà¦¨": 4905,
      "à¬¨à¬ķ": 4906,
      "Ġlot": 4907,
      "ĠØ¬Ø§Ø±ÛĮ": 4908,
      "Ġplayers": 4909,
      "à´¯àµ»": 4910,
      "à°¤à°ķ": 4911,
      "Ġeach": 4912,
      "ways": 4913,
      "Ġà®ªà®±": 4914,
      "Ġgr": 4915,
      "ĠDelhi": 4916,
      "ĠÚĨÛĮØ²": 4917,
      "à¦¯à¦¸": 4918,
      "ĠØ§Ø³ØªØ¹ÙħØ§ÙĦ": 4919,
      "Ġà²ħà²¦à²°": 4920,
      "ĠÙħØ¬Ú¾ÛĴ": 4921,
      "Ġà¦Ĳ": 4922,
      "à¤£à¤µ": 4923,
      "ĠØ¨Ø¬": 4924,
      "ĠÙ¾Ø§Ø±": 4925,
      "ĠØ§ÙĦØŃ": 4926,
      "Ġà¦ĵà¦ªà§°à¦¤": 4927,
      "à¨²à¨®": 4928,
      "view": 4929,
      "à¤°à¤Ĺ": 4930,
      "Ġdays": 4931,
      "Ġà¬ĺà¬Łà¬£": 4932,
      "à¬ĩà¬¯": 4933,
      "ĠØ§Ú©": 4934,
      "Ġ29": 4935,
      "à¬ļà¬°": 4936,
      "ĠØ¢Ø¬": 4937,
      "Ġà²Ĺà²³": 4938,
      "à«ī": 4939,
      "à´¯à´µ": 4940,
      "à´ķà´¨": 4941,
      "à¦ķà¦¬": 4942,
      "Ġà´¨à´®": 4943,
      "Ġà¤¸à¤¹à¤¯": 4944,
      "à²İà²¸": 4945,
      "à¬¡à¬°": 4946,
      "à¥ĩà¤Ĥà¥¤": 4947,
      "Ġà²ħà²ª": 4948,
      "Ġà¬ĸà¬¬à¬°": 4949,
      "à®³à®©à®°": 4950,
      "Ġà¦Ĺà¦£": 4951,
      "à¤·à¤¸": 4952,
      "Ġstand": 4953,
      "Ø§ÛģÙħ": 4954,
      "Ġà¦ľà¦¯": 4955,
      "Ġà¬Ĩà¬¬": 4956,
      "Ġta": 4957,
      "Ġà¦Ĺà§°": 4958,
      "ĠØ´Ø§Ûģ": 4959,
      "Ġàªµàª¸": 4960,
      "Ġà¬Ńà¬²": 4961,
      "àª¹àª¨": 4962,
      "It": 4963,
      "Ġà§§à§¦": 4964,
      "ĠØ²ÙĨØ¯Ú¯ÛĮ": 4965,
      "Ġà¤ķà¤¤": 4966,
      "ÙĦØ¦ÛĴ": 4967,
      "Ġà´Ĩà´£": 4968,
      "à¤ıà¤¨": 4969,
      "à²°à²¶": 4970,
      "Ġà°¤à°ª": 4971,
      "ĠØ®Ø¨Ø±": 4972,
      "Ġask": 4973,
      "Ġkeep": 4974,
      "à°µà°¹": 4975,
      "ĠAt": 4976,
      "Ø¯ÛĮÙĨ": 4977,
      "à¤¥à¤²": 4978,
      "Ġ...": 4979,
      "ats": 4980,
      "à²ļà²¨": 4981,
      "Ġexperi": 4982,
      "à´ļà´¯": 4983,
      "Ġà²ľà²¨à²°": 4984,
      "ran": 4985,
      "à²ķà²µ": 4986,
      "ĠØ®Ø¯Ø§": 4987,
      "Ġà°Ĩà°¸": 4988,
      "à¤Ĩà¤Ī": 4989,
      "Ġà¨Ĩà¨Ī": 4990,
      "ually": 4991,
      "à¦°à¦ļ": 4992,
      "Ġfac": 4993,
      "Ġà¤¤à¤¬": 4994,
      "une": 4995,
      "Ġà¦ħà¦ķ": 4996,
      "Ġà¤Ĩà¤ł": 4997,
      "à²®à²¦": 4998,
      "Ġà´®à´£": 4999,
      "à¯į!": 5000,
      "Ġà®ĩà®£": 5001,
      "Ġà¨¢": 5002,
      "à´¸à´°": 5003,
      "à²ļà²°": 5004,
      "Ġà¦¤à¦ĸà¦¨": 5005,
      "riend": 5006,
      "Ġà´Ĩà´¯": 5007,
      "à§ĭ,": 5008,
      "Ø§ÙĨÚĨ": 5009,
      "àª§àª¨": 5010,
      "Ġà¤ķà¤¨": 5011,
      "Ġà®ĩà®µ": 5012,
      "à¦®à¦¯": 5013,
      "ÙĪØµ": 5014,
      "ccess": 5015,
      "à¤¯à¤ľ": 5016,
      "ĠPl": 5017,
      "ĠØ´Ø±ÙĪØ¹": 5018,
      "Ġ31": 5019,
      "Ø±Ùħ": 5020,
      "ĠÚ¯ÙĪ": 5021,
      "Ġà´İà´¸": 5022,
      "à¨£à¨Ĺ": 5023,
      "à¦¹à¦¸": 5024,
      "Ġà®ªà®¯": 5025,
      "à²Ĺà²µ": 5026,
      "ural": 5027,
      "Ø§ÙĦÙħ": 5028,
      "Ġà´ĩà´ª": 5029,
      "Ġside": 5030,
      "Ġà°ħà°¡": 5031,
      "ĠMan": 5032,
      "Ġ2018": 5033,
      "esp": 5034,
      "Ġinterest": 5035,
      "ternational": 5036,
      "à¤°à¤ªà¤¤": 5037,
      "Ġgot": 5038,
      "Ġwon": 5039,
      "ĠØ§ÙģØ±": 5040,
      "ĠØ¹ÙĪ": 5041,
      "Ġà®ªà®¯à®©": 5042,
      "Ġquest": 5043,
      "Ġchild": 5044,
      "Ġà°ĩà°ļ": 5045,
      "Ġà´¸à´¨": 5046,
      "\\\\\\\\": 5047,
      "ÙĦØ·": 5048,
      "Ġà¤¹à¤¤": 5049,
      "Ø®ÙĪ": 5050,
      "ĠÛĶ(": 5051,
      "à²ķà²³": 5052,
      "Ġà°¨à°Ł": 5053,
      "àµ¼à´·": 5054,
      "à¤Ńà¤µà¤¤": 5055,
      "àªŁàªķ": 5056,
      "ump": 5057,
      "ially": 5058,
      "Ġà¬ħà¬¬à¬¸": 5059,
      "Ø¦Ø±": 5060,
      "ploy": 5061,
      "ĠTr": 5062,
      "à±ĭ,": 5063,
      "ury": 5064,
      "Ġàª¥àªµ": 5065,
      "bers": 5066,
      "à§°à¦¯": 5067,
      "à´ķà´ª": 5068,
      "Ġref": 5069,
      "Ġresult": 5070,
      "Ġà¦Łà¦ķ": 5071,
      "à®®à®°": 5072,
      "à²¯à²¸": 5073,
      "Ġà´īà´ªà´¯": 5074,
      "à¦®à¦¦": 5075,
      "Ġdan": 5076,
      "Ġlar": 5077,
      "ĠÛĶ\"": 5078,
      "à¨§à¨°": 5079,
      "ency": 5080,
      "ye": 5081,
      "Ġà®¤à®Ļ": 5082,
      "ams": 5083,
      "ĠØŃÙħ": 5084,
      "Ġtook": 5085,
      "Ġàªīàªªàª¯": 5086,
      "Ġseries": 5087,
      "à²°à²Ĺà²³": 5088,
      "Ġà´ħà´µà´°": 5089,
      "Ø¬Ø¨": 5090,
      "We": 5091,
      "à¦¶à¦¤": 5092,
      "Ġà°ıà°°": 5093,
      "à¬ĩà¬Ł": 5094,
      "ĠÙħØ§": 5095,
      "à¬¹à¬°": 5096,
      "Ġà¤ĩà¤²": 5097,
      "ĠÙħØªØ¹": 5098,
      "ĠÙĤØ±Ø§Ø±": 5099,
      "Ġà¤ļà¤ķ": 5100,
      "Ġpolice": 5101,
      "Ġà®ĩà®¯à®ķ": 5102,
      "à§°à¦£à§°": 5103,
      "à®°à®£à®®": 5104,
      "ĠØ§ÛģÙĦ": 5105,
      "Ø§Øº": 5106,
      "Ġà§Ń": 5107,
      "ĠØªÛĮÙĨ": 5108,
      "Ø§Ø¨ÛĮ": 5109,
      "ĠÚĨÚ¾": 5110,
      "à¤ļà¤¯": 5111,
      "Ġà®¤à®±": 5112,
      "Ġ60": 5113,
      "Ø®Ø±": 5114,
      "Ġà¨ł": 5115,
      "à¥ĩ-": 5116,
      "Ġmanag": 5117,
      "Ø¤": 5118,
      "Ø³ØªÛĮ": 5119,
      "Ġà®ªà®Łà®¤": 5120,
      "ĠØ¯ÛĮÚ¯Ø±": 5121,
      "Ġà´ħà´ª": 5122,
      "Ġallow": 5123,
      "Ġsom": 5124,
      "à¤¿à¤ģ": 5125,
      "Ġàªħàª²": 5126,
      "à¦ļà¦¯": 5127,
      "ĠÙĦØ§": 5128,
      "Ġà¦¶à§°": 5129,
      "à¨ĩà¨ķ": 5130,
      "à©ĭ.": 5131,
      "ertain": 5132,
      "Ġgener": 5133,
      "à´¾à´Ĥ.": 5134,
      "Ġmeet": 5135,
      "Ġà¬ªà¬¹": 5136,
      "à®´à®ķ": 5137,
      "à°²à°°": 5138,
      "Ġà¬ıà¬®": 5139,
      "à¥ĩà¤Ĥ,": 5140,
      "Ġcame": 5141,
      "à¤¤à¤ķà¤°": 5142,
      "à®¤à®µà®°": 5143,
      "Ø§Ø«": 5144,
      "ĠSo": 5145,
      "Ġà¬·": 5146,
      "Ġà¬īà¬ļ": 5147,
      "à©Īà©±": 5148,
      "Ġdev": 5149,
      "ĠÙħÛĮØ±ÛĴ": 5150,
      "Ġà¦ªà¦ķ": 5151,
      "à¤ĩà¤¸": 5152,
      "Ġà¦ĵà¦²": 5153,
      "à²¯à²Ĺà²³": 5154,
      "Ġà®īà®Ļ": 5155,
      "Ġà°¸à°®à°¯": 5156,
      "Ġtoday": 5157,
      "Ġadded": 5158,
      "less": 5159,
      "oint": 5160,
      "à´Łà´ª": 5161,
      "à¨¼à©ĭ": 5162,
      "Ġà´¸à´°": 5163,
      "Ġà¬Ĩà¬¨": 5164,
      "ĠÛģÙĪØªÛĴ": 5165,
      "Ø§Ø¦Ø±": 5166,
      "Ġà¬¯à¬¦": 5167,
      "ĠÙħØ§Ø±": 5168,
      "à¤Ĩà¤°": 5169,
      "ĠSp": 5170,
      "Ġà¦¬à¦²à¦²": 5171,
      "ĠÚ©ÙħÛĮ": 5172,
      "Ġprog": 5173,
      "àª®àªľ": 5174,
      "Ġà®ķà®Łà®¨": 5175,
      "à¬ħà¬¨": 5176,
      "Ø§ÙĨÛģÙĪÚº": 5177,
      "Ġproduct": 5178,
      "à²¨à²Ĺà²³": 5179,
      "à¤°à¤¹à¤£": 5180,
      "ĠEx": 5181,
      ")à¥¤": 5182,
      "ium": 5183,
      "à°ľà°¯": 5184,
      "Ġrece": 5185,
      "Ġà¦¶à¦¬": 5186,
      "Ø§Ø²ÛĮ": 5187,
      "Ġà¤ªà¤µ": 5188,
      "ĠØ§ÙĨØ¯": 5189,
      "à°ŀ": 5190,
      "Ġàª¥àªĩ": 5191,
      "ĠØ¬Ø§ÙĨÛĴ": 5192,
      "ivers": 5193,
      "Ġà¦Ŀ": 5194,
      "à¨¹à¨¨": 5195,
      "à¬®à¬¤": 5196,
      "ĠMe": 5197,
      "Ġà´īà´¦": 5198,
      "ĠØ¯ÙĪØ³Ø±ÛĴ": 5199,
      "à²¦à²µ": 5200,
      "Ġà¬Ĩà¬Ĺ": 5201,
      "àªĹàª®": 5202,
      "Ġà¤¦à¤¶": 5203,
      "à¨ħà¨¨": 5204,
      "à¦®à¦£": 5205,
      "à°ķà°Ł": 5206,
      "sc": 5207,
      "Ġà°¨à°®": 5208,
      "àª®àªķ": 5209,
      "Ġà¨īà¨¹à¨¨": 5210,
      "à´°à´§": 5211,
      "Ġà¬ķà¬¬": 5212,
      "wit": 5213,
      "Ú¯Ûģ": 5214,
      "Ġà¨Ĩà¨®": 5215,
      "Ġà¤®à¤¸": 5216,
      "ield": 5217,
      "Ġàª¹àªľ": 5218,
      "à¦ĸà¦²": 5219,
      "Ġposs": 5220,
      "Ġrest": 5221,
      "istan": 5222,
      "ined": 5223,
      "àµĨ.": 5224,
      "\",": 5225,
      "Ġà´§": 5226,
      "ron": 5227,
      "ÛĶÛĶ": 5228,
      "ured": 5229,
      "Ġturn": 5230,
      "Ġà°µà°°à°ķ": 5231,
      "à¬Ńà¬³": 5232,
      "à¤¹à¤°à¤£": 5233,
      "Ġà¬ķà¬³": 5234,
      "Ġà¦ħà§±": 5235,
      "à¤µà¤Ł": 5236,
      "ĠâĢĶ": 5237,
      "à¨°à¨²": 5238,
      "ĠØªØ´": 5239,
      "à¨ĩà¨¤": 5240,
      "Ġà´²à´ķ": 5241,
      "à²·à²¦": 5242,
      "Ġà²²à²ķ": 5243,
      "ĠÚ©Ø§ÙĨ": 5244,
      "Ġà¤ıà¤¨": 5245,
      "Ġà¦§à¦¨": 5246,
      "sh": 5247,
      "à§ĩ-": 5248,
      "Ġàª¤àª°àª«": 5249,
      "self": 5250,
      "ĠÙħØ³Øª": 5251,
      "Ġlist": 5252,
      "ÚĳÛĴ": 5253,
      "Ġexc": 5254,
      "àª°àª¶": 5255,
      "Ġà¤ħà¤«": 5256,
      "àŃŁà¬¬à¬¸": 5257,
      "ague": 5258,
      "Ġmak": 5259,
      "à¨¦à¨²": 5260,
      "ĠÚ©Ø±ÙĪ": 5261,
      "ĠÙħØ¹ÙĦÙĪÙħ": 5262,
      "Ġà¦Ĩà¦ĩ": 5263,
      "ĠÙģÙĪ": 5264,
      "ÛĮØ¯Ûģ": 5265,
      "à´İà´¸": 5266,
      "Ø§Ø¦Ùħ": 5267,
      "à¬Ī": 5268,
      "à²¯à²µà²¨": 5269,
      "Ġà¤²à¤¡": 5270,
      "Ġwomen": 5271,
      "à´ķà´°à´£": 5272,
      "Ġmedia": 5273,
      "ense": 5274,
      "ĠØ¨Ú¾Ø±": 5275,
      "ĠØ§Ù¹Ú¾": 5276,
      "à¤¨à¤Ĺà¤°": 5277,
      "Ġà´ªà´Ļ": 5278,
      "ĠSc": 5279,
      "Ġà¬Ĩà¬²": 5280,
      "ĠBl": 5281,
      "à¤¯à¤ķà¤°": 5282,
      "Ġà¤ĵà¤°": 5283,
      "à©ĭ,": 5284,
      "Ġà²İà²¸": 5285,
      "Ġprocess": 5286,
      "Ġà²¹à²£": 5287,
      "ides": 5288,
      "Ġà¦ħà¦ŀ": 5289,
      "ĠApp": 5290,
      "ĠØ¹Ø§Ùħ": 5291,
      "àŃŁà¬¸": 5292,
      "Ġpop": 5293,
      "Ġà²¸à²ļ": 5294,
      "Ġà¬Ĩà¬°": 5295,
      "ĠÙĤØ¨": 5296,
      "Ġtest": 5297,
      "à¤Łà¤µ": 5298,
      "Ġà°¤à°Ĺ": 5299,
      "Ġbetter": 5300,
      "Ġà¤¸à¤Ļ": 5301,
      "à²¨à²¨": 5302,
      "era": 5303,
      "àŃģ,": 5304,
      "ĠÚ©Ø¨": 5305,
      "Ġwithout": 5306,
      "ĠÛĮØ¹ÙĨÛĮ": 5307,
      "ĠØ¬Ø§ØªÛĮ": 5308,
      "Ġà¦ĵà¦¯": 5309,
      "Ġappro": 5310,
      "Ġfive": 5311,
      "Ġà´ĩà´°": 5312,
      "16": 5313,
      "Ġà¦¹à¦ĵà¦¯": 5314,
      "ĠØ´Ø§ÙħÙĦ": 5315,
      "ĠØ§ÙģØ±Ø§Ø¯": 5316,
      "Ġà´Ĳ": 5317,
      "AN": 5318,
      "Ġà©": 5319,
      "à²ªà²Ł": 5320,
      "Ġseen": 5321,
      "à²¬à²²": 5322,
      "à®°à®ª": 5323,
      "Ġremain": 5324,
      "Ġlit": 5325,
      "à°°à°§": 5326,
      "à¤¯à¤ķà¤¤": 5327,
      "à®µà®¤à®±": 5328,
      "Ġfamily": 5329,
      "à¤¡à¤®": 5330,
      "Ġà§§": 5331,
      "Ġàªľàª¨": 5332,
      "ient": 5333,
      "reen": 5334,
      "Ġpartic": 5335,
      "Ġà¬Ĩà¬ªà¬£à¬Ļ": 5336,
      "à´Łà´±": 5337,
      "ÙĪØ±Ûģ": 5338,
      "ote": 5339,
      "unity": 5340,
      "Ġreturn": 5341,
      "ode": 5342,
      "Ġà¨īà¨ª": 5343,
      "à¤±": 5344,
      "Ġdue": 5345,
      "ĠØ±ØŃ": 5346,
      "à¤Ľà¤¤": 5347,
      "Ġtit": 5348,
      "Ġà¤¸à¤ľ": 5349,
      "Ġà¦¬à¦¯": 5350,
      "Ø´ØªÛģ": 5351,
      "Ġago": 5352,
      "à°¨à°¸": 5353,
      "à®ªà®®": 5354,
      "à¤¼à¤¿": 5355,
      "Ġsol": 5356,
      "Ġàªħàªª": 5357,
      "ĠÛģÙħØ§Ø±ÛĴ": 5358,
      "Ġà¦¹à¦ĩà¦¤": 5359,
      "à¤ĺà¤°": 5360,
      "rol": 5361,
      "17": 5362,
      "Ġà¦Ĩà§°à¦®": 5363,
      "22": 5364,
      "Ġà°ĩà°µ": 5365,
      "à´Ĩ": 5366,
      "ĠØ§ÛĮØ³ÛĴ": 5367,
      "à°¨à°²": 5368,
      "Ġà¤µà¤¡": 5369,
      "Ġà¦ıà¦¦": 5370,
      "Ù¾ÛĮ": 5371,
      "ĠØ§ÛĮØ³Ø§": 5372,
      "Ġà¥¤\"": 5373,
      "Ġà¨ªà©ľ": 5374,
      "ÛĮÙĨÛģ": 5375,
      "chool": 5376,
      "Ġà´ķà´³": 5377,
      "ety": 5378,
      "Ġimportant": 5379,
      "Ùĩ": 5380,
      "Ġà¤Ńà¤ķ": 5381,
      "ĠØ¨ÚĳÚ¾": 5382,
      "amb": 5383,
      "à¬Łà¬¨": 5384,
      "Ġbow": 5385,
      "à²¸à²¦": 5386,
      "à°ªà°²": 5387,
      "ĠØŃØ¯": 5388,
      "ika": 5389,
      "Ġàªĩàª¨": 5390,
      "Ġmga": 5391,
      "à§¦à§¦": 5392,
      "Ġà¤ķà¤µ": 5393,
      "ĠÛĮÛģØ§Úº": 5394,
      "Ġà´®à´°": 5395,
      "Ġavail": 5396,
      "à¨ķà¨Łà¨°": 5397,
      "Ġcro": 5398,
      "à¦«à¦²": 5399,
      "à¤°à¤·": 5400,
      "à´¯à´¸": 5401,
      "à¨ĩà¨¸": 5402,
      "ĠGovernment": 5403,
      "Ġannoun": 5404,
      "ĠØ¬ÙĪØ§Ø¨": 5405,
      "Ġtri": 5406,
      "ĠÙħØ®": 5407,
      "ÙĨÙ¹": 5408,
      "ĠÛģØ²Ø§Ø±": 5409,
      "à²¥à²³": 5410,
      "à§ģ,": 5411,
      "Ġà¨īà¨¦": 5412,
      "à²®à²°": 5413,
      "Ġà¬ħà¬Ľ": 5414,
      "à¦¯à§±à¦¸": 5415,
      "aya": 5416,
      "Ġfar": 5417,
      "osed": 5418,
      "ĠÛģÙĨØ¯": 5419,
      "Ġob": 5420,
      "à²®à²ķ": 5421,
      "Ø´Ø´": 5422,
      "Ġcurrent": 5423,
      "This": 5424,
      "à°®à°ķ": 5425,
      "ĠÙ¾ÙĪ": 5426,
      "à¨¤à¨µ": 5427,
      "à²§à²¨": 5428,
      "Ġà«§à«": 5429,
      "àª¨àªµ": 5430,
      "Ġtaken": 5431,
      "Ġà¦°à¦ķ": 5432,
      "wards": 5433,
      "ĠNo": 5434,
      "Ġ35": 5435,
      "ĠØ¨Ø§Ø±ÛĴ": 5436,
      "Ġà¤ĵà¤²": 5437,
      "à°ľà°°": 5438,
      "à¨°à¨£": 5439,
      "Ġmaking": 5440,
      "à¤¾à¥ĩ": 5441,
      "à¤¥à¤¸": 5442,
      "Ġà¦Ĩà¦Ĺà¦¤": 5443,
      "13": 5444,
      "14": 5445,
      "Ġsays": 5446,
      "ware": 5447,
      "à¨¹à©ľ": 5448,
      "Ø²Ø±": 5449,
      "ĠàªĨàªµàª¤": 5450,
      "à¤¬à¤¸": 5451,
      "Ġmarket": 5452,
      "Ġà¦¬à¦ķ": 5453,
      "Ġà¤Ńà¤µà¤¨": 5454,
      "à¦ĸà¦¨à§°": 5455,
      "Ġà¦¯à¦¥": 5456,
      "à°¶à°ķ": 5457,
      "ection": 5458,
      "à°±": 5459,
      "à¤ĸà¤¤": 5460,
      "à¬£à¬°": 5461,
      "à¦¼à¦¾,": 5462,
      "Ġsuccess": 5463,
      "Ġaff": 5464,
      "Ġà®µà®²": 5465,
      "Ġà°Ĩà°¦": 5466,
      "Ġprop": 5467,
      "ĠØ§Ø¨ÙĨ": 5468,
      "ours": 5469,
      "la": 5470,
      "à¦¹à¦®": 5471,
      "ĠØ¨ØŃ": 5472,
      "ising": 5473,
      "à¦°à¦ĵ": 5474,
      "ĠÙĤØ§ÙĦ": 5475,
      "à¦¦à¦²": 5476,
      "ĠØ¨Ø¹": 5477,
      "à¨Īà¨Ĩ": 5478,
      "Ġà´¨à´Łà´¨": 5479,
      "ĠØ¹ÙĦØ§ÙĤ": 5480,
      "Ġà®µà®´à®ķ": 5481,
      "Ø§Ø¨ÙĦ": 5482,
      "ĠÚ©Ø³": 5483,
      "à¦®à¦¸": 5484,
      "ĠÚ©ÛĮÙĦØ¦ÛĴ": 5485,
      "ĠàªĨàªµàª¶": 5486,
      "ĠØ³Ø§ÙħÙĨÛĴ": 5487,
      "Ġpublic": 5488,
      "àª®àª²": 5489,
      "à¥ģ,": 5490,
      "à¨Īà¨¨": 5491,
      "ĠÙħØ§ÙĨ": 5492,
      "Ġaway": 5493,
      "à¨²à¨¸": 5494,
      "Ġmid": 5495,
      "Ġà®ĩà®°à®£": 5496,
      "Ġgiven": 5497,
      "Ġlevel": 5498,
      "Ġacross": 5499,
      "Ø§ÛĮÚ©": 5500,
      "Ġà¦¨à¦ķà§°": 5501,
      "à§±à¦²": 5502,
      "conom": 5503,
      "Ġà¤ĩà¤®": 5504,
      "Ġelect": 5505,
      "à°ĩ": 5506,
      "à´ļà´°": 5507,
      "Ġlo": 5508,
      "ately": 5509,
      "à¦¸à¦¬": 5510,
      "à¨ĸà¨¦": 5511,
      "ective": 5512,
      "à¤¶à¤µ": 5513,
      "à¦¹à¦°": 5514,
      "Ġàª¥àª¶": 5515,
      "à¤²à¤ļ": 5516,
      "àª·àª¨": 5517,
      "Ġà¨Ķ": 5518,
      "Ġà¬ķà¬£": 5519,
      "à°ªà°ķ": 5520,
      "Ġlaw": 5521,
      "Ġreal": 5522,
      "Ġà°°à°ķ": 5523,
      "Ġà¤Ĩà¤¸": 5524,
      "Ġbre": 5525,
      "Ø§Ø¦Ø¯": 5526,
      "Ġ198": 5527,
      "mber": 5528,
      "ĠØ§ÙĦØ¹": 5529,
      "ĠSup": 5530,
      "Ġà¤¥à¤ª": 5531,
      "Ġà¦·": 5532,
      "Ġprof": 5533,
      "à¦ľà¦ķ": 5534,
      "Ġà²®à²°": 5535,
      "à¦ľà¦¯": 5536,
      "ĠÚ©ÛĮÙĪÙĨÚ©Ûģ": 5537,
      "Ġmight": 5538,
      "Ġà®ħà®Ļ": 5539,
      "Ġà¤ĩà¤¤à¤°": 5540,
      "Ġeas": 5541,
      "ĠØ´Ø¹": 5542,
      "ruct": 5543,
      "àªķàªµ": 5544,
      "Ġà¨ħà¨ª": 5545,
      "ĠÙħÙĪÙĤ": 5546,
      "Ġpay": 5547,
      "Ġàª¦àª°àª®": 5548,
      "urther": 5549,
      "ĠØ§ÙħØ±ÛĮÚ©": 5550,
      "Ġà¬¸à¬¤": 5551,
      "ĠÙħÙĪÙĦ": 5552,
      "nce": 5553,
      "àª®àª®": 5554,
      "the": 5555,
      "year": 5556,
      "à¤£à¤ķ": 5557,
      "Ġdata": 5558,
      "Ġscore": 5559,
      "à´°à´¶": 5560,
      "Ġà²ĩà²¤": 5561,
      "Ġà¤¹à¤²": 5562,
      "ĠÙħØ®ØªÙĦÙģ": 5563,
      "Ø¨ÙĪ": 5564,
      "Ġà¦ļà§°": 5565,
      "à¦ıà¦ĩ": 5566,
      "Ġà¦Ĩà¦§": 5567,
      "ĠØ¨Ø®": 5568,
      "à©ľà¨ķ": 5569,
      "Ġay": 5570,
      "Ġformer": 5571,
      "ĠÙ¾Ø±ÙĪ": 5572,
      "eb": 5573,
      "por": 5574,
      "Ġevent": 5575,
      "Ġve": 5576,
      "Ġbro": 5577,
      "à¤°à¤¥": 5578,
      "à´°à´µàµ¼à´¤": 5579,
      "arch": 5580,
      "ĠØªÙģ": 5581,
      "ĠGod": 5582,
      "Ġsocial": 5583,
      "ih": 5584,
      "ĠÙ¾ÙĪØ±": 5585,
      "à¨¡à¨°": 5586,
      "ustom": 5587,
      "à§°à¦¹à¦£": 5588,
      "iqu": 5589,
      "ret": 5590,
      "à²¯à²µà²°": 5591,
      "ÛĮÙĨÛĴ": 5592,
      "ready": 5593,
      "Ġthings": 5594,
      "àª³àª¨": 5595,
      "à¤¦à¤ª": 5596,
      "adesh": 5597,
      "à²¶à²¦": 5598,
      "Ġà¥§à¥®": 5599,
      "Ø¢Ù¾": 5600,
      "ĠØ¯ÙĪØ±Ø§ÙĨ": 5601,
      "à´¬à´¨": 5602,
      "ĠState": 5603,
      "à¤£à¤¨": 5604,
      "erv": 5605,
      "Ġà°µà°¦": 5606,
      "Ġà¤ħà¤ªà¤°": 5607,
      "à¬¨à¬¸": 5608,
      "à¤ľà¤µ": 5609,
      "ÚĨÛĮ": 5610,
      "ĠWith": 5611,
      "ĠàŃ¬": 5612,
      "Ġà¦ĵà¦ĩ": 5613,
      "Ġà¤īà¤¡": 5614,
      "Ġà¤ħà¤ĺ": 5615,
      "à¥Ģ'": 5616,
      "ÙĤØ±": 5617,
      "Ġ--": 5618,
      "Ġàª¸àª®àªľ": 5619,
      "à®ªà®©": 5620,
      "urity": 5621,
      "lish": 5622,
      "Ġà¬¬à¬¢": 5623,
      "à¯į'": 5624,
      "Ġà¬®à¬£": 5625,
      "Ġàªµàªļ": 5626,
      "à¥¤\\": 5627,
      "Ġsix": 5628,
      "Ġà¦ħà§±à¦¸": 5629,
      "Ġalong": 5630,
      "à´µà´¦": 5631,
      "ament": 5632,
      "uthor": 5633,
      "ches": 5634,
      "Ġà°ªà°²": 5635,
      "Ġà¬¦à¬°": 5636,
      "ĠPol": 5637,
      "Ġvideo": 5638,
      "ĠÚĨÙĦ": 5639,
      "à´°à´ŀ": 5640,
      "Ġben": 5641,
      "Ġà³": 5642,
      "à¬°à¬§": 5643,
      "Ġgroup": 5644,
      "âĢľ": 5645,
      "à¤ªà¤Ł": 5646,
      "Ġà¬ıà¬ªà¬°": 5647,
      "Ġà¦ħà¦¸à¦®à§°": 5648,
      "à´±à´ķ": 5649,
      "Ġà°ħà°¤à°¨": 5650,
      "à¬Ńà¬°": 5651,
      "à´±à´Ļ": 5652,
      "Ġlatest": 5653,
      "lim": 5654,
      "ĠÚ¯ÙģØª": 5655,
      "Ġview": 5656,
      "uh": 5657,
      "ÛĮØŃ": 5658,
      "Ġbook": 5659,
      "à²¡à²¦": 5660,
      "Ġà§®": 5661,
      "à´·àµ»": 5662,
      "ĠØ§ÙĦØ³": 5663,
      "gy": 5664,
      "ĠÚ¯Ú¾": 5665,
      "ĠØ¨ÛģØªØ±": 5666,
      "à¦¸à¦ª": 5667,
      "Ġà¦ıà¦ĩà¦¬": 5668,
      "Ġmillion": 5669,
      "ĠØ®ÛĮØ§ÙĦ": 5670,
      "³Û": 5671,
      "Ġà®¨à®²": 5672,
      "Ġà¤īà¤Ń": 5673,
      "à¦ļà¦¤": 5674,
      "ĠØŃØ±": 5675,
      "à°ķà°¨": 5676,
      "Ġà¤Ńà¤Ĺ": 5677,
      "àªĹàª²": 5678,
      "Ġà¦¬à¦ľ": 5679,
      "Ġorgan": 5680,
      "à¬¥à¬°": 5681,
      "à¨ħà¨ķà¨¤": 5682,
      "àª³àªķ": 5683,
      "Ġpolit": 5684,
      "ĠDh": 5685,
      "ĠÚĪØ§ÙĦ": 5686,
      "Ġà¦¸à¦¦à¦¸": 5687,
      "meric": 5688,
      "àª¯àª²": 5689,
      "à¦¾'": 5690,
      "à¦°à¦ĩ": 5691,
      "inal": 5692,
      "Ġà®¤à®µ": 5693,
      "àªĹàªµ": 5694,
      "à´Ĺà´®": 5695,
      "lection": 5696,
      "Ġspe": 5697,
      "à¦°à¦¹à¦£": 5698,
      "ĠÙĤØ±Ø¢ÙĨ": 5699,
      "ma": 5700,
      "Ø¬ÙĪ": 5701,
      "Ġconst": 5702,
      "ua": 5703,
      "Ġà¤¶à¤¨": 5704,
      "Ġà¨¤à¨ķ": 5705,
      "à¨ħà¨¤": 5706,
      "Ġtold": 5707,
      "Ø§Ø±ÛĮØ®": 5708,
      "ĠØ¨ØªØ§": 5709,
      "à´ľà´¨": 5710,
      "ÙħÛĮØª": 5711,
      "?\"": 5712,
      "à¤ªà¤ļ": 5713,
      "stand": 5714,
      "Ø§Ø¨Øª": 5715,
      "Ġà¦¬à¦Ľà§°": 5716,
      "Ġtem": 5717,
      "à¥¦à¥¦": 5718,
      "à¦ķà¦¨": 5719,
      "ider": 5720,
      "orts": 5721,
      "Ġà¤®à¤¤à¤¦": 5722,
      "à²²à²¨": 5723,
      "ĠÙħØ«": 5724,
      "à¤ĺà¤Łà¤¨": 5725,
      "à¦łà¦¨": 5726,
      "ĠØ¬ÛĮØ³ÛĴ": 5727,
      "Ġyang": 5728,
      "Ġà´ħà´µà´¸": 5729,
      "99": 5730,
      "à¨¨à¨¸": 5731,
      "ajor": 5732,
      "Ġrecord": 5733,
      "ena": 5734,
      "Ġà¦Ĩà¦ĩà¦¨": 5735,
      "Ġà¬¸à¬Ń": 5736,
      "Ġà¦ľà¦²": 5737,
      "Ġà¥§à¥ª": 5738,
      "Ġà¦®à§°": 5739,
      "Ġà²Ĩà²ķ": 5740,
      "Ġamong": 5741,
      "à¤°à¤£à¤®": 5742,
      "à²®à²Ĺ": 5743,
      "Ġà²ħà²¡": 5744,
      "Ġalready": 5745,
      "Ġleft": 5746,
      "akh": 5747,
      "Ġàªīàª¦": 5748,
      "Ġball": 5749,
      "ĠØ²ÙħÛĮÙĨ": 5750,
      "Ġorder": 5751,
      "à°Ĳ": 5752,
      "ĠCent": 5753,
      "ĠÙĨÙħØ§Ø²": 5754,
      "à°°à°¶": 5755,
      "à¨²à¨¬": 5756,
      "Ġni": 5757,
      "ĠÛģØ§ØªÚ¾": 5758,
      "Ø§Ø³ÛĮ": 5759,
      "à¦°à¦ª": 5760,
      "ĠAb": 5761,
      "Ġà®İà®£": 5762,
      "ĠÛĮÙĤ": 5763,
      "à¥Ģ)": 5764,
      "à°¡à°¨": 5765,
      "Ġdesign": 5766,
      "Ø±Ø§": 5767,
      "Ġà®ļà®Ł": 5768,
      "à²°à²¯": 5769,
      "Ġmove": 5770,
      "ÙģÛģ": 5771,
      "Ġàªħàª¸": 5772,
      "ept": 5773,
      "à²°à²µà²¨": 5774,
      "ĠÙĨØ³": 5775,
      "à¦ķà¦¦": 5776,
      "à¦¸à¦¹": 5777,
      "Ġmust": 5778,
      "ember": 5779,
      "Ġàªł": 5780,
      "ĠMah": 5781,
      "Ġà¤¤à¤®": 5782,
      "orn": 5783,
      "ĠÙħØªØ¹ÙĦÙĤ": 5784,
      "à¦ĩà¦°": 5785,
      "ional": 5786,
      "à¦ľà¦¨à¦ķ": 5787,
      "Ø§ÙĨØ¯": 5788,
      "Ġà¬ħà¬ª": 5789,
      "ÙĬ": 5790,
      "Ġà¦ħà¦Ĺ": 5791,
      "ĠØŃØ¯ÛĮØ«": 5792,
      "Ġà¨¸à¨®à¨Ŀ": 5793,
      "Ø¬ÙĨ": 5794,
      "ØŃØ¶": 5795,
      "Ġproject": 5796,
      "àªľàª¬": 5797,
      "Ġcricket": 5798,
      "ĠØ¨Ø±Ø§ÛĮ": 5799,
      "Ġà°ĺ": 5800,
      "Ġà®ħà®³à®µ": 5801,
      "à¦£à¦¤": 5802,
      "Ġà¦Ĩà¦°à¦ĵ": 5803,
      "à¦¨à¦ĵ": 5804,
      "ances": 5805,
      "Ġà¤ĳà¤«": 5806,
      "à¤°à¤µà¤°": 5807,
      "Ġà¥§à¥©": 5808,
      "à¨¸à¨¥": 5809,
      "ĠÚ©ÛģØªÛĴ": 5810,
      "oney": 5811,
      "ÛĮØ¨": 5812,
      "Ġgive": 5813,
      "à´±à´ª": 5814,
      "Ġà¥¤\\": 5815,
      "Ġà´İà´Ł": 5816,
      "Ġà¤¸à¤®à¤Ŀ": 5817,
      "Ġà¬Ĺà¬¤": 5818,
      "ÛĮØ§Ø¯": 5819,
      "Ġbeh": 5820,
      "Ġattack": 5821,
      "ĠàªĨàª¤": 5822,
      "ĠØ¢ÛĮØ§": 5823,
      "à¨ĸà¨°": 5824,
      "à´Łà´®": 5825,
      "Ġà¨¬à¨ļ": 5826,
      "Ġà¤ħà¤¡": 5827,
      "Ġà²®à²ķ": 5828,
      "Ġà®ħà®³": 5829,
      "à¤ªà¤µ": 5830,
      "à´¤à´ª": 5831,
      "à¦¬à¦¦": 5832,
      "Ġà¦¦à¦ķ": 5833,
      "Ġà¬ıà¬ł": 5834,
      "pped": 5835,
      "ĠMay": 5836,
      "à®³à®©": 5837,
      "Ġà¬¸à¬Ļ": 5838,
      "Ġfr": 5839,
      "Ø¡": 5840,
      "Ġà¬¨à¬¥": 5841,
      "ĠØ¢Ø²": 5842,
      "Ġval": 5843,
      "ogle": 5844,
      "Ø§ÙĦØ¨": 5845,
      "ĠWhat": 5846,
      "Ġà¤°à¤¨": 5847,
      "à°¦à°Ł": 5848,
      "à®¾,": 5849,
      "Ġlove": 5850,
      "Ġàª¤àª®àª¨": 5851,
      "à®²à®µ": 5852,
      "ĠÙĪØ§ÙĦØ§": 5853,
      "à¦¯à¦¬à¦¹": 5854,
      "ĠSe": 5855,
      "ued": 5856,
      "ize": 5857,
      "à¦·à§°": 5858,
      "Ġ2017": 5859,
      "iting": 5860,
      "ĠÙĨÙģ": 5861,
      "Ġà®ĩà®Ł": 5862,
      "Ġupd": 5863,
      "ĠØŃÚ©Ùħ": 5864,
      "IN": 5865,
      "ĠCup": 5866,
      "ĠØ°Ø±ÛĮ": 5867,
      "Ġà¤¨à¤Ĺà¤°à¤ª": 5868,
      "à¤µà¤¡à¤£": 5869,
      "ĠÚ©ÙĪØ´Ø´": 5870,
      "à²¤à²ķ": 5871,
      "à¤Łà¤¸": 5872,
      "ĠAust": 5873,
      "ĠØ´Ú©": 5874,
      "Ø§ÙĤÛĮ": 5875,
      "Ġclaim": 5876,
      "àª²àªµ": 5877,
      "à´·à´¤": 5878,
      "à²¶à²ķ": 5879,
      "Ġà¤¸à¤¹à¤ķ": 5880,
      "icle": 5881,
      "Ø§ÙħÛģ": 5882,
      "Ġà§°à¦ľ": 5883,
      "Ġbecome": 5884,
      "Ġri": 5885,
      "à¦²à¦Ĺ": 5886,
      "ĠàªĽàª¤": 5887,
      "osp": 5888,
      "à²¦à²µà²°": 5889,
      "ØªÙĪ": 5890,
      "itions": 5891,
      "Ġhum": 5892,
      "Ù¹Ø³": 5893,
      "Ġà´īà´¤": 5894,
      "Ġlet": 5895,
      "ĠØ§Ù¾ÙĨØ§": 5896,
      "CC": 5897,
      "à¤§à¤¸": 5898,
      "itive": 5899,
      "Ġname": 5900,
      "Ġ+": 5901,
      "à´¯à´²": 5902,
      "à°ľà°ķ": 5903,
      "Ġair": 5904,
      "ĠØ³Ú©ØªÛĴ": 5905,
      "Ø³Ø±ÛĮ": 5906,
      "Ġty": 5907,
      "à¤¿.": 5908,
      "Ú¯ÙĪ": 5909,
      "Ġà²ħà²µà²¨": 5910,
      "ched": 5911,
      "ĠPak": 5912,
      "thing": 5913,
      "à¬°à¬¹à¬£": 5914,
      "à¦°à¦²": 5915,
      "ĠØ³ÛĮØ¯": 5916,
      "ily": 5917,
      "Ġà¬īà¬ł": 5918,
      "Ġoper": 5919,
      "Ġà¤ıà¤¤": 5920,
      "Ġà¬¹à¬ľ": 5921,
      "Ġproble": 5922,
      "aa": 5923,
      "àªķàª¤": 5924,
      "ified": 5925,
      "aring": 5926,
      "Ġsing": 5927,
      "à¬®à¬²": 5928,
      "Ġwater": 5929,
      "ĠàªĨàª¶": 5930,
      "Ġà²ħà²®": 5931,
      "Ġà¨ķà¨°à¨µ": 5932,
      "Ġà°ĩà°²": 5933,
      "à¤¤à¤°à¤£": 5934,
      "à¦®à¦§": 5935,
      "à¬·à¬ķ": 5936,
      "Ġalways": 5937,
      "à®¾?": 5938,
      "Ġà´ªà´¦": 5939,
      "à´§à´¨": 5940,
      "Ġà¨ļà¨²": 5941,
      "vious": 5942,
      "Ġpast": 5943,
      "ential": 5944,
      "à´¯à´®à´¨": 5945,
      "ically": 5946,
      "Ø§Ø¦Ø²": 5947,
      "Ġà¦Ĩà§°à¦ķ": 5948,
      "Ġplan": 5949,
      "Ġà¤¸à¤¹à¤Ń": 5950,
      "Ġà¥¨à¥«": 5951,
      "ĠÙĦÚĳ": 5952,
      "à¤°à¤°": 5953,
      "à®°à®°": 5954,
      "ĠØ§ØŃÙħØ¯": 5955,
      "à¦¿à¦ĥ": 5956,
      "AT": 5957,
      "Ġà²ķà²Ł": 5958,
      "Ġà®īà®¤": 5959,
      "Ġà¤ħà¤Ĺà¤°": 5960,
      "ĠBh": 5961,
      "Ġà¤ķà¤¶": 5962,
      "à²Łà²¦": 5963,
      "à¨µà¨²": 5964,
      "ĠàŃŃ": 5965,
      "à¤·à¤§": 5966,
      "Ġstory": 5967,
      "Ġà¤Ĩà¤īà¤¨": 5968,
      "Ġà¨¸à¨¤": 5969,
      "à°²à°µ": 5970,
      "à¤¤à¤¥": 5971,
      "ĠØ¢Ú¯": 5972,
      "Ġà°ľà°¨": 5973,
      ".\\": 5974,
      "à¤µà¤¹": 5975,
      "à°¾?": 5976,
      "à´±à´¯": 5977,
      "à¬Ĺà¬¡": 5978,
      "Ġàª¶àª¹": 5979,
      "Ø±Ø§Øª": 5980,
      "Ġpur": 5981,
      "Ġàªħàªµ": 5982,
      "Ø§ÙħØ§Øª": 5983,
      "Ġà¦Ī": 5984,
      "Ġplayed": 5985,
      "Ġà¤¸à¤§": 5986,
      "used": 5987,
      "à¦īà¦ľ": 5988,
      "à§°à¦¶": 5989,
      "Ġà¨ħà¨®à¨°": 5990,
      "à¬Ńà¬¬": 5991,
      "aut": 5992,
      "Ġà¦ħà¦¥": 5993,
      "ØªÛĮØ§Ø±": 5994,
      "Ġà´īà´³": 5995,
      "ĠØ§ÛĮØ³": 5996,
      "ĠInst": 5997,
      "ti": 5998,
      "Ġà¤¸à¤«": 5999,
      "à¬¸à¬¬": 6000,
      "Ġà¦īà§İ": 6001,
      "Ġindust": 6002,
      "oo": 6003,
      "à¦ļà¦ķ": 6004,
      "ĠÙĤØ§ÙĨ": 6005,
      "Ġà¦ĩà¦¹": 6006,
      "Ø§ÙĪ": 6007,
      "àª°àªŃ": 6008,
      "ĠØ¹Ø¨Ø¯Ø§ÙĦ": 6009,
      "ÛĮØ±Ø§ÙĨ": 6010,
      "à¨°à¨ª": 6011,
      "à®±à®µ": 6012,
      "ĠØ¨ÙĪØ¯": 6013,
      "Ġà°µà°²": 6014,
      "ĠØ²Ø¨Ø§ÙĨ": 6015,
      "à¦Ĩà¦®": 6016,
      "ĠØ¨ÚĳÛĮ": 6017,
      "Ġfinal": 6018,
      "Ġà¬ħà¬ŀ": 6019,
      "Ġinformation": 6020,
      "ĠØ¬ÙĨÚ¯": 6021,
      "Ġest": 6022,
      "Ġà¤¯à¤¸à¤ķ": 6023,
      "Ġsever": 6024,
      "Ġcalled": 6025,
      "Ġà°Ĺà°¤": 6026,
      "à®²à®°": 6027,
      "à¤Ńà¤Ĺ": 6028,
      "Ġà¦ħà¦«": 6029,
      "Ġnear": 6030,
      "Ġà¬ļà¬³": 6031,
      "ĠØ¯ÛĮÙĨÛĴ": 6032,
      "mission": 6033,
      "à¤³à¤£": 6034,
      "Ġlaun": 6035,
      "ini": 6036,
      "Ġà¤ıà¤īà¤Ł": 6037,
      "Ġà¦ľà¦®": 6038,
      "Ġtry": 6039,
      "Ġ45": 6040,
      "Äģ": 6041,
      "Êī": 6042,
      "lished": 6043,
      "à¦¤à¦²": 6044,
      "à´²à´¨": 6045,
      "Ġka": 6046,
      "istrict": 6047,
      "ior": 6048,
      "Ġland": 6049,
      "Ġà¤°à¤¹à¤¤": 6050,
      "Ġà°ħà°µà°ķ": 6051,
      "Ġbelie": 6052,
      "!!": 6053,
      "à°®à°²": 6054,
      "Ġavailable": 6055,
      "ĠØ§Ø·": 6056,
      "à¦·à¦®": 6057,
      "ĠØ¬Ú¯Ûģ": 6058,
      "Ġà§¯": 6059,
      "Ø§Ú©Ù¹Ø±": 6060,
      "ones": 6061,
      "à´²à´®": 6062,
      "Ġà¬¸à¬ķ": 6063,
      "ĠØ¹ÙĨÛģ": 6064,
      "Ġà¬Ĩà¬£": 6065,
      "lam": 6066,
      "Ġà¦ķà¦¨": 6067,
      "à®ķà®µà®²": 6068,
      "Ġ80": 6069,
      "Ġfeel": 6070,
      "Ġà°§à°°": 6071,
      "ĠOne": 6072,
      "ĠØ§ÛĮÙħ": 6073,
      "Ã¡": 6074,
      "à°Łà°®": 6075,
      "Ø§Ø¯Øª": 6076,
      "Ġfore": 6077,
      "Ġmet": 6078,
      "ĠØ¬Ø§Ø¦ÛĮÚº": 6079,
      "ÙĨØ¯ÛĮ": 6080,
      "à´ªà´£": 6081,
      "Ġà´µà´³à´°": 6082,
      "à´¨à´²": 6083,
      "uro": 6084,
      "Ġfriend": 6085,
      "à¤«à¤¤": 6086,
      "ived": 6087,
      "à®µà®ķ": 6088,
      "Ġà¦ĩà¦®": 6089,
      "Ġà¥§à¥¬": 6090,
      "Ġunt": 6091,
      "ID": 6092,
      "à´±à´±": 6093,
      "Ġà®īà®Ł": 6094,
      "ĠàŃŁ": 6095,
      "ton": 6096,
      "à®ļà®²": 6097,
      "à¤Ĺà¤¡": 6098,
      "Ġhist": 6099,
      "Ġà¦īà§İà¦¸": 6100,
      "ĠØ¬Ø¨Ú©Ûģ": 6101,
      "à´·à´®": 6102,
      "à±Īà°Ĥ": 6103,
      "à¤¨à¤¹": 6104,
      "ĠØ¬ÛģØ§Úº": 6105,
      "WE": 6106,
      "rist": 6107,
      "Ġà¨ķà¨¦": 6108,
      "à´Ĳ": 6109,
      "Ġcustom": 6110,
      "ÙĪØ¯ÛĮ": 6111,
      "Ġà¦īà¦ªà¦ľ": 6112,
      "ining": 6113,
      "à°¯à°¸": 6114,
      "ĠØ§ÙĦÙģ": 6115,
      "à¦®à¦Ĺ": 6116,
      "à¦¯à§±": 6117,
      "ories": 6118,
      "Ġà¤īà¤¹": 6119,
      "à´°à´³": 6120,
      "Ġdist": 6121,
      "ampions": 6122,
      "Ġ197": 6123,
      "à¤¡à¤µ": 6124,
      "Ġseem": 6125,
      "ĠàŃ§àŃ¯": 6126,
      "Ġà¤£": 6127,
      "Ġà²¹à²°": 6128,
      "à³Ĥ,": 6129,
      "à¦¨à¦ª": 6130,
      "à¨ķà©ľ": 6131,
      "Ġdri": 6132,
      "Ġmo": 6133,
      "ĠCon": 6134,
      "21": 6135,
      "Ġhal": 6136,
      "Ġà¤Ńà¤Ĺà¤µ": 6137,
      "ĠTest": 6138,
      "ĠØ´Ø¯Ûģ": 6139,
      "Ġreason": 6140,
      "Ġà´ªà´ķ": 6141,
      "23": 6142,
      "Ġà°¤à°²": 6143,
      "Ġà®¤à®¯": 6144,
      "Ġusing": 6145,
      "cent": 6146,
      "Ġfun": 6147,
      "ĠØ¬Ø§Ûĵ": 6148,
      "Ġruns": 6149,
      "Ġà´ªà´£": 6150,
      "Ġ2016": 6151,
      "à²¾.": 6152,
      "à¤¡à¤¨": 6153,
      "Ġseveral": 6154,
      "Ø±Ø¨": 6155,
      "Ġwa": 6156,
      "à¦¥à¦ķ": 6157,
      "à¤ķà¤¶": 6158,
      "à©ĩ.": 6159,
      "Ġwrit": 6160,
      "Ġàªªàª¸": 6161,
      "Ġàªľàª®": 6162,
      "ĠàªĨàª§": 6163,
      "Ġà°Ĩà°§": 6164,
      "Ġâ": 6165,
      "Ġcourt": 6166,
      "Ġhard": 6167,
      "\".": 6168,
      "ÚĪØ±": 6169,
      "ĠØ¶Ø±ÙĪØ±Øª": 6170,
      "25": 6171,
      "Ã«": 6172,
      "Ġreally": 6173,
      "Ġà¤ľà¤µ": 6174,
      "Ġmus": 6175,
      "ĠCl": 6176,
      "ÙĪØ§Ø²": 6177,
      "Ġà´ªà´²": 6178,
      "Ġ36": 6179,
      "Ø¬Ø¯": 6180,
      "ĠØ¬Ø§ØªÛĴ": 6181,
      "Ġà¬ªà¬¹à¬ŀ": 6182,
      "Ú¯Ø±ÛĮ": 6183,
      "à¤°à¤ķà¤°": 6184,
      "à¨¹à¨®à¨£": 6185,
      "ĠØ¢Ø¨Ø§Ø¯": 6186,
      "Ú©Ùħ": 6187,
      "à°Ĺà°®": 6188,
      "à¨¨à¨²": 6189,
      "Ġà¬ªà¬¤": 6190,
      "Ġhig": 6191,
      "Ġbuild": 6192,
      "JP": 6193,
      "ience": 6194,
      "à¤ĩà¤ķ": 6195,
      "augh": 6196,
      "ony": 6197,
      "Ġà¤ĸà¤¡": 6198,
      "àµ¼à´µ": 6199,
      "Ġà¦īà¦ªà¦°": 6200,
      "ĠØ§ÙĪÙĦ": 6201,
      "àªīàª¨": 6202,
      "Ġàª¬àª¦": 6203,
      "à®ªà®µà®°": 6204,
      "à¨²à¨µ": 6205,
      "ĠAmeric": 6206,
      "àµ»à´¡": 6207,
      "iver": 6208,
      "ĠØ§Ø¶": 6209,
      "Ġfans": 6210,
      "ĠØªØ§Ø±ÛĮØ®": 6211,
      "à¬¶à¬ķ": 6212,
      "Ġparty": 6213,
      "àª¾àªĤ.": 6214,
      "Ġà¤ļà¤¨": 6215,
      "ĠØ°Ú©Ø±": 6216,
      "Ġàªķàª®": 6217,
      "duct": 6218,
      "à¦²à¦®": 6219,
      "Ġcond": 6220,
      "à¥ī.": 6221,
      "à²ĸà²²": 6222,
      "Ġà°¸à°Ń": 6223,
      "Ġà®Ĩà®ļ": 6224,
      "à°®à°¤": 6225,
      "Ġmajor": 6226,
      "ami": 6227,
      "Ġà¤Łà¤ķ": 6228,
      "Ġ2014": 6229,
      "Ġà®ķà®¤": 6230,
      "ÙĪÙĦÛĮØ³": 6231,
      "à§°à¦¥à¦®": 6232,
      "ots": 6233,
      "ey": 6234,
      "Ġà¤ªà¤ł": 6235,
      "Ġà²¤à²²": 6236,
      "Ø§ÛģÛĮ": 6237,
      "ending": 6238,
      "Ġstarted": 6239,
      "Ú©Ø§ÙĨ": 6240,
      "Ġnever": 6241,
      "Ġà¦Ĩà¦¨à¦¨": 6242,
      "ÛģØ§": 6243,
      "àª¶àª®": 6244,
      "ĠØ¢Ø³": 6245,
      "Ø§Ú©Ûģ": 6246,
      "à¬«à¬³": 6247,
      "ev": 6248,
      "à³ģà²ĥ": 6249,
      "ination": 6250,
      "à®ªà®ķ": 6251,
      "ĠàªŁàªķ": 6252,
      "à´Ĺà´Ļ": 6253,
      "ĠàªŃàª°": 6254,
      "PL": 6255,
      "ps": 6256,
      "Ø¦ÛĮÚº": 6257,
      "àµ¼à´ļ": 6258,
      "Ġeng": 6259,
      "Ġà¨ħà¨¦": 6260,
      "Ġequ": 6261,
      "Ùİ": 6262,
      "à¨¬à¨ķ": 6263,
      "Ġà¦ĩà¦ī": 6264,
      "Ġcomes": 6265,
      "à²ķà²Ł": 6266,
      "Ġà®µà®Ł": 6267,
      "àª£àª¨": 6268,
      "ĠÙħÛĮØ±ÛĮ": 6269,
      "à§°à¦²": 6270,
      "Ġà¤ħà¤ĸ": 6271,
      "Ġà®¤à®©à®¤": 6272,
      "ongress": 6273,
      "Ġwent": 6274,
      "Ġà²¬à²¦à²²": 6275,
      "àª°àªľ": 6276,
      "Ġcompet": 6277,
      "ger": 6278,
      "Ø³ÙĨ": 6279,
      "à²ľà²ķ": 6280,
      "ĠØµÙģ": 6281,
      "Ġpresent": 6282,
      "Ġà¦ıà¦®": 6283,
      "ĠØ¯Ø³Øª": 6284,
      "Ġà®¨à®Łà®¨": 6285,
      "app": 6286,
      "à°Ī": 6287,
      "ature": 6288,
      "Ġà²¹à²²à²µ": 6289,
      "ĠÙĪØ§ÙĤØ¹": 6290,
      "Ġable": 6291,
      "à²¤à²²": 6292,
      "Ġà°İà°µà°°": 6293,
      "à§°à¦ļ": 6294,
      "iti": 6295,
      "ÚĪÛĮØ§": 6296,
      "Ġà¬ªà¬¢": 6297,
      "RI": 6298,
      "à««": 6299,
      "Ġà¦ħà¦®": 6300,
      "à¦§à¦¤": 6301,
      "ĠÚĨÙĨØ¯": 6302,
      "à²·à²¨": 6303,
      "Ġap": 6304,
      "Ġà¤ĩà¤ļ": 6305,
      "go": 6306,
      "à°µà°®": 6307,
      "ead": 6308,
      "Ġhop": 6309,
      "Ġà´®à´²à´¯": 6310,
      "à¬°à¬«": 6311,
      "Ġà¤ıà¤ķà¤¤": 6312,
      "Ġ70": 6313,
      "ĠØ§ÙĨØ³Ø§ÙĨ": 6314,
      "à¬¹à¬¨": 6315,
      "àª£àªµ": 6316,
      "à§°à¦¨": 6317,
      "ĠÙĤØ³Ùħ": 6318,
      "à¦¾à¦ĥ": 6319,
      "à¤ķà¤¦": 6320,
      "ĠØ§Ø¸": 6321,
      "ona": 6322,
      "à´±à´¨": 6323,
      "ele": 6324,
      "à¦Łà¦¤": 6325,
      "Ġàª¸àªµ": 6326,
      "Ġgames": 6327,
      "à¨Īà¨Ł": 6328,
      "ĠÙħØ¶": 6329,
      "àª¯àª¦": 6330,
      "Ã£": 6331,
      "Ġà§¨à§¦à§§à§": 6332,
      "ĠAustral": 6333,
      "Ġtimes": 6334,
      "Ġpress": 6335,
      "à¦¹à¦ķ": 6336,
      "à²°à²¬": 6337,
      "à²ķà²¨": 6338,
      "Ġà¬¹à¬¸": 6339,
      "ended": 6340,
      "Ġà²īà²³": 6341,
      "à¤°à¤ªà¤Ł": 6342,
      "Ġimpro": 6343,
      "Ġdeb": 6344,
      "Ġà¤ªà¤Ł": 6345,
      "ila": 6346,
      "ĠØŃÙĪØ§ÙĦ": 6347,
      "à¨¹à¨¤": 6348,
      "Ġà¨µà¨²": 6349,
      "Ġhu": 6350,
      "ĠàªĹàªĪ": 6351,
      "Ġemploy": 6352,
      "à²°à²ķà²°à²£": 6353,
      "ĠAf": 6354,
      "Ġcost": 6355,
      "Ġà°ķà°¥": 6356,
      "àª³àª¤": 6357,
      "à°¡à°Ĺ": 6358,
      "Ġreported": 6359,
      "of": 6360,
      "à¨¸à¨Łà¨°": 6361,
      "à¥Ĥà¤ģ": 6362,
      "ĠÚ©ÛĮÙĪÚº": 6363,
      "Ġexpl": 6364,
      "àª°àª¥àª®": 6365,
      "à¤¦à¤Ľ": 6366,
      "ĠJan": 6367,
      "ĠØ¨ÚĳÛĴ": 6368,
      "à«ĩ?": 6369,
      "ĠPh": 6370,
      "Ġà´ĵà´«": 6371,
      "à¤Ĺà¤ª": 6372,
      "Ġexperience": 6373,
      "àª°àª¬": 6374,
      "à¤¥à¤µ": 6375,
      "Ġà´µà´´": 6376,
      "Ù¹ÛĴ": 6377,
      "Ġà¦ıà§°": 6378,
      "ĠàªĨàª¨": 6379,
      "à´ľà´¯": 6380,
      "Ġà¨Ī": 6381,
      "à®ķà®£": 6382,
      "Ú¯Ø²": 6383,
      "Ġnet": 6384,
      "à¬ļà¬³à¬°": 6385,
      "Ġà¦ĩà¦¸à¦²": 6386,
      "ĠÙĨØ¨ÛĮ": 6387,
      "ĠØ¨Ø§Ø²": 6388,
      "Ġet": 6389,
      "rug": 6390,
      "rs": 6391,
      "Ġbas": 6392,
      "ĠØ´Ùħ": 6393,
      "ĠØ·Ø±ÛĮ": 6394,
      "Ġfull": 6395,
      "Ġà´ħà´¸": 6396,
      "ĠCourt": 6397,
      "ĠTo": 6398,
      "ita": 6399,
      "à¤¯à¤¯à¤¨": 6400,
      "Ġà¦¨à¦®": 6401,
      "ĠØ¯ÛĮØªÛĴ": 6402,
      "ley": 6403,
      "ĠWhile": 6404,
      "ĠØ¨ØªØ§ÛĮØ§": 6405,
      "Ġà¥§à¥Ń": 6406,
      "Ġà¬¢": 6407,
      "Ġà¤¯à¤ľ": 6408,
      "ĠAct": 6409,
      "Ġà¦ļà¦¨": 6410,
      "ĠØ±Ø¶ÛĮ": 6411,
      "uture": 6412,
      "à³¦": 6413,
      "Ġà¦ıà¦ĸ": 6414,
      "Ġthird": 6415,
      "ĠÚĨØ§Ø±": 6416,
      "à¦Ĺà¦¨": 6417,
      "Ġyet": 6418,
      "Ø¸ÛĮÙħ": 6419,
      "à¤ħà¤ĺ": 6420,
      "Ġmonths": 6421,
      "ÙģØ¸": 6422,
      "ÚĳØ§": 6423,
      "side": 6424,
      "ww": 6425,
      "Ġà¦ªà¦¶": 6426,
      "Ġà¤Ĩà¤ı": 6427,
      "àª²àªķ": 6428,
      "Ġà¦Ńà§°": 6429,
      "Ġrole": 6430,
      "à¦¨à¦®à¦¨": 6431,
      "à´¤à´¯": 6432,
      "let": 6433,
      "Ġà®İà®ª": 6434,
      "ĠØ®Ø§Øµ": 6435,
      "Ù¹Ø§": 6436,
      "Ġà¤ªà¤Łà¤ķ": 6437,
      "Ġà²¨à²Ł": 6438,
      "à¬¼àŃĩ": 6439,
      "Ġà¦¦à¦°": 6440,
      "ĠØ¯Ùģ": 6441,
      "Ġàª²àªĸ": 6442,
      "Ġshort": 6443,
      "à¬®à¬£": 6444,
      "àªĸàª°": 6445,
      "Ġfood": 6446,
      "Ġà®īà®¯": 6447,
      "cl": 6448,
      "Ġà¤¶à¤¤": 6449,
      "Ġà®¨à®ķà®°": 6450,
      "Ġà®¤à®ķà®µà®²": 6451,
      "Ġmil": 6452,
      "ĠÙ¾Ø§ÙĨÛĮ": 6453,
      "Ġàªľàª¤": 6454,
      "kan": 6455,
      "Ġfree": 6456,
      "Ġdetail": 6457,
      "yle": 6458,
      "ĠØªØ³": 6459,
      "Ġeconom": 6460,
      "Ġà¦ĺà¦°": 6461,
      "à¤¤à¤°à¤®": 6462,
      "àª¦àª®": 6463,
      "ĠÙħÙģ": 6464,
      "à¤¤à¤¹": 6465,
      "à²£à²µ": 6466,
      "ĠØ§ÛĮØ³ÛĮ": 6467,
      "à¬ľà¬£": 6468,
      "ĠØ®ÙĪØ§Ûģ": 6469,
      "Ġà´ĩà´µ": 6470,
      "emb": 6471,
      "ards": 6472,
      "Ġà´¶à´°": 6473,
      "lier": 6474,
      "rem": 6475,
      "à²Łà²µ": 6476,
      "Ġà¥¨à¥¦à¥§": 6477,
      "ĠGoogle": 6478,
      "Ġinj": 6479,
      "Ø§ÙĨØ³": 6480,
      "Ġà¨ħà¨Ĺ": 6481,
      "Ġà®ĩà®±": 6482,
      "à¤¯à¤¸à¤®": 6483,
      "Ġà¦¶à¦°": 6484,
      "ĠØ§Ø®ØªÛĮØ§Ø±": 6485,
      "ĠØ¹ÙĪØ§Ùħ": 6486,
      "Ġà¦Ĩà¦ļ": 6487,
      "oci": 6488,
      "Ġà¤¯à¤¸à¤²": 6489,
      "ĠSouth": 6490,
      "à¤¯à¤§": 6491,
      "à¨ªà¨ı": 6492,
      "Ù¾ÙĪØ±Ù¹": 6493,
      "à¦Ńà¦¬": 6494,
      "ĠØªØ¹ÙĦÙĤ": 6495,
      "ny": 6496,
      "à¥į'": 6497,
      "à¤ľà¤¹": 6498,
      "à²¯à²ķà²°": 6499,
      "à¦ĸà§°": 6500,
      "à¤·à¤®à¤¤": 6501,
      "ĠPar": 6502,
      "à¤²à¤Ń": 6503,
      "leg": 6504,
      "ĠØ¬ÙĦØ¯": 6505,
      "Ġfurther": 6506,
      "à¨¤à¨ķ": 6507,
      "Ġà¨ħà¨ķ": 6508,
      "Ġfollowing": 6509,
      "Ġmom": 6510,
      "ĠÙĪÙģ": 6511,
      "ĠØ§ÙĨØ¯Ø±": 6512,
      "Ġchall": 6513,
      "à¯į\"": 6514,
      "Ġà¤¤à¤²": 6515,
      "à´®à´¸": 6516,
      "Ġàª®àª¦": 6517,
      "Ġà®īà®¤à®µ": 6518,
      "à´ªà´¯": 6519,
      "Ġà¨®à¨ľ": 6520,
      "Ġà²ħà²¸": 6521,
      "Ġà®İà®¨": 6522,
      "à¤ľà¤¨à¤ķ": 6523,
      "anj": 6524,
      "Ġà¬¦à¬³": 6525,
      "Ġconn": 6526,
      "à²¸à²¬à²¹": 6527,
      "Ġà¬Ĩà¬¹": 6528,
      "ĠØ¬ÙħØ¹": 6529,
      "à¤¥à¤¤": 6530,
      "Ġdone": 6531,
      "Ġvarious": 6532,
      "Ġhit": 6533,
      "à¤ıà¤²": 6534,
      "ĠØ§ÙĨØªØ®": 6535,
      "àªļàª°": 6536,
      "ĠHind": 6537,
      "à¦¸à¦ķ": 6538,
      "Ġà°¸à°®à°¸": 6539,
      "à®°à®Ļ": 6540,
      "ĠØ®Ø±": 6541,
      "Ġothers": 6542,
      "Ġyoung": 6543,
      "Ġà¨ªà¨²": 6544,
      "Ġsug": 6545,
      "ĠàŃ®": 6546,
      "à¤·à¤°": 6547,
      "ĠMod": 6548,
      "à²£à²¦": 6549,
      "Ġjo": 6550,
      "à®ĩà®¨": 6551,
      "tt": 6552,
      "Ġà®ħà®µà®©": 6553,
      "à¨ľà¨µ": 6554,
      "Ġchang": 6555,
      "ĠàŃ§àŃ¦": 6556,
      "à¨Ĩà¨ª": 6557,
      "ĠOr": 6558,
      "Ġà¦¯à¦ĸà¦¨": 6559,
      "ĠÚĨØ§ÛģÛĮ": 6560,
      "24": 6561,
      "Ġà²ħà²¦à²¨": 6562,
      "ĠØ´Ø±ÛĮÙģ": 6563,
      "àª®àª°": 6564,
      "Ġà¬®à¬¸": 6565,
      "Ø±ÛĮÙħ": 6566,
      "Ġà²¸à²®à²¸": 6567,
      "ething": 6568,
      "ĠØ¨Øª": 6569,
      "à¤¸à¤¬": 6570,
      "ĠÚĨÛĮ": 6571,
      "ĠWWE": 6572,
      "Ġasked": 6573,
      "Ġhaving": 6574,
      "Ġàªĺàª°": 6575,
      "Ġwicket": 6576,
      "à³Ĥ.": 6577,
      "ĠFin": 6578,
      "à¥ĩ'": 6579,
      "ĠÛ²Û": 6580,
      "àŃŁà¬¬à¬¹": 6581,
      "à´¨à´µ": 6582,
      "à¤Ľà¤²": 6583,
      "Ġide": 6584,
      "Ġà¬¸à¬®àŃŁ": 6585,
      "ĠÙħØ±Øª": 6586,
      "Ġdra": 6587,
      "oor": 6588,
      "ÙĪÙħÛĮ": 6589,
      "Ġà¦¬à¦Ļ": 6590,
      "ĠàªĨàª®": 6591,
      "à¨ªà¨¸": 6592,
      "Ġà¤ĩà¤¸à¤¸": 6593,
      "utes": 6594,
      "AR": 6595,
      "Ġbody": 6596,
      "Ġfight": 6597,
      "à¨¦à¨Ĺ": 6598,
      "Ġà¤¨à¤¸à¤ķ": 6599,
      "Ġtot": 6600,
      "à¨¼à¨¿à©°": 6601,
      "Ġàª¤àªª": 6602,
      "à¤¾)": 6603,
      "ĠCongress": 6604,
      "ĠØ¯Ø§Ø®": 6605,
      "ĠÙĪÙĤ": 6606,
      "ĠIm": 6607,
      "Ġcharact": 6608,
      "à¤¶à¤°": 6609,
      "Ġpot": 6610,
      "Ġà¬ªà¬ŀ": 6611,
      "uru": 6612,
      "Ġà°İà°®": 6613,
      "àª¤àªķ": 6614,
      "à¨Ĺà¨¦": 6615,
      "ĠAfter": 6616,
      "Ġya": 6617,
      "Ġtal": 6618,
      "àªľàªķ": 6619,
      "ĠÙĦÛģ": 6620,
      "à¬ļà¬³": 6621,
      "Ġcho": 6622,
      "Ġwhether": 6623,
      "ED": 6624,
      "à°µà°¸": 6625,
      "Ġel": 6626,
      "Ġknown": 6627,
      "ĠØ§Ø¸ÛģØ§Ø±": 6628,
      "ball": 6629,
      "ĠØ¯Ú¾": 6630,
      "Ġà¦¯à¦¤": 6631,
      "à²§à²°": 6632,
      "ĠØ¨Ø¹Ø¶": 6633,
      "à¦ĩà¦ľ": 6634,
      "ĠØ®Ø¯": 6635,
      "Ġà¬Ĺà¬£": 6636,
      "Ġ37": 6637,
      "ÙĦØ§ÙĪÛģ": 6638,
      "Ġocc": 6639,
      "ĠØ§ÙĦÙĨ": 6640,
      "Ġà²Ĩà²¤": 6641,
      "ĠØ§Ø³Ùħ": 6642,
      "Ġwebs": 6643,
      "Ġà¬ļà¬¨": 6644,
      "ĠØ²Ùħ": 6645,
      "à´ļà´¨": 6646,
      "Ġà¨Ĳà¨¸": 6647,
      "Ġu": 6648,
      "à²°à²³": 6649,
      "ÙĦØ§ÙĨ": 6650,
      "icy": 6651,
      "ĠØ§Ø³ÙĦØ§ÙħÛĮ": 6652,
      "ners": 6653,
      "rat": 6654,
      "à¦¯à¦¯": 6655,
      "Ġface": 6656,
      "Ġà²ħà²ķ": 6657,
      "à¦¯à§±à¦¹": 6658,
      "ĠÙħÛĮÙĨ": 6659,
      "à°¡à°°": 6660,
      "Ġà¤ħà¤µà¤§": 6661,
      "à´®à´¨": 6662,
      "Ġà²®à²§": 6663,
      "Ġà¨Ĩà¨īà¨£": 6664,
      "ex": 6665,
      "ĠØ¨Ø§Ø¨": 6666,
      "Ø´Ø±": 6667,
      "eal": 6668,
      "à«©": 6669,
      "Ġàªµàª¡": 6670,
      "àµ¼à´ª": 6671,
      "à«ħ": 6672,
      "ĠSec": 6673,
      "ĠUnited": 6674,
      "ability": 6675,
      "Ø§Ø´Øª": 6676,
      "Ġbring": 6677,
      "ĠÚ©Ø¨Ú¾ÛĮ": 6678,
      "à¨¨à¨µ": 6679,
      "ctor": 6680,
      "Ġàªķàª°àª¶": 6681,
      "Ġheld": 6682,
      "àª°àª¯": 6683,
      "ĠMus": 6684,
      "à²§à²µ": 6685,
      "Ġà²§à²°": 6686,
      "As": 6687,
      "hy": 6688,
      "ĠÚ©Ø¦ÛĮ": 6689,
      "à¤¢à¤¤": 6690,
      "ox": 6691,
      "à¯ĩ,": 6692,
      "Ġà´¨à´Łà´ķ": 6693,
      "Ġà¬ħà¬Ĺ": 6694,
      "à²¨à²ķ": 6695,
      "uation": 6696,
      "à¤°à¤«": 6697,
      "Ġà²ªà²Ł": 6698,
      "Ġà¤ĩà¤¸à¤²": 6699,
      "à¬¸à¬®": 6700,
      "à¤¢à¤²": 6701,
      "ĠÛĮÛģÛĮ": 6702,
      "Ġà´¨à´Łà´ªà´Ł": 6703,
      "ØŃØ¶Ø±Øª": 6704,
      "à¤Ĺà¤ļ": 6705,
      "ĠÙģØ§Ø±": 6706,
      "ĠØªÙħÛģ": 6707,
      "à§ĩ'": 6708,
      "à¤ĩà¤¸à¤ķ": 6709,
      "à²·à²Ĺà²³": 6710,
      "Ġ2015": 6711,
      "Ġà¤ķà¤Ł": 6712,
      "Ø§ØªØ§": 6713,
      "Ġà°İà°¦": 6714,
      "ĠPakistan": 6715,
      "ĠTV": 6716,
      "ĠØ¹Ø²": 6717,
      "à´ŀà´¤": 6718,
      "aly": 6719,
      "à¬ĩà¬ķ": 6720,
      "Ø±ÙģØª": 6721,
      "Ġsmall": 6722,
      "atform": 6723,
      "à¨¸à¨¨": 6724,
      "àŃŁà¬Ļ": 6725,
      "Ġà¦ļà¦¨à¦¤": 6726,
      "Ġbeg": 6727,
      "ĠØŃÙĤÛĮ": 6728,
      "ĠØ±ÙĪØ§ÛĮØª": 6729,
      "à®ī": 6730,
      "Ġold": 6731,
      "à¯ĩ.": 6732,
      "Ø§Ø¦Ø¹": 6733,
      "Ġà²¤à²ª": 6734,
      "ĠÙĤØ§Ø¦Ùħ": 6735,
      "Ġà¦®à¦¨à¦¤": 6736,
      "Ġappear": 6737,
      "ging": 6738,
      "à©Ģ-": 6739,
      "ÙĦØ§ØŃ": 6740,
      "rab": 6741,
      "ĠÙħØ²ÛĮØ¯": 6742,
      "Ġfuture": 6743,
      "à´°à´µà´°": 6744,
      "ĠàªľàªĹ": 6745,
      "à¤ķà¤£": 6746,
      "ĠÙĪÛģØ§Úº": 6747,
      "à¤¡à¤£": 6748,
      "Ġà¥©à¥¦": 6749,
      "à¦¨à¦¦": 6750,
      "Ġà¦¨à¦Ĺ": 6751,
      "àª²àª¤": 6752,
      "ĠÚĪØ§Ú©Ù¹Ø±": 6753,
      "Ġworking": 6754,
      "ler": 6755,
      "Ġinn": 6756,
      "Ġà®ªà®³": 6757,
      "Ġ32": 6758,
      "irl": 6759,
      "umar": 6760,
      "à®¤à®°à®µ": 6761,
      "àª¨àª¸": 6762,
      "à¨¦à¨¦": 6763,
      "ĠâĢ¢": 6764,
      "à¤¿à¥¤": 6765,
      "Ġcity": 6766,
      "Ġcamp": 6767,
      "ĠAg": 6768,
      "à®¾.": 6769,
      "Ġens": 6770,
      "à¤¨à¤Ĺ": 6771,
      "Ġà¦ªà¦¢": 6772,
      "aid": 6773,
      "yo": 6774,
      "à®²à®Ļ": 6775,
      "Ġà®ħà®ķ": 6776,
      "ØµØ±": 6777,
      "Ġchange": 6778,
      "ĠÙħØ§Ûģ": 6779,
      "Ġ90": 6780,
      "à°¤à°Ĺ": 6781,
      "àª¯àªµ": 6782,
      "ĠØ§ÙĨØªØ¸": 6783,
      "à¨¨à¨¦": 6784,
      "à¨Ĩà¨²": 6785,
      "ĠØŃØ¶ÙĪØ±": 6786,
      "iod": 6787,
      "Ø¨Ø§ÙĦ": 6788,
      "ĠÙħÙĪÙĤØ¹": 6789,
      "ÛĮÙĨØ§": 6790,
      "Ġà¤µà¤Ł": 6791,
      "Ø²Ø§": 6792,
      "Ġquestion": 6793,
      "ĠÙħÙħ": 6794,
      "Ġschool": 6795,
      "ĠÚ©ÛĮÛĴ": 6796,
      "àµ½à´ª": 6797,
      "ĠØ§ÙĨØ¬": 6798,
      "ĠKhan": 6799,
      "obal": 6800,
      "Ġstar": 6801,
      "Ġà®īà®¯à®°": 6802,
      "à°ķà°®": 6803,
      "Ġà¬¨à¬¬": 6804,
      "ĠØ³ÙĪØ§ÙĦ": 6805,
      "Ġà¨¸à¨«": 6806,
      "Ú¾ÙĪÚº": 6807,
      "Ġà®īà®Łà®²": 6808,
      "ably": 6809,
      "Ġdeath": 6810,
      "St": 6811,
      "Ġà¨µà¨°à¨Ĺ": 6812,
      "à¤ĸà¤®": 6813,
      "àµ¼à´¦": 6814,
      "à¨£à¨¤": 6815,
      "Ġlight": 6816,
      "à°£à°¯": 6817,
      "Ġà¦ıà¦ķà¦ľà¦¨": 6818,
      "Ġsomething": 6819,
      "Ġà¤ĩà¤¸à¤®": 6820,
      "à¨ķà¨®": 6821,
      "àµ¼à´¶": 6822,
      "ĠÙħØ³Ø¦": 6823,
      "ney": 6824,
      "à®¾à¯į": 6825,
      "Ġà¤¹à¤Ł": 6826,
      "à¬¬à¬¨à¬°": 6827,
      "Ġmag": 6828,
      "Ġà°Ĩà°²": 6829,
      "Ġ500": 6830,
      "Ġà¦¹à¦ĩà¦²": 6831,
      "Ġauthor": 6832,
      "à¦īà¦¤": 6833,
      "ĠØ¢Ø¦ÛĴ": 6834,
      "unj": 6835,
      "à°§à°®": 6836,
      "à²Ĺà²¦à²²": 6837,
      "à¬¨à¬¤": 6838,
      "à¨¼à©į": 6839,
      "ĠØ«Ø§Ø¨Øª": 6840,
      "à¤®à¤Ń": 6841,
      "à°²à°Ĺ": 6842,
      "ster": 6843,
      "Ġà²°à²ķ": 6844,
      "à²Ĳ": 6845,
      "Ġà´ĸ": 6846,
      "à´¹à´®": 6847,
      "ĠØªÚ¾ÛĮÚº": 6848,
      "Ġsal": 6849,
      "Ġà´¸àµ¼à´ķ": 6850,
      "à°¡à°µ": 6851,
      "à¬ıà¬¸": 6852,
      "Ġà²ıà²ķ": 6853,
      "à¬ĩà¬¸": 6854,
      "Ġlive": 6855,
      "Ġlater": 6856,
      "Ġàªµàª°àª¸": 6857,
      "Ġà¬ħà¬ķ": 6858,
      "ying": 6859,
      "ĠÙģØ¶": 6860,
      "Ġprovide": 6861,
      "ĠSm": 6862,
      "ĠThat": 6863,
      "Ø§Ø¤Úº": 6864,
      "Ûķ": 6865,
      "ĠàªħàªĹ": 6866,
      "orth": 6867,
      "à´µà´ķ": 6868,
      "ĠØ±Ø§Ûģ": 6869,
      "à¤³à¤²": 6870,
      "à²¸à²µ": 6871,
      "Ġà°ıà°®": 6872,
      "Ġàª¹àª¶": 6873,
      "Ġà´®à´¨à´¸": 6874,
      "Ġà¬¹à¬°": 6875,
      "àªĸàª¨": 6876,
      "ports": 6877,
      "here": 6878,
      "Ġhold": 6879,
      "ĠCO": 6880,
      "abad": 6881,
      "Ġà¦ĸà¦¬à¦°": 6882,
      "ja": 6883,
      "br": 6884,
      "Ġaccount": 6885,
      "à§°à§±": 6886,
      "à°°à°ľà°²": 6887,
      "à¨Ľà¨²": 6888,
      "Ġwithin": 6889,
      "à¬°à¬£à¬°": 6890,
      "Ġdemand": 6891,
      "à¤²à¤¯à¤ķ": 6892,
      "à²Ńà²¦à²²": 6893,
      "à¤¿'": 6894,
      "Ø¯ÛĮØ¯": 6895,
      "ĠØµØ¯Ø±": 6896,
      "ĠØ¯Ø±ÙħÛĮ": 6897,
      "over": 6898,
      "ĠàªĹàª£": 6899,
      "ccording": 6900,
      "Ġspecial": 6901,
      "à¦¯à¦ĩ": 6902,
      "à²¸à²¨": 6903,
      "Ġà¦ıà¦Ľ": 6904,
      "Ġà®µà®³à®°": 6905,
      "Ġdevelopment": 6906,
      "à²¿à²ĥ": 6907,
      "Ġà²ĩà²µ": 6908,
      "à¦®à¦ª": 6909,
      "à¬ľàŃŁ": 6910,
      "ĠNational": 6911,
      "¹Û": 6912,
      "ØŃÛģ": 6913,
      "Ġà¨ĸà¨°": 6914,
      "ĠÛģÙħÛĮÚº": 6915,
      "Ġactiv": 6916,
      "Ġnight": 6917,
      "Ġà¥«à¥¦": 6918,
      "Ġstrong": 6919,
      "Ġà¤ªà¤¸": 6920,
      "à¤·à¤¯à¤®": 6921,
      "Ġà¤Ĺà¤®": 6922,
      "à¤ĩà¤¯": 6923,
      "Úĺ": 6924,
      "Ġservices": 6925,
      "à®ķà®ļ": 6926,
      "à¤¿-": 6927,
      "Ġmoney": 6928,
      "Ġà´ķà´²": 6929,
      "Ġà²ļà²°": 6930,
      "à´ķà´£à´®": 6931,
      "Ġà¬²à¬Ĺ": 6932,
      "Ġprogram": 6933,
      "ER": 6934,
      "ÙĪØ´": 6935,
      "adi": 6936,
      "à¬ľà¬ķ": 6937,
      "à°¹à°¨": 6938,
      "Ġà¤®à¤¦à¤¤": 6939,
      "Ġsum": 6940,
      "artment": 6941,
      "ĠØ¹ÙĪØ±Øª": 6942,
      "à´ªà´±": 6943,
      "Ġà¬¥à¬°": 6944,
      "Ġhappen": 6945,
      "ĠØŃØµÛģ": 6946,
      "par": 6947,
      "à®°à®Ł": 6948,
      "Ġà¨Łà¨°": 6949,
      "à³ģ?": 6950,
      "Ġà¤Ľà¤²": 6951,
      "ÙĪÙĨØ§": 6952,
      "à¤Ĩà¤¤": 6953,
      "back": 6954,
      "head": 6955,
      "Ġfund": 6956,
      "Ġdeal": 6957,
      "Ġà¤¨à¤ľà¤°": 6958,
      "anies": 6959,
      "ĠØ®ÙĪØ´": 6960,
      "Ġtaking": 6961,
      "ÙĨØª": 6962,
      "à²µà²¸": 6963,
      "à¨¸à¨µ": 6964,
      "Ġàªªàª¦": 6965,
      "Ġà²µà²¸": 6966,
      "Ġà¦ĩà¦īà¦¨": 6967,
      "à¥Ģà¤Ĥ,": 6968,
      "ects": 6969,
      "à«ĩ;": 6970,
      "à¤ªà¤ªà¤¤": 6971,
      "à´¤à´ķ": 6972,
      "ffic": 6973,
      "wood": 6974,
      "Ġaction": 6975,
      "Ġpar": 6976,
      "à¦¡à§°": 6977,
      "ĠÚ©Ø±ØªÛĮ": 6978,
      "Ġà°īà°ªà°¯": 6979,
      "ÙĨÚĪ": 6980,
      "ĠÙĤÙĪÙħ": 6981,
      "à²®à²¤": 6982,
      "ĠØ¬ÙħØ§Ø¹Øª": 6983,
      "à²ľà²°": 6984,
      "Ġà¬Ńà¬³": 6985,
      "Ġà¦Ĩà¦Ĺà¦¬": 6986,
      "à¤ªà¤¶": 6987,
      "à®©à®µ": 6988,
      "Ġless": 6989,
      "Ġclear": 6990,
      "Ġple": 6991,
      "à²µà²¹": 6992,
      "ĠSat": 6993,
      "ØµØ¯": 6994,
      "Ø³ØªØ§ÙĨÛĮ": 6995,
      "Ġlittle": 6996,
      "à¨Ĺà©ľ": 6997,
      "ĠØ¹ÙĦØ§ÙĪÛģ": 6998,
      "ĠPat": 6999,
      "ĠÙĤØ¨ÙĦ": 7000,
      "Ġà¤ıà¤ª": 7001,
      "Ġko": 7002,
      "Ġà¬ľà¬³": 7003,
      "Ġà´ĩà´²": 7004,
      "ĠØ¢ÙĨÛĴ": 7005,
      "Ġaccess": 7006,
      "Ġaccording": 7007,
      "à²°à²§": 7008,
      "Ġà¨¨à¨ľ": 7009,
      "Ġà®ªà®´": 7010,
      "ĠPM": 7011,
      "Ġsaf": 7012,
      "40": 7013,
      "ÙĨØ§Ûģ": 7014,
      "Ġà¤ªà¤²": 7015,
      "ÙĦÚ©": 7016,
      "à¦¸à¦¦": 7017,
      "Ġcases": 7018,
      "à¤¦à¤Ĺ": 7019,
      "à¨²à¨ľ": 7020,
      "Ú¾ÛĮÙĦ": 7021,
      "à´Ĺà´¸": 7022,
      "Ġà¨¡à¨°": 7023,
      "Ġà¨īà¨¤à¨ª": 7024,
      "à®¯à®Ł": 7025,
      "ĠRam": 7026,
      "ÙĦÛĮÙĦ": 7027,
      "Ġà¤¸à¤®à¤¯à¤®": 7028,
      "Ġà¤®à¤®": 7029,
      "Ġfoc": 7030,
      "Ġà®İà®Ļ": 7031,
      "illed": 7032,
      "à¬īà¬Ľà¬¨": 7033,
      "Ġperiod": 7034,
      "Ġà¬°à¬ķ": 7035,
      "Ġà´¤à´®": 7036,
      "ĠØ¯ÛĮÚ©Ú¾Ø§": 7037,
      "àª®àª¦": 7038,
      "Ġmult": 7039,
      "Ġheart": 7040,
      "Ġà²İà²¦": 7041,
      "à¯Ĥ.": 7042,
      "Ġà°ķà°³": 7043,
      "à¦ĵà¦ķ": 7044,
      "àŃŁà¬ª": 7045,
      "Ġà°ĩà°Ł": 7046,
      "ÙĦØª": 7047,
      "Ġàªķàªª": 7048,
      "Ġà´ªà´ł": 7049,
      "Ġà´ķà´¥": 7050,
      "gether": 7051,
      "Ġfail": 7052,
      "Ġtogether": 7053,
      "Ġvict": 7054,
      "Ø±ÛĴ": 7055,
      "àªŁàª£": 7056,
      "à¤Īà¤¨": 7057,
      "àªŃàªµ": 7058,
      "Ġà¥¨à¥ª": 7059,
      "Ġhouse": 7060,
      "ĠÙ¾Ú¾": 7061,
      "àªľàªµ": 7062,
      "ĠØ§Ø¶Ø§Ùģ": 7063,
      "à¤¾?": 7064,
      "ÙĦÛĮÚ©ÙĨ": 7065,
      "Ġà¤Ĩà¤ļ": 7066,
      "à¤¡à¤³": 7067,
      "Ġà¨®à¨¸": 7068,
      "ĠMr": 7069,
      "Ġà°ĩà°¨": 7070,
      "ĠÙĪØ§ÙĦÙĪÚº": 7071,
      "à¤¤à¤¶": 7072,
      "Ġà®¨à®©": 7073,
      "witter": 7074,
      "à°µà°ķ": 7075,
      "Ġ33": 7076,
      "Ġservice": 7077,
      "àŃģà¥¤": 7078,
      "à®³à®ķ": 7079,
      "obile": 7080,
      "ĠàªĵàªĽ": 7081,
      "Ġplaying": 7082,
      "à§İà¦ķ": 7083,
      "ĠÙħØ´Ú©ÙĦ": 7084,
      "Ġà²¹à²¤": 7085,
      "à¬·à¬¤": 7086,
      "Ġà¬ħà¬®": 7087,
      "à¤®à¤ľ": 7088,
      "Ġwhy": 7089,
      "200": 7090,
      "à®£à®ª": 7091,
      "ĠBe": 7092,
      "inc": 7093,
      "à°¦à°®": 7094,
      "arma": 7095,
      "nes": 7096,
      "à°ľà°®": 7097,
      "Ġà²ĩà²¦à²¨": 7098,
      "Ġannounced": 7099,
      "Ġà¤ªà¤¡à¤²": 7100,
      "ĠBJP": 7101,
      "à¨¼à©Ĥ": 7102,
      "à¨ļà¨¨": 7103,
      "ĠÙģÛĮØµÙĦÛģ": 7104,
      "Ġplatform": 7105,
      "ĠÙħÙĨØª": 7106,
      "à¤µà¤ķà¤°": 7107,
      "Ġà¬ªà¬¶": 7108,
      "à¤¹à¤Łà¤²": 7109,
      "ĠØ§Ø¯Ø§": 7110,
      "à®°à®ķ": 7111,
      "Ġà¨¸à¨²": 7112,
      "à¬Ĺà¬³": 7113,
      "olly": 7114,
      "Ġà®İà®©à®µ": 7115,
      "ĠØ³ÛĮØ§Ø³ÛĮ": 7116,
      "à´·à´¯": 7117,
      "Ġà²°à²¸": 7118,
      "Ġcou": 7119,
      "ĠØ³Ø¹": 7120,
      "ĠØ³Ù¾": 7121,
      "aster": 7122,
      "Ġstep": 7123,
      "àªĵàªı": 7124,
      "60": 7125,
      "ĠÙ¾ÙĪÙĦÛĮØ³": 7126,
      "Ġàª°àªľ": 7127,
      "ateg": 7128,
      "à¬Ĩà¬¨": 7129,
      "à¦ıà¦°": 7130,
      "Ġà¦ĭ": 7131,
      "ĠØ¢Ø¯": 7132,
      "Ġà´¤à´Ł": 7133,
      "Ġstay": 7134,
      "arent": 7135,
      "à®µà®ļ": 7136,
      "à¦·à¦¦": 7137,
      "Ġpoints": 7138,
      "Ġwebsite": 7139,
      "à«ª": 7140,
      "à¤¡à¤¤": 7141,
      "Ø§Ø¯Ø±": 7142,
      "à¨²à¨°": 7143,
      "àªķàª³": 7144,
      "Ġdom": 7145,
      "Ġà¨Ĩà¨Ĺ": 7146,
      "ĠÙĤÛĮØ§": 7147,
      "ĠÙħØ¯Ø¯": 7148,
      "Ġà¤ķà¤¹à¤¤": 7149,
      "duc": 7150,
      "ĠEngland": 7151,
      "à¤·à¤¯à¤¤": 7152,
      "Ġà²¨à²²": 7153,
      "àµ»à´±": 7154,
      "Ġbenef": 7155,
      "Ġ..": 7156,
      "Ù¹Ø±ÛĮ": 7157,
      "Ġlooking": 7158,
      "umbai": 7159,
      "ĠÙĨØµ": 7160,
      "Ġà¦¤à¦¤": 7161,
      "à¦¬à¦¯": 7162,
      "ĠWhen": 7163,
      "à¤Īà¤ķ": 7164,
      "à¨ªà¨²": 7165,
      "à¦ĩà¦¦": 7166,
      "Ġà´µàµ¼à´·": 7167,
      "Ġà²ªà²¦": 7168,
      "Ġunderstand": 7169,
      "Ġà¦ªà¦ŀ": 7170,
      "à¦ľà¦²": 7171,
      "à²°à²Ĺ": 7172,
      "à¦¦à¦¯": 7173,
      "ĠàŃ¯": 7174,
      "Ġmembers": 7175,
      "va": 7176,
      "à®°à®²": 7177,
      "à¤ĩà¤¡": 7178,
      "à¨ĩà¨°": 7179,
      "ĠØ¯ÛĮÚº": 7180,
      "ĠEn": 7181,
      "Ġstudents": 7182,
      "Ġà¤¦à¤°à¤®": 7183,
      "Ġline": 7184,
      "Ġarea": 7185,
      "à©ĭà¥¤": 7186,
      "Ġà²ķà²£": 7187,
      "Ġà¦°à¦¬": 7188,
      "à®®à®ķ": 7189,
      "ĠRes": 7190,
      "Ġà¬ļà¬°": 7191,
      "ĠÙħØ±Ú©": 7192,
      "Ġprice": 7193,
      "à¦§à¦¬": 7194,
      "Ġonline": 7195,
      "ĠÛģÙĪÙĨØ§": 7196,
      "à¤µà¤Ĺ": 7197,
      "à²°à²ª": 7198,
      "ĠØ§ÛģÙħ": 7199,
      "Ġwatch": 7200,
      "ĠJu": 7201,
      "Ġconcern": 7202,
      "à¦¬à¦¹": 7203,
      "à®Łà®µ": 7204,
      "Ġà¬ħà¬«": 7205,
      "Ġusers": 7206,
      "Ġàªĵàª«": 7207,
      "Ġà¥¨à¥§": 7208,
      "ees": 7209,
      "à§°à¦Ń": 7210,
      "ĠØ®ØªÙħ": 7211,
      "Ġà¨Ĩà¨µ": 7212,
      "Ġà¦ķà¦¤": 7213,
      "à²µà²³": 7214,
      "ĠØ±ÛĮØ§": 7215,
      "àª¡àª°": 7216,
      "ĠØ§ÙĨØ¯Ø§Ø²": 7217,
      "not": 7218,
      "Ġmovie": 7219,
      "à°ļà°²": 7220,
      "ĠØ§ÙĨØªØ®Ø§Ø¨": 7221,
      "ÙħØ¹": 7222,
      "Ġà¤Ĺà¤ıà¤ķ": 7223,
      "Ġà¦Ńà¦Ĺ": 7224,
      "ĠàŃ§": 7225,
      "à´¨à´¸": 7226,
      "à¬¬à¬²": 7227,
      "Ġjour": 7228,
      "work": 7229,
      "Ġà¨¹à¨µ": 7230,
      "ĠØªÙĦ": 7231,
      "à¬ĩà¬°": 7232,
      "ĠMal": 7233,
      "Ġtitle": 7234,
      "book": 7235,
      "my": 7236,
      "àª°àª§": 7237,
      "à¥¨à¥¦": 7238,
      "Ø§Ø¶ØŃ": 7239,
      "Ġlarge": 7240,
      "à¤ļà¤£": 7241,
      "à¤ĸà¤ķ": 7242,
      "ows": 7243,
      "Ġclass": 7244,
      "Ġgetting": 7245,
      "Ġcommit": 7246,
      "Ġà´ŀà´Ļ": 7247,
      "ĠØ¯ÙĪØ³Ø±ÛĮ": 7248,
      "Ġà¬ķà¬¨": 7249,
      "ÚĨÚ¾Ø§": 7250,
      "à¤®à¤¬": 7251,
      "acy": 7252,
      "Ġà¤ķà¤ł": 7253,
      "àŃŁà¬®à¬¨": 7254,
      "à¦·à¦®à¦¤": 7255,
      "Ġà¦ĩà¦ļ": 7256,
      "ĠÙ¹Ú¾": 7257,
      "à²µà²µà²°": 7258,
      "Ġcertain": 7259,
      "Ġà²ħà²Ĺà²¤": 7260,
      "à¬·àŃŁà¬°": 7261,
      "ĠàŃ±": 7262,
      "Ġà²ħà²µà²°à²¨": 7263,
      "à¨Ĺà¨°à¨¸": 7264,
      "à¬§à¬¨": 7265,
      "Ġà²Ĩà²¡": 7266,
      "Ġà®ķà®²à®¨": 7267,
      "Ġjob": 7268,
      "Ġà®¨à®Łà®µà®Ł": 7269,
      "Ġdecision": 7270,
      "ĠØ¯Ø±ÙħÛĮØ§ÙĨ": 7271,
      "´Û": 7272,
      "Ġà¤ķà¤¡": 7273,
      "à´°à´¹": 7274,
      "Ġà¦¸à¦ª": 7275,
      "à¤¯à¤®à¤¨": 7276,
      "àªĩàªı": 7277,
      "à´ķà´ļ": 7278,
      "Ġà¤¦à¤¹": 7279,
      "à¦ľà¦¸": 7280,
      "Ġcreat": 7281,
      "à´¦à´°": 7282,
      "ko": 7283,
      "Ġà¤¨à¤¸": 7284,
      "Ġà¤ķà¤°à¤ķ": 7285,
      "ĠÙĤØ¯Ø±": 7286,
      "Ġà§§à§®": 7287,
      "Ġà¤ħà¤¥à¤µ": 7288,
      "Ġdistrict": 7289,
      "Ġà¥¨à¥¦à¥Ń": 7290,
      "Ġà¨ħà¨¸à¨²": 7291,
      "Ġleaders": 7292,
      "à²°à²ľ": 7293,
      "Ġà¨¸à¨¦": 7294,
      "à²°à²Ń": 7295,
      "Ø§Ø±Ø§": 7296,
      "ĠØ§ÙĦØ¨": 7297,
      "Ġàª®àª¹àª¤": 7298,
      "ĠØ¸Ø§ÛģØ±": 7299,
      "Ġchildren": 7300,
      "à®°à®µ": 7301,
      "à¬ķà¬³": 7302,
      "Ġà¦¨à¦¦": 7303,
      "Ġsour": 7304,
      "Ġàªµàª¹": 7305,
      "aming": 7306,
      "ĠÙ¾Ø³ÙĨØ¯": 7307,
      "à´µà´²": 7308,
      "ĠØ¯Ø§ÙĨ": 7309,
      "Ġaddition": 7310,
      "àŃį,": 7311,
      "Ġpag": 7312,
      "Ġà¤ħà¤²à¤Ĺ": 7313,
      "ĠàªĨàªĹàª³": 7314,
      "vent": 7315,
      "à®ķà®Ļ": 7316,
      "Ġà¬®à¬¤": 7317,
      "ĠPres": 7318,
      "à¥Ĥ,": 7319,
      "BI": 7320,
      "Ø¥": 7321,
      "ĠLeague": 7322,
      "à¤¨à¤¬": 7323,
      "à´Łà´²": 7324,
      "Ġàª¬àª¦àª²": 7325,
      "à´°à´³à´¤": 7326,
      "ĠÛģØ¯": 7327,
      "Ġà¤¸à¤¹à¤®à¤¤": 7328,
      "Ġopport": 7329,
      "ĠØ¯Ú©Ú¾": 7330,
      "à´¸à´¨": 7331,
      "à¬³àŃŁ": 7332,
      "Ġonce": 7333,
      "ĠRed": 7334,
      "àªĵàª®": 7335,
      "Ġà«©": 7336,
      "ressed": 7337,
      "à¦¯à¦¦": 7338,
      "ØªØŃ": 7339,
      "Ġsure": 7340,
      "Ġà¬¸à¬¦": 7341,
      "à¤¯à¤¬": 7342,
      "ÙĪÙĦØª": 7343,
      "Ġexpected": 7344,
      "à°°à°¯à°¤": 7345,
      "à¨¨à¨°": 7346,
      "Ġearly": 7347,
      "Ġvisit": 7348,
      "Ġcrore": 7349,
      "What": 7350,
      "à§ģ-": 7351,
      "Ġport": 7352,
      "Ġrecent": 7353,
      "Ġà¤Ńà¤ĩà¤°à¤¹": 7354,
      "Ġà°ķà°®": 7355,
      "à´¸à´®": 7356,
      "ĠØ³Ûģ": 7357,
      "Ġà´µà´ķ": 7358,
      "à¦®à¦ļ": 7359,
      "ĠØ¹Ø¯Ø§ÙĦ": 7360,
      "pur": 7361,
      "Ġpriv": 7362,
      "Ġà´Ĩà´¨": 7363,
      "Ġaut": 7364,
      "Ġcrit": 7365,
      "à¤ĸà¤£": 7366,
      "cy": 7367,
      "Ġà´ªà´Ł": 7368,
      "ĠÛģÙĪÚ¯ÛĮ": 7369,
      "Ġshare": 7370,
      "Ġtechnology": 7371,
      "à¨Ĩà¨Ī": 7372,
      "à®¤à®Ļ": 7373,
      "Ú¾ÛĴ": 7374,
      "à²¡à²Ĺ": 7375,
      "Ġà¬ľà¬®": 7376,
      "ÙĨØ¯Ûģ": 7377,
      "Ġtar": 7378,
      "à¨®à¨¦": 7379,
      "Ġnon": 7380,
      "âĢ¢": 7381,
      "ĠØªØ¹ÙĦÛĮÙħ": 7382,
      "Ġà²¬à²³à²¸": 7383,
      "most": 7384,
      "tra": 7385,
      "uck": 7386,
      "za": 7387,
      "ator": 7388,
      "àª¡àª®": 7389,
      "Ġà¤¨à¤¸à¤²": 7390,
      "ĠMad": 7391,
      "ĠDr": 7392,
      "à§¨à§¦": 7393,
      "Ġà°¬à°¯": 7394,
      "ĠàªĪàª¨": 7395,
      "à¦¸à¦°": 7396,
      "Ġnational": 7397,
      "à¯į.\\": 7398,
      "Ġà¥¦": 7399,
      "à¤ļà¤µ": 7400,
      "Ġpick": 7401,
      "Ġàª¸àª«": 7402,
      "irc": 7403,
      "à¬ķà¬°à¬£": 7404,
      "Ġapplic": 7405,
      "sp": 7406,
      "àª¾-": 7407,
      "Ġstri": 7408,
      "ĠØ±ÙĪÙ¾": 7409,
      "Ġà§§à§«": 7410,
      "ĠÚĨØ§ÛģÛĮÛĴ": 7411,
      "ply": 7412,
      "Ġà²¸à²¤": 7413,
      "Ġrecently": 7414,
      "Ġà®ªà®Ļ": 7415,
      "Ġ34": 7416,
      "ĠÛĮØ§Ø¯": 7417,
      "à¬¿à¬ģà¥¤": 7418,
      "à°°à°¬": 7419,
      "Ã©": 7420,
      "Ġà¦ħà¦ªà¦°": 7421,
      "ili": 7422,
      "ĠàªµàªĹ": 7423,
      "Ġcompanies": 7424,
      "Ġà²®à²³": 7425,
      "Ġà§°à¦ķ": 7426,
      "Ġkey": 7427,
      "Ġàª¹àª°": 7428,
      "Ġkind": 7429,
      "Ġword": 7430,
      "Ġà¦¨à¦¬": 7431,
      "à¬Ĺà¬£": 7432,
      "ĠÙ¾ÙĨØ¬": 7433,
      "à´¡à´¨": 7434,
      "à¤¨à¤¸à¤Ń": 7435,
      "ĠØ§Ø¨ÙĪ": 7436,
      "'.": 7437,
      "fic": 7438,
      "Ġmiss": 7439,
      "Ġà®ĵà®Ł": 7440,
      "Ġà¨¬à¨°": 7441,
      "ĠChief": 7442,
      "Ġà¤ħà¤¯": 7443,
      "ĠÙĪØ§Ù¾": 7444,
      "ĠCol": 7445,
      "irus": 7446,
      "Ġà¨Ĩà¨ī": 7447,
      "Ġàªīàª®": 7448,
      "angu": 7449,
      "Ġdiscuss": 7450,
      "à´¯àµ¼": 7451,
      "Ġsent": 7452,
      "Ġà¬ªà¬Ł": 7453,
      "Ġlim": 7454,
      "Ġà¨®à¨°": 7455,
      "Ġà®ĩà®Łà®®": 7456,
      "Ġà´°à´ķ": 7457,
      "ancial": 7458,
      "à²¶à²¦à²²": 7459,
      "iversity": 7460,
      "à®°à®¸": 7461,
      "à¦¸à¦¤": 7462,
      "Ġà¨²à©ľ": 7463,
      "Ġà¤Ķà¤·à¤§": 7464,
      "Ġsche": 7465,
      "Ġpossible": 7466,
      "Ġà¦ħà¦¶": 7467,
      "Ġà´ħà´ķ": 7468,
      "Ġfav": 7469,
      "Ġà¬¶à¬ķ": 7470,
      "Ġperformance": 7471,
      "à¤łà¤²": 7472,
      "iving": 7473,
      "Ġinvol": 7474,
      "à²¾,": 7475,
      "à¦ľà¦¨à§°": 7476,
      "Ġà¤®à¤¯": 7477,
      "à´®à´°": 7478,
      "à¦ķà¦Ń": 7479,
      "à¦ªà¦Ł": 7480,
      "Ġà¤ıà¤²": 7481,
      "Ġtrad": 7482,
      "ĠÛģÙĨØ¯ÙĪ": 7483,
      "à¬°à¬¤à¬°": 7484,
      "Ġà¨ĩà¨¤": 7485,
      "Ġà²ĩà²¤à²°": 7486,
      "ĠÙ¹ÛĮÙħ": 7487,
      "ĠÙħØ°Ûģ": 7488,
      "à¤¸à¤Ń": 7489,
      "Ġtalk": 7490,
      "ror": 7491,
      "Ġà¤īà¤°": 7492,
      "Ġàª²àªĪ": 7493,
      "unjab": 7494,
      "à´°à´Ł": 7495,
      "Ġever": 7496,
      "ĠØ®Øµ": 7497,
      "Ġlikely": 7498,
      "à¤¡à¤¸": 7499,
      "ĠÚ©Ø±Ø¯Ûģ": 7500,
      "à¤³à¤µ": 7501,
      "Ġtre": 7502,
      "Ġà¦Ńà¦ķ": 7503,
      "ivid": 7504,
      "à®°à®©": 7505,
      "Ġà¤¨à¤¤": 7506,
      "Ġfoot": 7507,
      "ĠTra": 7508,
      "Ġ||": 7509,
      "Ġvers": 7510,
      "à²µà²ķ": 7511,
      "à¤¨à¤¶": 7512,
      "àªµàªķ": 7513,
      "à´±àµ¼": 7514,
      "à²®à²µ": 7515,
      "Ġbased": 7516,
      "Ġà°İà°¸": 7517,
      "à°¥à°²": 7518,
      "Ġreleased": 7519,
      "Ġà§§à§¨": 7520,
      "Ġà¦ķà¦ł": 7521,
      "Ġ75": 7522,
      "ises": 7523,
      "Ġà¬īà¬Ń": 7524,
      "Ġà²ĩà²µà²°": 7525,
      "Ġà¨¦à¨°à¨ľ": 7526,
      "Ġmind": 7527,
      "raph": 7528,
      "Ġ?\"": 7529,
      "Ġeduc": 7530,
      "Ġà¤ħà¤Ŀ": 7531,
      "à¨¼à©Ī": 7532,
      "Ġà®ħà®ļ": 7533,
      "Ġcoming": 7534,
      "à¤ĵà¤µ": 7535,
      "Ġà¦ıà¦Ĺ": 7536,
      "à¦¥à¦²": 7537,
      "Ġissue": 7538,
      "Ġhalf": 7539,
      "Ø¹ÛĴ": 7540,
      "Ġtotal": 7541,
      "Ġà¥¤'": 7542,
      "Ġà®ļà®ķ": 7543,
      "Ġreve": 7544,
      "à°Ńà°µ": 7545,
      "ĠJes": 7546,
      "Ġclose": 7547,
      "Ġà¤¸à¤¡à¤ķ": 7548,
      "Ġcam": 7549,
      "icro": 7550,
      "Ġà°ĩà°¤à°°": 7551,
      "Ġà®ħà®¤à®±": 7552,
      "Ġcomplete": 7553,
      "ĠÛĶ\\": 7554,
      "ĠMarch": 7555,
      "à®Łà®©à®°": 7556,
      "ĠØ±Ø¨": 7557,
      "ĠÙħØ¨": 7558,
      "ilar": 7559,
      "ÙģØªÛģ": 7560,
      "Ġàªıàª¸": 7561,
      "Ġà²Ĵà²³": 7562,
      "Ġà²ıà²°": 7563,
      "Ġà®²à®Ł": 7564,
      "load": 7565,
      "Ġà®Īà®Ł": 7566,
      "ĠÙ¾ÙĪØ±ÛĮ": 7567,
      "Ġàª¨àªķ": 7568,
      "Ġà¬ıà¬¨": 7569,
      "ĠØ¹Ø§ÙĦÙħ": 7570,
      "Ø§Ø³Ú©": 7571,
      "aff": 7572,
      "Ġà²Ĺà²®à²¨": 7573,
      "Ġà¤¨à¤ľ": 7574,
      "Ġtowards": 7575,
      "Ġrelease": 7576,
      "ĠØŃÙĪØ§ÙĦÛĴ": 7577,
      "ĠÙ¾Ø§Ø±Ù¹ÛĮ": 7578,
      "à´ķàµ½": 7579,
      "Ġregard": 7580,
      "Ġà²ĸà²°": 7581,
      "ĠØ§ÛĮØ±Ø§ÙĨ": 7582,
      "à¬Ĺà¬¨": 7583,
      "à¤§à¤¯": 7584,
      "Ġà¦ħà¦²à¦ª": 7585,
      "fer": 7586,
      "Ú©Ù¹": 7587,
      "ĠHis": 7588,
      "Ġà¥¨à¥¨": 7589,
      "Ġcountries": 7590,
      "ĠÙĤØ§ÙĨÙĪÙĨ": 7591,
      "ĠØ§Ø«Ø±": 7592,
      "Ġà¤°à¤ķà¤®": 7593,
      "Ġà®īà®Łà®©": 7594,
      "Sh": 7595,
      "oring": 7596,
      "ÙĤØ§ÙĦ": 7597,
      "ĠØ¨ÛĮÙ¹Ú¾": 7598,
      "à°¸à°¨": 7599,
      "Ġà¬ĨàŃŁ": 7600,
      "ĠØ§ÙĦÛģ": 7601,
      "à¬°à¬®à¬£": 7602,
      "ences": 7603,
      "ĠÙħÙĨØµ": 7604,
      "Ġà¦¸à¦¹à¦ľ": 7605,
      "ĠÙĨØ¸Ø§Ùħ": 7606,
      "Ġà¨¦à¨°": 7607,
      "Ġà²Ĩà²¹": 7608,
      "Ġsecurity": 7609,
      "à°¸à°®": 7610,
      "ĠCr": 7611,
      "ulation": 7612,
      "ÙĪÙģ": 7613,
      "à°¾à°ģ": 7614,
      "à´²à´Ļ": 7615,
      "uary": 7616,
      "Ġq": 7617,
      "à§°à¦§": 7618,
      "à°°à°ļ": 7619,
      "Ġà®İà®®": 7620,
      "Ġep": 7621,
      "Ġplayer": 7622,
      "ĠØ¨ÙĦÙĪ": 7623,
      "Ġinternational": 7624,
      "Ġà°Ĩà°«": 7625,
      "à¦ĸà¦¨à¦¤": 7626,
      "à¨®à¨¨": 7627,
      "ĠBang": 7628,
      "Ġà´¶à´ķ": 7629,
      "He": 7630,
      "ĠÙ¾Ø±ÛĮ": 7631,
      "à³ĭà²Ĥ": 7632,
      "àµ¼à´¡": 7633,
      "ĠDep": 7634,
      "à¨ĩà¨¦": 7635,
      "Ġà¤¸à¤¸": 7636,
      "à¦ªà¦¥": 7637,
      "à´£à´¤": 7638,
      "Ø´Ø§Ûģ": 7639,
      "80": 7640,
      "à²ªà²ķ": 7641,
      "à¨ĸà¨¤": 7642,
      "play": 7643,
      "Ġtravel": 7644,
      "co": 7645,
      "fort": 7646,
      "à¦¿?": 7647,
      "Ġà¤Ĩà¤ķà¤°": 7648,
      "ĠØ³ÛĮÚ©": 7649,
      "à¤ıà¤ªà¤Ľ": 7650,
      "Ġà¤ªà¤°à¤¸": 7651,
      "à¤·à¤£à¤®": 7652,
      "à¬°àŃŁ": 7653,
      "à´¨à´µà´°": 7654,
      "à²¦à²Ĺ": 7655,
      "Ġà®İà®©à®ķ": 7656,
      "Ġà¦ħà§±à¦¶": 7657,
      "à¦¯à¦®à¦¨": 7658,
      "à¦Ĺà¦®": 7659,
      "à²¡à²¨": 7660,
      "Ġà¨¬à¨¦à¨²": 7661,
      "Ġà®Ĭà®°": 7662,
      "à¤²à¤ª": 7663,
      "Ġà¤Ĩà¤®à¤ļ": 7664,
      "Ġà®ĩà®Ļ": 7665,
      "Ġà¬īà¬ªà¬¸": 7666,
      "à°¬à°Ł": 7667,
      "à°£à°®": 7668,
      "Ġsoon": 7669,
      "amm": 7670,
      "Ġà¬ħà¬Ľà¬¨": 7671,
      "ollywood": 7672,
      "Ġstatement": 7673,
      "Ġà¬Ĩà¬¬à¬¶": 7674,
      "à²¨à²¦à²²": 7675,
      "ĠApple": 7676,
      "rad": 7677,
      "Ġmor": 7678,
      "à¤®à¤¶": 7679,
      "à¨¾-": 7680,
      "à§ģ'": 7681,
      "Ġber": 7682,
      "à¦§à¦ķ": 7683,
      "ĠÙģØ±ÙħØ§ØªÛĴ": 7684,
      "ĠØ§ÙĦØ³ÙĦØ§Ùħ": 7685,
      "Ġoffer": 7686,
      "Ġà¦ªà¦£": 7687,
      "ĠØ¨ØºÛĮØ±": 7688,
      "Ġà¨¹à¨ľ": 7689,
      "ÙĪØ±Ø³": 7690,
      "àªľàª¯": 7691,
      "à¨¤à¨²": 7692,
      "à¬¸à¬²": 7693,
      "Ġàª®àª¤": 7694,
      "ĠØ±Ú©": 7695,
      "Ġà²Ĵà²³à²Ĺ": 7696,
      "ĠÙĦÚ¯Ø§": 7697,
      "à¯į-": 7698,
      "Ġhost": 7699,
      "à¦Ńà¦¤": 7700,
      "Ġà¨īà¨¸à¨¨": 7701,
      "Ġà¬¬à¬ľ": 7702,
      "ĠØ¬Ú¾": 7703,
      "à®£à®¤": 7704,
      "ĠØ±Ø§Øª": 7705,
      "ĠNe": 7706,
      "à¤½à¤½": 7707,
      "ino": 7708,
      "Ġà¦ªà¦²": 7709,
      "àªµàª®": 7710,
      "arth": 7711,
      "ĠØ¢Ùħ": 7712,
      "Ġà°Ĩà°¨": 7713,
      "ĠàªĺàªŁ": 7714,
      "à´İà´¨": 7715,
      "à²Ī": 7716,
      "ĠÚ©Ø¦ÛĴ": 7717,
      "ĠTwitter": 7718,
      "aker": 7719,
      "istry": 7720,
      "à¨ķà¨£": 7721,
      "Ġà¦īà¦ķ": 7722,
      "à³Ĩ?": 7723,
      "àª¯àªµàª¸": 7724,
      "idence": 7725,
      "Ġstop": 7726,
      "ĠØµØŃÛĮØŃ": 7727,
      "reme": 7728,
      "à¬ªà¬¦": 7729,
      "Ġlost": 7730,
      "ried": 7731,
      "Ind": 7732,
      "Ġà®ķà®´": 7733,
      "à¦īà¦²": 7734,
      "ØºÛĮØ±Ûģ": 7735,
      "à®ªà®µ": 7736,
      "à²³à²¬": 7737,
      "Ġà²¸à²Ń": 7738,
      "à®£à®µà®°": 7739,
      "ĠÚ©ÙĪÙĨ": 7740,
      "Ġà¦Ĺà¦¡": 7741,
      "à¨¾à¨Ĥà¥¤": 7742,
      "Ø¬Ø±": 7743,
      "ĠØ§ÙĦØ²": 7744,
      "à¨ĩà¨¹": 7745,
      "ibility": 7746,
      "à§§à§¯": 7747,
      "à¦¯à¦ª": 7748,
      "Ġsqu": 7749,
      "Ġà¤ľà¤Ĺà¤¤": 7750,
      "ĠÛģÙĪÛĵ": 7751,
      "hu": 7752,
      "à§Īà¥¤": 7753,
      "Ġà´ħà´Ļ": 7754,
      "verage": 7755,
      "ĠÙĤØ¯": 7756,
      "Ġba": 7757,
      "ĠÙ¾ÛĮØ±": 7758,
      "ĠØ¶Ø±ÙĪØ±ÛĮ": 7759,
      "Ġindustry": 7760,
      "à«¬": 7761,
      "à«®": 7762,
      "Ġà¤Ńà¤Ł": 7763,
      "à²ªà²¦": 7764,
      "Ġhistory": 7765,
      "ĠàªĺàªŁàª¨": 7766,
      "à¦®à¦¹": 7767,
      "ĠÛģÙĪØ¬": 7768,
      "ĠWest": 7769,
      "Ġplac": 7770,
      "ĠÂ«": 7771,
      "war": 7772,
      "à¨Ĥ,": 7773,
      "Ġàªªàª¶": 7774,
      "Ġà¬ħà¬ªà¬°": 7775,
      "ither": 7776,
      "Ġà®ķà®³": 7777,
      "ĠÙĦØ§Ú©": 7778,
      "ained": 7779,
      "ĠChina": 7780,
      "à²¯à²µà²¸": 7781,
      "Ġà¤Īà¤¶": 7782,
      "ĠØŃØ³ÛĮÙĨ": 7783,
      "Ġissues": 7784,
      "kar": 7785,
      "à¦¿'": 7786,
      "ĠØ³ÙĦØ³": 7787,
      "uf": 7788,
      "à¯į;": 7789,
      "Ø§ÙĦÙĦÛģ": 7790,
      "ĠSund": 7791,
      "Ġà¬ıà¬Ńà¬³": 7792,
      "Ġà´ıà´¤": 7793,
      "Ġmeeting": 7794,
      "ĠÚ©Ø±ÛĮÙħ": 7795,
      "à§±à¦ķ": 7796,
      "âĢĶ": 7797,
      "Ġà¤ĩà¤¤à¤¨": 7798,
      "Â»": 7799,
      "Ġaud": 7800,
      "ĠØ¬Ø§Ø¦Ø²": 7801,
      "Ġà´ħà´ŀ": 7802,
      "à´§à´ª": 7803,
      "à¦°à¦®à¦£": 7804,
      "ba": 7805,
      "Ġà¤°à¤¤": 7806,
      "ĠØ¢Ø¦": 7807,
      "Ø±ÛĮÙĨ": 7808,
      "Ġàª¸àªª": 7809,
      "rop": 7810,
      "Ġà°ĩà°¸": 7811,
      "ĠØªØ¹Ø¯Ø§Ø¯": 7812,
      "Ġà°ħà°µà°¸à°°": 7813,
      "Ø¯Ø§Ø±ÛĮ": 7814,
      "à²¸à²ķ": 7815,
      "à²¹à²²": 7816,
      "àªļàªµ": 7817,
      "Ġà´Ĩà´³": 7818,
      "ĠØ¹ÙħØ±Ø§ÙĨ": 7819,
      "chie": 7820,
      "Ġpopular": 7821,
      "à©Įà¨Ĥ": 7822,
      "Ġà¤ķà¤¹à¤¨": 7823,
      "Ġà¨ľà¨µ": 7824,
      "ĠÚ©Ø§ÙħÛĮ": 7825,
      "Ġfeatures": 7826,
      "Ø³ÙĪØ³": 7827,
      "ĠØ¨Ø§Ø´": 7828,
      "àªªàª®": 7829,
      "Ġlow": 7830,
      "Ġà¦ļà¦¨à§°": 7831,
      "Ġminister": 7832,
      "Ġà¤ĸà¤¬à¤°": 7833,
      "Ġàª®àª¦àª¦": 7834,
      "à°ı": 7835,
      "à¥ĭà¤Ĥ,": 7836,
      "ira": 7837,
      "Ġà¨Ĺà¨²": 7838,
      "à¬ĺà¬°": 7839,
      "riday": 7840,
      "Ġlocal": 7841,
      "by": 7842,
      "iding": 7843,
      "à¤ĩà¤®": 7844,
      "Ġcontent": 7845,
      "à®µà®©à®®": 7846,
      "ØªÙĦ": 7847,
      "à¦Ńà§±": 7848,
      "Ġà°Ĩà°¶": 7849,
      "Ú©Ø³": 7850,
      "à¨°à¨¹": 7851,
      "à²¨à²°": 7852,
      "Ġà¤¦à¤¸": 7853,
      "ĠØ³ÙĨØ¯": 7854,
      "Ġàªµàª³": 7855,
      "Ġtreat": 7856,
      "ĠàªĨàª¯": 7857,
      "ĠÛģÙĪØ³Ú©": 7858,
      "Ġà¨Ĳà¨²": 7859,
      "à¨Ĩà¨°à¨¥": 7860,
      "à°¯à°µà°¸": 7861,
      "ĠÙħÚ©ÙħÙĦ": 7862,
      "à¥¤'": 7863,
      "à¤¯à¤¸à¤ķ": 7864,
      "Ġleast": 7865,
      "Ġà¤¸à¤¹à¤ľ": 7866,
      "Ġ2013": 7867,
      "Ġcontrol": 7868,
      "Ø§Ø¶ÛĮ": 7869,
      "à«¦à«¦": 7870,
      "Ġà¨Ĺà¨°": 7871,
      "Ġà¨Ĩà¨°": 7872,
      "ĠDi": 7873,
      "à²¨à²¸": 7874,
      "à´Łàµ¼à´¨": 7875,
      "à°ªà°¨": 7876,
      "Ġcareer": 7877,
      ",'": 7878,
      "à¬¤à¬¬": 7879,
      "Ġà¤īà¤¸à¤¨": 7880,
      "Ġà¤ĩà¤¦": 7881,
      "Ġneeds": 7882,
      "Ġmakes": 7883,
      "à¨¡à¨²": 7884,
      "Ġà¬Ĩà¬¸à¬¨": 7885,
      "Ġàª¢": 7886,
      "àµĨ,": 7887,
      "à¨Łà¨²": 7888,
      "Ġprevious": 7889,
      "Ph": 7890,
      "de": 7891,
      "à¦°à¦Ł": 7892,
      "à´¤à´µ": 7893,
      "Ġà²Ĩà²¨": 7894,
      "ills": 7895,
      "wal": 7896,
      "à¦¶à¦²": 7897,
      "Ġà¦ľà¦¡": 7898,
      "ĠØºÙĦØ·": 7899,
      "Ġà¦ľà§°": 7900,
      "Ġà´ħà´¯": 7901,
      "Ġà¦°à¦¹à¦®": 7902,
      "à§°à¦¤à§°": 7903,
      "Ġà²®à²¦": 7904,
      "ĠSa": 7905,
      "Ġà¤ªà¤°à¤¤": 7906,
      "ĠRep": 7907,
      "Ġà²ħà²µà²ķ": 7908,
      "àª²àª°": 7909,
      "Ġloss": 7910,
      "Ġdidn": 7911,
      "à¦¬à¦ĩ": 7912,
      "ĠÙħØŃØ¨Øª": 7913,
      "engal": 7914,
      "ĠÚ¯Ø±Ø¯": 7915,
      "ĠØ¹Ø¯Ø§ÙĦØª": 7916,
      "à°Ľ": 7917,
      "à¨Ĩà¨£": 7918,
      "ĠØ±ÙĤ": 7919,
      "Ġà²İà²ļ": 7920,
      "Ġvill": 7921,
      "ĠModi": 7922,
      "Ġà¬ıà¬¤": 7923,
      "àª§àªµ": 7924,
      "ĠÚ¯Ø±ÙĪ": 7925,
      "Ġenough": 7926,
      "Ġà¤°à¤®": 7927,
      "Ġà¤ĩà¤¨à¤ķ": 7928,
      "Ġmean": 7929,
      "ĠAllah": 7930,
      "hel": 7931,
      "Ġà´ĩà´Ł": 7932,
      "ĠKh": 7933,
      "ĠØ§Ø¹ÙĦÛĮ": 7934,
      "Ġident": 7935,
      "Ġà¤ķà¤Ń": 7936,
      "à°²à°¡": 7937,
      "à¬°à¬ª": 7938,
      "Ġwar": 7939,
      "ĠØ³Ùģ": 7940,
      "irm": 7941,
      "ĠÙħØ³ÙĦÙħØ§ÙĨÙĪÚº": 7942,
      "Ġsignific": 7943,
      "Ġ`": 7944,
      "Ġà°Ĭ": 7945,
      "à°ªà°¦": 7946,
      "à¨ļà¨ķ": 7947,
      "à¤°à¤ķà¤²": 7948,
      "Ġà°ľà°Ĺà°¨": 7949,
      "Ġgrowth": 7950,
      "µÛ": 7951,
      "Ġà¦ķà¦ĸà¦¨": 7952,
      "à²¨à²µà²¨": 7953,
      "à¤Ĺà¤®à¤¨": 7954,
      "àªµàª¡": 7955,
      "ĠÙħÙĨØ¸": 7956,
      "ĠÙħØ¹Ø§Ùħ": 7957,
      "sel": 7958,
      "yn": 7959,
      "à¦¤à¦¦": 7960,
      "àµ¼à´£": 7961,
      "ĠÙĤÛĮÙħ": 7962,
      "Ġvs": 7963,
      "Ġà´Ĵà´´": 7964,
      "Ġà¤ħà¤¸à¤£": 7965,
      "àªŃàª³": 7966,
      "à¬ıà¬¹": 7967,
      "Ġà¥¨à¥©": 7968,
      "Ġmatter": 7969,
      "àµģ,": 7970,
      "Ġà¤®à¤Ĺ": 7971,
      "à¬ķà¬Ł": 7972,
      "à°·à°ķ": 7973,
      "à¬®à¬¬": 7974,
      "ÙĤØ¯": 7975,
      "ĠÙĤØ§Ø¨ÙĦ": 7976,
      "vir": 7977,
      "à¦¸à¦Ń": 7978,
      "Ġà²¬à²¦": 7979,
      "ĠÚ©Ø±Ø¯ÛĮØ§": 7980,
      "Ġà®·": 7981,
      "Ġsat": 7982,
      "Ġà²®à²Ĺ": 7983,
      "Ġà°¸à°¤": 7984,
      "Ġà¨¬à¨²": 7985,
      "àª¡àªª": 7986,
      "Ø·Ûģ": 7987,
      "aps": 7988,
      "Ø§ÛĮÛĮ": 7989,
      "Ġà¬§à¬¨": 7990,
      "ĠØªÛĮØ§Ø±": 7991,
      "If": 7992,
      "alam": 7993,
      "omm": 7994,
      "àª¡àªķ": 7995,
      "rain": 7996,
      "ÚĨÚ¾ÛĴ": 7997,
      "Ġà¤Ĭà¤°": 7998,
      ".)": 7999,
      "lus": 8000,
      "à¦¼à¦¾à¥¤": 8001,
      "ĠAustralia": 8002,
      "Ġà¦¦à¦¶": 8003,
      "Ġut": 8004,
      "ÙħØŃ": 8005,
      "roid": 8006,
      "ĠØŃÙĦ": 8007,
      "aks": 8008,
      "ÙĤÛĮÙĤ": 8009,
      "Ġrelations": 8010,
      "Ġpersonal": 8011,
      "à¦¨à¦°": 8012,
      "à®ªà®¨": 8013,
      "resent": 8014,
      "ĠÙħÛĮÚĪÛĮØ§": 8015,
      "Ġà¤®à¤£": 8016,
      "Ġnam": 8017,
      "Ġà¤Ĺà¤ł": 8018,
      "Ġàªķàª°àª¨": 8019,
      "à¤²à¤¯à¤²": 8020,
      "Ġsuggest": 8021,
      "à®ªà®±": 8022,
      "Ġà®ĩà®Łà®¤": 8023,
      "à¦Ĩà¦ĩ": 8024,
      "ĠØŃØ§ÙĦØª": 8025,
      "Ġà¤¨à¤ª": 8026,
      "Ø²Ø¯": 8027,
      "àª¬àª¤": 8028,
      "Ġà¤ķà¤§": 8029,
      "ĠBar": 8030,
      "ourse": 8031,
      "Ġà¤Ĺà¤¨": 8032,
      "Ġà¦¹à¦¨": 8033,
      "à°°à°ķà°Ł": 8034,
      "ĠÙħØ³ÙĦÙħØ§ÙĨ": 8035,
      "ands": 8036,
      "à¦¸à¦ķà¦²à¦ķ": 8037,
      "°Û": 8038,
      "à¬¨à¬¬": 8039,
      "Ġhon": 8040,
      "à¨ľà¨°": 8041,
      "ima": 8042,
      "à¤ĩà¤¦": 8043,
      "Ġmeans": 8044,
      "Ø§ÙĤØª": 8045,
      "Ú¾ÛĮÚº": 8046,
      "asing": 8047,
      "Ġà¬ıà¬¸": 8048,
      "Ġà¬Ĩà¬ĸ": 8049,
      "Ġàª¶àª¬": 8050,
      "Ġant": 8051,
      "Ġfront": 8052,
      "Ġà¦¸à¦ļ": 8053,
      "à§Ģ-": 8054,
      "ĠPrime": 8055,
      "ĠØ§ÛĮÙħØ§ÙĨ": 8056,
      "Ġti": 8057,
      "ĠÙħØ¸": 8058,
      "Ġà¤¨à¤Ń": 8059,
      "à´¬à´°": 8060,
      "Ġà®°à®ļ": 8061,
      "joy": 8062,
      "Ġà¤¸à¤«à¤²": 8063,
      "à¬ķà¬Łà¬°": 8064,
      "Ġoften": 8065,
      "ĠMumbai": 8066,
      "Ġrul": 8067,
      "ization": 8068,
      "Ġmatches": 8069,
      "Ġur": 8070,
      "à¦¨à¦²": 8071,
      "isk": 8072,
      "Ġà¬ªà¬£": 8073,
      "Ġhours": 8074,
      "ĠØ±Ø§Ø³": 8075,
      "ĠØ²ÛĮØ±": 8076,
      "à°¡à°Ł": 8077,
      "ĠÚ¯Ø±ÙģØª": 8078,
      "hers": 8079,
      ".,": 8080,
      "à¤Ķ": 8081,
      "ĠØ³Ø§": 8082,
      "Ġà¦®à¦Ļ": 8083,
      "Ú¯Ø§Ø±": 8084,
      "ĠÚ©ÛģÛĮÚº": 8085,
      "ĠØ¢ÛĮØª": 8086,
      "à®ªà®¤à®±": 8087,
      "àŃ¦àŃ¦": 8088,
      "Ø±ÙĦ": 8089,
      "ĠØ¨Ø§Ø¯": 8090,
      "ĠØ¢Ùģ": 8091,
      "Ġà¦«à¦²à¦¤": 8092,
      "ights": 8093,
      "ĠChampions": 8094,
      "Ġà²ĺà²Łà²¨": 8095,
      "ÉĻ": 8096,
      "Ġfield": 8097,
      "ĠFriday": 8098,
      "Ġcontinue": 8099,
      "dle": 8100,
      "una": 8101,
      "ĠØ¨ÚĳØ§": 8102,
      "lu": 8103,
      "Ġà®µà®¯à®¤": 8104,
      "ĠSuper": 8105,
      "Ġà¤µà¤¯": 8106,
      "ulture": 8107,
      "Ġsw": 8108,
      "Ġcele": 8109,
      "Ġà¦ĵà¦ļ": 8110,
      "Ġà¨īà¨¸à¨¦": 8111,
      "Ġbehind": 8112,
      "à¤µà¤ļà¤¨": 8113,
      "Ġà®īà®²à®ķ": 8114,
      "ference": 8115,
      "ĠØĽ": 8116,
      "àª¥àª³": 8117,
      "Ġleader": 8118,
      "ĠÚ¯Ø°": 8119,
      "ĠÙĤØ±ÛĮØ¨": 8120,
      "à¯į)": 8121,
      "rew": 8122,
      "Ġrese": 8123,
      "Ġà¨ħà¨¹": 8124,
      "à¤½à¤Ń": 8125,
      "Ġà¬ĩà¬¤": 8126,
      "Ġrate": 8127,
      "ĠÙħÙĤØ§Ùħ": 8128,
      "ĠØ±Ú©Ú¾Ø§": 8129,
      "àŃģà¬ĥ": 8130,
      "ĠØ¨Ø§ÛģØ±": 8131,
      "à¥ĩà¤Ĥ.": 8132,
      "Ġà´¤à´¯": 8133,
      "Ġà´ĵà´°": 8134,
      "à¤Łà¤ª": 8135,
      "à¨¨à¨¤": 8136,
      "à´±à´°": 8137,
      "à¤ıà¤«": 8138,
      "ĠØ¯Ø´": 8139,
      "àµįà´ĥ": 8140,
      "à¤¯à¤¤à¤ķ": 8141,
      "ĠPresident": 8142,
      "à´Ĵ": 8143,
      "àµĭ?": 8144,
      "ilities": 8145,
      "rah": 8146,
      "à°¹à°°": 8147,
      "ĠÙħÙĤØ§Ø¨": 8148,
      "Ġà¦ħà¦¬à¦¶": 8149,
      "Ġthing": 8150,
      "Ġà¨®à¨¦à¨¦": 8151,
      "àª¥àª¨": 8152,
      "àªľàª®": 8153,
      "ĠØ¹Ûģ": 8154,
      "à®´à®²": 8155,
      "Ġà®Ĩà®²": 8156,
      "Ġà°İà°ª": 8157,
      "à¦¸à¦®à¦¯": 8158,
      "ĠØ®ØµÙĪØµ": 8159,
      "Ġà²Ĭ": 8160,
      "à²ķà²·": 8161,
      "ĠàªĹàª°": 8162,
      "à¦łà¦ķ": 8163,
      "à´µà´¨à´¨": 8164,
      "Ġphone": 8165,
      "Ġà²¨à²¨à²Ĺ": 8166,
      "rup": 8167,
      "àª¸àªµ": 8168,
      "ification": 8169,
      "ĠÙħØ¹Ø§Ø´": 8170,
      "à®ĩà®¤": 8171,
      "ĠÙħØº": 8172,
      "Ġà¤²à¤Ĺà¤¤": 8173,
      "Ġà¤²à¤Ĺà¤Ńà¤Ĺ": 8174,
      "VID": 8175,
      "Ú©Ø§Ø±ÛĮ": 8176,
      "Ġà¤ķà¤¬": 8177,
      "anya": 8178,
      "à¬¦à¬ķ": 8179,
      "Ġà²¬à²¸": 8180,
      "ĠØ´ÙĪ": 8181,
      "ript": 8182,
      "Ġdoesn": 8183,
      "Ø±Ø¶": 8184,
      "à´¸à´¤": 8185,
      "Ġà¤¸à¤®à¤¨": 8186,
      "à¦ıà¦¸": 8187,
      "Ø³ÙĪ": 8188,
      "ĠØ³ÛĮÙĨ": 8189,
      "à´®à´¦": 8190,
      "ĠÙĪØ¹": 8191,
      "Ġà¦ĵà¦ªà¦°": 8192,
      "Ġsmart": 8193,
      "ĠØŃØ³ÙĨ": 8194,
      "Ġà¤ķà¤¸à¤°": 8195,
      "ĠÚ©Ø§ÙĦ": 8196,
      "à¤ıà¤µ": 8197,
      "onday": 8198,
      "Ġsituation": 8199,
      "ring": 8200,
      "à¦¨à¦®": 8201,
      "à¬®à¬ļ": 8202,
      "Ø¬Ø³": 8203,
      "à¬īà¬£": 8204,
      "ÙĦØ§Ø³": 8205,
      "à¦Łà¦²": 8206,
      "Ġà¨«à¨²": 8207,
      "AM": 8208,
      "Ġà°ķà°Ł": 8209,
      "oto": 8210,
      "Ġàªıàª®àª¨": 8211,
      "Ã¼": 8212,
      "à«ĩ!": 8213,
      "Ġà¨ĩà¨¸à¨¦": 8214,
      "à®ŀà®°": 8215,
      "à®·à®©": 8216,
      "ĠØªØ±Ø¬": 8217,
      "à²¯à²ª": 8218,
      "à©Ī?": 8219,
      "ĠThese": 8220,
      "ĠKumar": 8221,
      "ĠØªØ¨Ø¯ÛĮ": 8222,
      "à¤²à¤ķà¤°": 8223,
      "Ġà®ļà®¤": 8224,
      "Ġàª²àªķ": 8225,
      "Ġabove": 8226,
      "Ġhuman": 8227,
      "Ġcy": 8228,
      "Ġàª®àª§": 8229,
      "ĠÙĪØºÛĮØ±Ûģ": 8230,
      "Ġà¤Ĺà¤°à¤ľ": 8231,
      "ĠÚ¯Ø²Ø§Ø±": 8232,
      "à²¶à²µ": 8233,
      "Ġà¬ĸà¬£": 8234,
      "à¤ªà¤ª": 8235,
      "ÙħØ³": 8236,
      "Ø§Ø¨Ø±": 8237,
      "à´¶à´¤": 8238,
      "Ġà®ħà®µà®°à®¤": 8239,
      "for": 8240,
      "Ġàª®àª°": 8241,
      "ĠRuss": 8242,
      "à§±à¦¨à§°": 8243,
      "à¨ĩà¨¨": 8244,
      "Ġà²¶à²ķ": 8245,
      "Ġà¬ĸà¬°": 8246,
      "Ġpercent": 8247,
      "Ġentire": 8248,
      "à±į-": 8249,
      "à©ĩ-": 8250,
      "à²Łà²²": 8251,
      "pa": 8252,
      "ØºØ§ÙĨ": 8253,
      "ecially": 8254,
      "ĠÚĨÚ¾ÙĪÚĳ": 8255,
      "Ġdou": 8256,
      "àªªàªķ": 8257,
      "Ġà¦ıà¦ķà¦ĩ": 8258,
      "Ġson": 8259,
      "Ġdiv": 8260,
      "Ġà®¤à®£": 8261,
      "àª¬àª²": 8262,
      "Ġquick": 8263,
      "Ġà¬ĩà¬¨": 8264,
      "Ø§ÙĪÙĨ": 8265,
      "à¤¹à¤¦": 8266,
      "Ġà°¨à°¡": 8267,
      "Ġà¨Ĩà¨¸": 8268,
      "aha": 8269,
      "Ġà¨§à¨°à¨®": 8270,
      "ĠPradesh": 8271,
      "à¨²à¨¨": 8272,
      "Ġfall": 8273,
      "Ġà¦¹à§°": 8274,
      "Ù¾Ú¾Ø±": 8275,
      "Ġà¨Ĩà¨ĩà¨Ĩ": 8276,
      "aga": 8277,
      "Ġà°Ĩà°ķ": 8278,
      "à®³à®Ļ": 8279,
      "Ġà¦Ĩà¦Ł": 8280,
      "Ø¨ÙĦÛĮ": 8281,
      "Ġ196": 8282,
      "Ġdig": 8283,
      "ĠàªĨàª¦": 8284,
      "à¤°à¤®à¤§": 8285,
      "Ġà¬Ĺà¬°": 8286,
      "ĠDay": 8287,
      "ached": 8288,
      "Ġearlier": 8289,
      "à¬¿.": 8290,
      "ĠØ§ÙĨØµ": 8291,
      "ĠØ§Ø®Øª": 8292,
      "Ġà¤ĩà¤µ": 8293,
      "Ġareas": 8294,
      "ĠØªÛģ": 8295,
      "à¦£à¦¨": 8296,
      "ĠÙħØ±Ø¯": 8297,
      "ĠØ¨ÙĦÙĪÚĨ": 8298,
      "ris": 8299,
      "Ġà¤¦à¤¤": 8300,
      "ĠEuro": 8301,
      "aper": 8302,
      "oud": 8303,
      "ĠEd": 8304,
      "Ġquality": 8305,
      "à´³à´µ": 8306,
      "uesday": 8307,
      "à¤°à¤ļà¤¨": 8308,
      "à¥Ģà¤ĥ": 8309,
      "ĠÚ©Ù¾": 8310,
      "Ġda": 8311,
      "Ġàª°àª®": 8312,
      "ians": 8313,
      "Ġteams": 8314,
      "Ġsingle": 8315,
      "à®ªà®²": 8316,
      "Ġà¦ĺà§°à¦¤": 8317,
      "Ġà¤¤à¤µ": 8318,
      "Ġwr": 8319,
      "ĠØ¨Ø§Ø¹": 8320,
      "Ġny": 8321,
      "ĠÚĪØ±": 8322,
      "à¨µà¨¤": 8323,
      "Ġà¤«à¤ķ": 8324,
      "Ġà®īà®£à®µ": 8325,
      "ĠØ§ÙĤØ¯": 8326,
      "Ġà¤¸à¤¡": 8327,
      "ĠCo": 8328,
      "à²·à²ķ": 8329,
      "Ø§ÛģÙĪØ±": 8330,
      "Ġà°ıà°¡": 8331,
      "28": 8332,
      "à¦£à¦®": 8333,
      "emic": 8334,
      "27": 8335,
      "ĠÙĨØ¨": 8336,
      "ĠAI": 8337,
      "ĠApr": 8338,
      "ØµÛĮÙĦ": 8339,
      "Ġsaying": 8340,
      "ÙĨÙħ": 8341,
      "ĠØ±ÙĨÚ¯": 8342,
      "ĠØ¢Ø®": 8343,
      "Ġà¨īà¨ªà¨°": 8344,
      "à«Ń": 8345,
      "à«ģ,": 8346,
      "à¬¸à¬ķ": 8347,
      "Ġjud": 8348,
      "ĠØ±ÙĪØŃ": 8349,
      "Ġenc": 8350,
      "Ġà¤Ńà¤ıà¤ªà¤Ľ": 8351,
      "Ġà°Ľ": 8352,
      "Ġà®©": 8353,
      "ÙĦØ¹": 8354,
      "Ġà¤¬à¤¦": 8355,
      "ĠØ¨ÙĪ": 8356,
      "Ġà®Ĩà®¤": 8357,
      "à¤ľà¤§": 8358,
      "à¨²à¨Ł": 8359,
      "à°µà°Ĺ": 8360,
      "Ġà¨ħà¨«": 8361,
      "Ġà®ļà®Ļ": 8362,
      "ĠØ¨ÙĦØ§": 8363,
      "ĠÙĨØªÛĮ": 8364,
      "ĠÙĨÛĮØ²": 8365,
      "Ġà²®à²²": 8366,
      "Ġà°ħà°Ł": 8367,
      "Ġà¦Ĺà¦Ń": 8368,
      "ique": 8369,
      "à¦²à¦²": 8370,
      "ĠÙĪØ§Ø±": 8371,
      "Ġreview": 8372,
      "ĠAccording": 8373,
      "Ġà¬«à¬³à¬°": 8374,
      "Ġà´ļà´°": 8375,
      "Ġà°Ĺà°²": 8376,
      "ume": 8377,
      "ĠÛģÙħØ§Ø±ÛĮ": 8378,
      "Ġfinancial": 8379,
      "à¦¾à§ĩ": 8380,
      "à§ģà¦ĥ": 8381,
      "Ġà¤¨à¤Ńà¤ıà¤ķ": 8382,
      "ĠØŃÛĮ": 8383,
      "à°°à°Ĺ": 8384,
      "ĠØ§ÙĤØª": 8385,
      "Ġà¤¤à¤¹": 8386,
      "ĠRah": 8387,
      "ĠØ®ÙĪØ¨": 8388,
      "¸Û": 8389,
      "Ġà¬Ĩà¬¤": 8390,
      "Ø§ÙĨÚĨÛģ": 8391,
      "'m": 8392,
      "Â°": 8393,
      "ĠØ§ÙħØ±": 8394,
      "Ġcharacter": 8395,
      "à±ģà°ĥ": 8396,
      "Ġà¤ľà¤¤": 8397,
      "Ġà¨ľà¨Ĺ": 8398,
      "à¤¹à¤£à¤¤": 8399,
      "Ġà²¬à²²": 8400,
      "Ġ38": 8401,
      "Ġclub": 8402,
      "Ġà¤Ĩà¤®à¤¦": 8403,
      "ĠØªØŃØª": 8404,
      "à«¯": 8405,
      "Ġexam": 8406,
      "26": 8407,
      "à®¤à®¨": 8408,
      "à¦Ĺà¦¦": 8409,
      "à¨Ĩà¨¸": 8410,
      "Ġled": 8411,
      "ĠBo": 8412,
      "à°¶à°®": 8413,
      "Ġà¬¶à¬¬": 8414,
      "Ġroad": 8415,
      "ni": 8416,
      "ery": 8417,
      "à«ģ.": 8418,
      "Ġà¨¹à¨®": 8419,
      "ula": 8420,
      "Ġachie": 8421,
      "ĠMonday": 8422,
      "à²£à²¦à²²": 8423,
      "Ġvac": 8424,
      "ession": 8425,
      "Ġpolitical": 8426,
      "Ġà¤ľà¤µà¤³": 8427,
      "Ġpract": 8428,
      "ÙĪØ±Ø¯": 8429,
      "Ø¬ÛĴ": 8430,
      "àµ¼à´ľ": 8431,
      "àª°àª¤àª¨": 8432,
      "Ø®ÛĮ": 8433,
      "ĠWed": 8434,
      "à©§": 8435,
      "Ġà¤ķà¤¦": 8436,
      "Ġà¤¯à¤¶": 8437,
      "Ġà´İà´´": 8438,
      "à¤ĺà¤¨": 8439,
      "Ġà¬Ĺà¬²": 8440,
      "ample": 8441,
      "ospital": 8442,
      "Ġbit": 8443,
      "ĠMed": 8444,
      "Ġà°¦à°Ĺ": 8445,
      "Ġglobal": 8446,
      "àª¨àª¤": 8447,
      "ĠØªØŃØ±ÛĮÚ©": 8448,
      "time": 8449,
      "à¤ªà¤¹": 8450,
      "à²µà²µ": 8451,
      "à°¤à°µ": 8452,
      "Ġà´ķà´Ł": 8453,
      "Ġva": 8454,
      "usp": 8455,
      "ĠØªÙĤØ±ÛĮØ¨": 8456,
      "cial": 8457,
      "Ġpat": 8458,
      "Ø´Ø§ÙĨ": 8459,
      "ĠOct": 8460,
      "à¦īà¦Ł": 8461,
      "PS": 8462,
      "à¦°à¦ľ": 8463,
      "uted": 8464,
      "Ġage": 8465,
      "á¹": 8466,
      "Ġchief": 8467,
      "Ġalle": 8468,
      "Ġ300": 8469,
      "sw": 8470,
      "Ġesp": 8471,
      "Ġà¤īà¤ľ": 8472,
      "ĠÚ©Ø±Ø§": 8473,
      "Ġforward": 8474,
      "ØµÙĦ": 8475,
      "Ġenjoy": 8476,
      "à±Įà°Ĥ": 8477,
      "à¤¤à¤ľ": 8478,
      "à²°à²£à²µ": 8479,
      "à´¨à´ķ": 8480,
      "athi": 8481,
      "Ø¨ØŃ": 8482,
      "Ø¨ÛĮØ±": 8483,
      "Ġindivid": 8484,
      "ĠTuesday": 8485,
      "DI": 8486,
      "à¦°à¦ªà¦°": 8487,
      "àª°àªª": 8488,
      "àª¿.": 8489,
      "Ø§Ø³ÙĦØ§Ùħ": 8490,
      "ĠJanuary": 8491,
      "Ġà¦®à¦°": 8492,
      "Ø¬Ø§": 8493,
      "Ġà°ļà°¦": 8494,
      "Ġà°¨à°¨": 8495,
      "And": 8496,
      "hing": 8497,
      "à¯į?": 8498,
      "à¬ķà¬¤": 8499,
      "àªķàª°àª£": 8500,
      "Ġbi": 8501,
      "Ú¯Ø§": 8502,
      "ÚĨÛĴ": 8503,
      "Ġà¤½": 8504,
      "à¤ķà¤ļ": 8505,
      "atic": 8506,
      "à¤¶à¤¨à¤²": 8507,
      "àª¥àª®": 8508,
      "ÙħÙĨÙ¹": 8509,
      "Ġparticular": 8510,
      "Ġnd": 8511,
      "à°§à°¨": 8512,
      "Ġoffice": 8513,
      "FC": 8514,
      "Ä±": 8515,
      "à¤¨à¤Ń": 8516,
      "Ø³Ù¾": 8517,
      "Ġà°¤à°ķ": 8518,
      "Ġà¬¯à¬¥": 8519,
      "apan": 8520,
      "Ġquite": 8521,
      "á¸": 8522,
      "Ġtell": 8523,
      "Ú¾Ø§": 8524,
      "Ġà®µà®£": 8525,
      "àªĹàª£": 8526,
      "ĠAug": 8527,
      "ĠPart": 8528,
      "à¤Ļà¤ķ": 8529,
      "Ġdoing": 8530,
      "nesday": 8531,
      "AI": 8532,
      "ĠÙĨÚ©ÙĦ": 8533,
      "Ġà¤ļà¤°à¤£": 8534,
      "Ø±ÛĮØ±": 8535,
      "à¤°à¤µà¤£": 8536,
      "Ġproducts": 8537,
      "ges": 8538,
      "à´±à´ŀ": 8539,
      "à²¡à²¬à²¹": 8540,
      "Ġà§±": 8541,
      "Ø§Ø¦Ø´": 8542,
      "ĠØ±Ú©Ú¾ÙĨÛĴ": 8543,
      "ĠØ¨ÚĨÛĴ": 8544,
      "Ġcut": 8545,
      "à¬ĩà¬¦": 8546,
      "à¬Łà¬£": 8547,
      "Ø±ÛĮØ¯": 8548,
      "Ġincrease": 8549,
      "à¤Łà¤«": 8550,
      "Ġnat": 8551,
      "à¨Ńà¨µ": 8552,
      "Ġfocus": 8553,
      "Ġà¤¤à¤¹à¤¤": 8554,
      "Ø¨Ø¹": 8555,
      "roll": 8556,
      "à´°à´µà´§": 8557,
      "Ġà¬¶à¬°": 8558,
      "oke": 8559,
      "Ġà²Ĵà²Ł": 8560,
      "à¨¤à¨¨": 8561,
      "Ġpri": 8562,
      "Ġpict": 8563,
      "Ø¹ÙĦ": 8564,
      "Ġà¦¶à¦¨": 8565,
      "Ø¨Ø±Ø§Ûģ": 8566,
      "Ġquar": 8567,
      "'re": 8568,
      "ursday": 8569,
      "Ġàªħàª²àªĹ": 8570,
      "ero": 8571,
      "à¦ħà¦¨": 8572,
      "Ġpolicy": 8573,
      "Ġviol": 8574,
      "Ġreveal": 8575,
      "à¤ļà¤¸": 8576,
      "Ġà¤¦à¤¬": 8577,
      "à¨¦à¨¨": 8578,
      "Ġà¦ıà¦ª": 8579,
      "Ġà°®à°¦": 8580,
      "Ġà¬¨à¬°": 8581,
      "Ġsaw": 8582,
      "Ø§ÙģÛĮ": 8583,
      "Ġminutes": 8584,
      "à´¿à´ĥ": 8585,
      "à¦²à¦ª": 8586,
      "Ø§ÙĦØª": 8587,
      "ĠÚ©Ø±Ú©ÛĴ": 8588,
      "osing": 8589,
      "ĠÙħØ·Ø§ÙĦ": 8590,
      "Ġà¤ıà¤ľ": 8591,
      "Ġà¦¬à¦²à¦¤": 8592,
      "à¤Ĩà¤¯": 8593,
      "ĠÙħØ³Ø§Ø¦ÙĦ": 8594,
      "Ġà¤¸à¤Ĺà¤³": 8595,
      "à¤Łà¤ļ": 8596,
      "Ġà¤Ĩà¤ĩ": 8597,
      "à¦Łà¦°": 8598,
      "à¦Ńà§°": 8599,
      "rodu": 8600,
      "ĠØŃØ¬": 8601,
      "Ø³ØªÛģ": 8602,
      "ĠØ§ÙħÛĮØ¯": 8603,
      "Ġà¦Īà¦¶": 8604,
      "à§Ł": 8605,
      "à¤¦à¤¬": 8606,
      "Ġà¤®à¤¨à¤¸": 8607,
      "Ġ2012": 8608,
      "coming": 8609,
      "ĠØ¢Ø¯ÙħÛĮ": 8610,
      "ze": 8611,
      "ĠÚ©ÛĮØ³": 8612,
      "ids": 8613,
      "Ġku": 8614,
      "à¤ĺà¤ķ": 8615,
      "Ġà¤ľà¤¬à¤ķ": 8616,
      "à¤Ĺà¤łà¤¨": 8617,
      "Ġà¨¦à¨°à¨¸": 8618,
      "ĠØ³Ø§Ø¨ÙĤ": 8619,
      "Ġà¨Ķà¨°à¨¤": 8620,
      "Ú¯ÙĦ": 8621,
      "ott": 8622,
      "Ġà²¦à²°": 8623,
      "Ġimpact": 8624,
      "Ġà°¬à°²": 8625,
      "ÙĪÛĮØ²": 8626,
      "ĠØ¬Ø³Ùħ": 8627,
      "Ġfriends": 8628,
      "à³į'": 8629,
      "àª®àªĹ": 8630,
      "Ġà®®à®²": 8631,
      "à®£à®©": 8632,
      "oni": 8633,
      "Ġlab": 8634,
      "àª¡àª¤": 8635,
      "à´§à´®": 8636,
      "à´¶à´Ļ": 8637,
      "Ø¶Ûģ": 8638,
      "'à¥¤": 8639,
      "à´¨à´ª": 8640,
      "à¤¶à¤ª": 8641,
      "Ġà´ĩà´µà´°": 8642,
      "andid": 8643,
      "Ġà²¬à²³à²ķ": 8644,
      "à²¦à²¦": 8645,
      "ÙĦØ§Ø¹": 8646,
      "Ġà¨ħà¨®": 8647,
      "unic": 8648,
      "Ø±ÙĪÙģ": 8649,
      "Ġreceived": 8650,
      "mp": 8651,
      "ĠØ³Ø§Ø²": 8652,
      "à¦Ĺà¦ŀ": 8653,
      "à±Ĥ,": 8654,
      "Ġ....": 8655,
      "à´°à´ĸ": 8656,
      "Ġà²¨à²Ĺ": 8657,
      "ĠØ¹Ø±Ø¨": 8658,
      "Ġcreate": 8659,
      "ĠJuly": 8660,
      "Ãµ": 8661,
      "ÙĨØ§ÙĨÚĨÛģ": 8662,
      "Ġà¬¸à¬ļ": 8663,
      "à°¥à°®": 8664,
      "Ġà¨ªà¨°à¨®": 8665,
      "ĠTechn": 8666,
      "Ġà®ķà®±": 8667,
      "ĠàªĨàªķ": 8668,
      "à¤łà¤¤": 8669,
      "Ġà¨Ĩà¨§": 8670,
      "Ġshared": 8671,
      "Ġà®µà®ļ": 8672,
      "ĠMy": 8673,
      "cember": 8674,
      "Ġàª²àªĪàª¨": 8675,
      "Ġproblem": 8676,
      "29": 8677,
      "AS": 8678,
      "Ġcourse": 8679,
      "ĠØ¹ÙĤ": 8680,
      "à±į'": 8681,
      "à¤®à¤°à¤£": 8682,
      "Ġà¤ľà¤¯": 8683,
      "utions": 8684,
      "àµĢà´Ĥ": 8685,
      "ĠComp": 8686,
      "à§ĩà¦Ĥ": 8687,
      "ĠÛģÙħÛĮ": 8688,
      "Ġà¤Ĩà¤ī": 8689,
      "ĠSam": 8690,
      "ĠØ¹ÙĦØ§Ùħ": 8691,
      "agar": 8692,
      "Ġamount": 8693,
      "ĠÙħÙĪÙĦØ§ÙĨØ§": 8694,
      "AL": 8695,
      "Ġà´ĺ": 8696,
      "Ġà¬ľà¬°": 8697,
      "Ġà´ħà´±à´¸": 8698,
      "ĠØ´ÛĮØ®": 8699,
      "Ġà¤ķà¤ķ": 8700,
      "à´±à´²": 8701,
      "Ġground": 8702,
      "Ġsignificant": 8703,
      "à¨Ĩà¨¹": 8704,
      "ĠØ§Ø¹Ø¸Ùħ": 8705,
      "à¤²à¤¦": 8706,
      "Ġà¨¦à¨²": 8707,
      "à´¸à´®à´¯": 8708,
      "ĠMoh": 8709,
      "ĠØ®Ø§Ø±": 8710,
      "à¤¥à¤°": 8711,
      "à²¡à²µ": 8712,
      "Ġgirl": 8713,
      "à²·à²¤": 8714,
      "Ġà²¸à²¦à²¸": 8715,
      "ĠSunday": 8716,
      "ĠØ¨Ø§Ø¹Ø«": 8717,
      "Ġà¦¤à¦°": 8718,
      "ĠPunjab": 8719,
      "Ġdecided": 8720,
      "ĠØ§ÙĨØ³Ø§ÙĨÛĮ": 8721,
      "à®£à®°": 8722,
      "Ġà²µà²°à²¦": 8723,
      "ags": 8724,
      "à¤ħà¤ª": 8725,
      "à´°à´£à´®": 8726,
      "ĠØ§Ø±Ø¯ÙĪ": 8727,
      "Ġdetails": 8728,
      "ĠÙĪØ§Ù¾Ø³": 8729,
      "à²°à²¯à²¤": 8730,
      "Ġfast": 8731,
      "ĠØ¯Ø§Ø¯": 8732,
      "Ġlakh": 8733,
      "Ø²ÙĦ": 8734,
      "Ġà¤ĸà¤¤": 8735,
      "ored": 8736,
      "Ġà¥¨à¥¬": 8737,
      "à¤¯à¤°à¤²": 8738,
      "§à³": 8739,
      "à®µà®¨": 8740,
      "à¦¬à¦²à¦Ĺ": 8741,
      "Ġà®ĩà®¤à®±": 8742,
      "nal": 8743,
      "ream": 8744,
      "onment": 8745,
      "à®²à®ª": 8746,
      "Ġà²¸à²°à²ķ": 8747,
      "Ġà¬®à¬°": 8748,
      "Ġà¬ıà¬ĩ": 8749,
      "ĠSharma": 8750,
      "ĠÙħÙĦÛĮ": 8751,
      "Ġpan": 8752,
      "Ġà²¬à²¹à²³": 8753,
      "ficult": 8754,
      "oe": 8755,
      "à²¹à²°": 8756,
      "ĠFr": 8757,
      "Ġà¥¨à¥®": 8758,
      "Ġà´Ńà´ķ": 8759,
      "Ġrespons": 8760,
      "à¦¹à¦¬": 8761,
      "à±Ģ.": 8762,
      "ilt": 8763,
      "ĠSy": 8764,
      "Ġà®Ĩà®±": 8765,
      "à´¹à´°": 8766,
      "Ġround": 8767,
      "ĠØ¯ÛĮØªØ§": 8768,
      "àªĿàª¨": 8769,
      "ĠUniversity": 8770,
      "Ġposition": 8771,
      "ĠApril": 8772,
      "ji": 8773,
      "Ġà¦¸à¦ŀ": 8774,
      "à¨ķà¨¦": 8775,
      "àŃŁà¬®à¬°": 8776,
      "à´¹à´ļà´°": 8777,
      "ains": 8778,
      "Ġ48": 8779,
      "à¬ħà¬Ľ": 8780,
      "nya": 8781,
      "ify": 8782,
      "Ġ2011": 8783,
      "There": 8784,
      "aran": 8785,
      "Ġpet": 8786,
      "àª¸àªª": 8787,
      "ĠÚ¯Ø²": 8788,
      "Ġespecially": 8789,
      "Ġà¦ıà¦¯": 8790,
      "ØŃØ§ÙĦ": 8791,
      "ift": 8792,
      "ĠØªØ±ÙĤÛĮ": 8793,
      "Ġ150": 8794,
      "à°£à°²": 8795,
      "acebook": 8796,
      "à¦®à¦ķà¦°": 8797,
      "Ġmass": 8798,
      "Ġà®ķà®©": 8799,
      "à¦¶à¦¬": 8800,
      "àª¦àªµ": 8801,
      "ĠØ±ÛĮØ§Ø³Øª": 8802,
      "Ø¯Ø§ÙĨ": 8803,
      "Ġà¬¸à¬«à¬³": 8804,
      "Ġà®ªà®Łà®®": 8805,
      "Ġà®Ĵà®ª": 8806,
      "ĠWednesday": 8807,
      "Ġà¤µà¤¤": 8808,
      "à¦ªà¦£": 8809,
      "Ġà®İà®¸": 8810,
      "Ġà²İà²·": 8811,
      "à®£à®µ": 8812,
      "Ġele": 8813,
      "Ġà´ľà´¯": 8814,
      "Ġexpect": 8815,
      "ĠØ§Ø¬Ø§Ø²": 8816,
      "Ġmusic": 8817,
      "How": 8818,
      "Ġà²Ĵà²¤": 8819,
      "weet": 8820,
      "à¬¨à¬¨": 8821,
      "à²¯à²Ĺà²³à²¨": 8822,
      "à°ªà°¥": 8823,
      "à³ĩ.": 8824,
      "ĠØ³Ø·": 8825,
      "Ġà¬¨à¬®": 8826,
      "Ġà®Ĩà®®": 8827,
      "ĠØ¨ÙĨØ§ÙĨÛĴ": 8828,
      "Ġhowever": 8829,
      "Ġmoment": 8830,
      "udd": 8831,
      "àª®àªļ": 8832,
      "ĠCor": 8833,
      "empt": 8834,
      "Ġdeep": 8835,
      "ĠThursday": 8836,
      "ĠÚĨØ§ÛģØ¦ÛĴ": 8837,
      "ĠØŃÙĤÛĮÙĤØª": 8838,
      "Ú©ÛĮØ§": 8839,
      "ĠØ¬Ø§Ø±Ûģ": 8840,
      "Ġredu": 8841,
      "aily": 8842,
      "ĠØ£ÙĨ": 8843,
      "Ġinclude": 8844,
      "Ġdifficult": 8845,
      "ĠCOVID": 8846,
      "Ø§ÛĮØ¯": 8847,
      "à¦ĩà¦¡": 8848,
      "Ġàªªàªķ": 8849,
      "ĠàªªàªŁ": 8850,
      "ĠSports": 8851,
      "à¤īà¤¤": 8852,
      "Ġcommunity": 8853,
      "Ġà¤Ľà¤²à¤«à¤²": 8854,
      "ÙĪØ¬ÙĪØ¯": 8855,
      "Ġà¦®à¦ľ": 8856,
      "Ø§Ø¹Ø¸Ùħ": 8857,
      "rought": 8858,
      "à¤¯à¤¹à¤°": 8859,
      "à¤Łà¤¬": 8860,
      "Ġcannot": 8861,
      "Ġtour": 8862,
      "Ġà´®à´¹": 8863,
      "Ġà´ħà´°": 8864,
      "Ġà¬ħà¬¶": 8865,
      "à°µà°°à°ķ": 8866,
      "Ø®ÙĪØ§Ø³Øª": 8867,
      "à§°à¦ªà§°": 8868,
      "ĠØ¨ÙĪÙĦ": 8869,
      "àª·àª®": 8870,
      "Ġàªļàª°": 8871,
      "Ġà´¨à´·": 8872,
      "ĠØ¹Ø·": 8873,
      "Ġà²¤à²°": 8874,
      "though": 8875,
      "à¬īà¬¨": 8876,
      "ĠØ³ÙĦØ§Ùħ": 8877,
      "ĠGu": 8878,
      "à¤ħà¤¸": 8879,
      "tee": 8880,
      "Ġà²®à²¨à²¸": 8881,
      "Ġsuper": 8882,
      "Ġofficials": 8883,
      "Ġcurrently": 8884,
      "Ch": 8885,
      "You": 8886,
      "Ġà¤µà¤ļà¤¨": 8887,
      "à²¬à²³": 8888,
      "ĠNow": 8889,
      "Ġconduct": 8890,
      "ÙĨÛĮÙħ": 8891,
      "à°¾à°Ĥ.": 8892,
      "à§ĩ!": 8893,
      "enior": 8894,
      "à´®à´±": 8895,
      "Ġà¦ħà¦Ļ": 8896,
      "ĠBengal": 8897,
      "Ġuntil": 8898,
      "Ġà°Ĩà°¡": 8899,
      "Ġtw": 8900,
      "Ġà¬¶à¬¤": 8901,
      "ĠÙĨÙĪØ§Ø²": 8902,
      "500": 8903,
      "à¬·àŃŁ": 8904,
      "ĠHar": 8905,
      "Ġinvestig": 8906,
      "ĠØ°Ø±ÛĮØ¹ÛĴ": 8907,
      "Ġà®ĥ": 8908,
      "à¨Ĥà¥¤": 8909,
      "à¨ľà¨ª": 8910,
      "ĠIST": 8911,
      "elt": 8912,
      "ĠAfric": 8913,
      "Ġalmost": 8914,
      "ĠJune": 8915,
      "Ġspace": 8916,
      "à°¨à°¤": 8917,
      "à¦ªà¦·": 8918,
      "ĠIPL": 8919,
      "ĠAndroid": 8920,
      "Ġà¨ªà¨¸": 8921,
      "Ġà®ıà®©": 8922,
      "à¬¥à¬¨": 8923,
      "Ġà¨ķà¨°à¨®": 8924,
      "ĠRead": 8925,
      "Ġtarget": 8926,
      "à¤Ĺà¤ľ": 8927,
      "à²ķà²¦": 8928,
      "Ġà¬¬à¬²": 8929,
      "à¦¦à¦¤": 8930,
      "Ġà¤¹à¤¨": 8931,
      "à¦ľà¦°": 8932,
      "ĠÙĪÛģÛĮ": 8933,
      "Ġà°ıà°ª": 8934,
      "à¤¨à¤®à¤§": 8935,
      "ĠØ§ÚĨ": 8936,
      "à¬¨à¬Ł": 8937,
      "Ġà¤°à¤ļà¤¨": 8938,
      "ĠàªĨàªĸ": 8939,
      "ĠØ§ÙĦØµ": 8940,
      "ĠDo": 8941,
      "Ġà®īà®²": 8942,
      "Ġ195": 8943,
      "ĠàªĿàª¡àªª": 8944,
      "35": 8945,
      "down": 8946,
      "Ġà´İà´Ļ": 8947,
      "ĠØ¨Ú¾Ø§Ø¦ÛĮ": 8948,
      "à´ĺà´Łà´¨": 8949,
      "ĠDecember": 8950,
      "Ġà¤ľà¤£": 8951,
      "Ø§Ø¬ÛĮ": 8952,
      "Ġalleged": 8953,
      "ĠÚ©ÙĪØ±": 8954,
      "à¬ªà¬Ł": 8955,
      "Ø§Ø±ØªÛĮ": 8956,
      "Ġà¦ħà¦¥à¦¬": 8957,
      "à²Ľ": 8958,
      "à¤¤à¤¬": 8959,
      "Ġà¤īà¤ªà¤¨": 8960,
      "ĠØ§ÙĦÙĤ": 8961,
      "raft": 8962,
      "Ġcontrib": 8963,
      "à²Ĩà²°": 8964,
      "ĠØ§ÙĨØ¬Ø§Ùħ": 8965,
      "Ø¨Ø§Ø±Ûģ": 8966,
      "Ġà°Ĩà°¤": 8967,
      "Ġà¨«à¨°": 8968,
      "Ġabs": 8969,
      "ĠÛģÙħÛĮØ´Ûģ": 8970,
      "now": 8971,
      "à¦²à¦Ł": 8972,
      "Ġneg": 8973,
      "ĠÚ©Ø´ÙĪØ±": 8974,
      "ĠÙĦÚ©Ú¾Ø§": 8975,
      "Ġà¦Ĩà¦Łà¦ķ": 8976,
      "Ġà¦ļà¦¤": 8977,
      "Ġà¤ıà¤ķà¤¦": 8978,
      "ĠØªÙĪØ¬Ûģ": 8979,
      "à´¯à´¤à´¯": 8980,
      "ober": 8981,
      "cast": 8982,
      "Ġà¤¨à¤Ĺ": 8983,
      "à²¶à²Ĺà²³": 8984,
      "ĠÙĤØ·": 8985,
      "ĠÙĨÙĤØµ": 8986,
      "Al": 8987,
      "Ġà¤Ĩà¤¢": 8988,
      "ĠØ³Ø§Øª": 8989,
      "ĠÙĤØªÙĦ": 8990,
      "Ġà¥¨à¥Ń": 8991,
      "Ġà²ĩà²¦à²ķ": 8992,
      "à¦ĺà¦Łà¦¨": 8993,
      "Ġà°¥": 8994,
      "asa": 8995,
      "à¤ĥà¥¤": 8996,
      "ĠØ¢ÙĪØ§Ø²": 8997,
      "Ġà²Ĵà²¬": 8998,
      "On": 8999,
      "à¤¸à¤Ĺ": 9000,
      "ÙĪÚ©": 9001,
      "à¬°à¬ľ": 9002,
      "ØªØ§ÙĦ": 9003,
      "Ġsil": 9004,
      "Ø§Ø¨Ûģ": 9005,
      "Ġà´Ńà´°à´£": 9006,
      "Ġbillion": 9007,
      "Ġà²¨à²Ĺà²°": 9008,
      "Ġà²ħà²¦à²ķ": 9009,
      "àª¤àªµ": 9010,
      "Ġàª¨àª°": 9011,
      "Ġà°¤à°¯": 9012,
      "Ġà¤ľà¤Ĺà¤¹": 9013,
      "à¨¤à¨µà¨ª": 9014,
      "àª§àª°": 9015,
      "Ġà¨ĩà¨¹à¨¨": 9016,
      "Ġarrest": 9017,
      "ĠØ¨ÚĨÙĪÚº": 9018,
      "à´¨à´¨": 9019,
      "Ġà¦¤à¦¦à¦¨": 9020,
      "ĠÙĨÚ©Ø§ÙĦ": 9021,
      "based": 9022,
      "medi": 9023,
      "à¦²à¦¸": 9024,
      "Ø§Ø±Ùģ": 9025,
      "ĠTamil": 9026,
      "Ġrepresent": 9027,
      "Ġbreak": 9028,
      "à¤¾\"": 9029,
      "à¤¯à¤Łà¤¨": 9030,
      "Ġbeaut": 9031,
      "à±ģ..": 9032,
      "à¤°à¤¸à¤Ļ": 9033,
      "ĠØ¨Ø±Ø³": 9034,
      "Ġà¬ľà¬£à¬Ļ": 9035,
      "Ġà¤¤à¤ļ": 9036,
      "Ġà¬ªà¬Ľ": 9037,
      "ental": 9038,
      "Ġàª¸àª®àª¸": 9039,
      "Ġhimself": 9040,
      "·Û": 9041,
      "Ġà¦®à¦£": 9042,
      "à¦ľà¦®": 9043,
      "à¤µà¤¤à¤¨": 9044,
      "ĠFeb": 9045,
      "Ġactor": 9046,
      "Ġchalleng": 9047,
      "Ġib": 9048,
      "à¬¾-": 9049,
      "à²¤à²ªà²¡": 9050,
      "à´ªà´®": 9051,
      "ÚĨÛģ": 9052,
      "ĠMa": 9053,
      "àªĪàªķ": 9054,
      "ĠÚĨÛĮÙĨ": 9055,
      "Ġà¤®à¤¹à¤¸": 9056,
      "ĠJoh": 9057,
      "Ġconsider": 9058,
      "Ġà¤®à¤¦à¤¦": 9059,
      "II": 9060,
      "à®°à®¤à®®": 9061,
      "Ġà¦¹à¦ł": 9062,
      "ĠStates": 9063,
      "Ġà²¹à²³": 9064,
      "ule": 9065,
      "àª¨àªĹ": 9066,
      "à¦®à¦ĩ": 9067,
      "à²²à²Ń": 9068,
      "àª¿,": 9069,
      "à¤ĸà¤µ": 9070,
      "Ġcontract": 9071,
      "à®Ĩà®®": 9072,
      "Ġer": 9073,
      "à¤¡à¤ª": 9074,
      "Ġtourn": 9075,
      "Ġà°¤à°¦": 9076,
      "ĠØ·ÙĦØ¨": 9077,
      "à¤ķà¤²à¤¨": 9078,
      "à¦ĩà¦¸": 9079,
      "Ġà´¶à´¤à´®": 9080,
      "ĠInternational": 9081,
      "ensive": 9082,
      "à¨¦à¨°à¨¤": 9083,
      "Ġà®ķà®®": 9084,
      "ĠÙĤØ¨ÙĪÙĦ": 9085,
      "à¤·à¤µ": 9086,
      "Ø§ÙĦÛģ": 9087,
      "ĠHigh": 9088,
      "à¤¢à¤£": 9089,
      "att": 9090,
      "ĠSri": 9091,
      "ĠÙģÙĦÙħ": 9092,
      "Ġà««": 9093,
      "ÙĨÛģØ§": 9094,
      "Ġà¬¬à¬¦": 9095,
      "Ġà®Ĵà®µ": 9096,
      "ĠØŃØ§ÙĦØ§Øª": 9097,
      "ĠPolice": 9098,
      "à¤µà¤¯à¤®": 9099,
      "enn": 9100,
      "à¦¦à¦¶": 9101,
      "Ġfre": 9102,
      "ĠØ³Ú©ÛĴ": 9103,
      "ĠĊ": 9104,
      "à²ķà²¤": 9105,
      "à°¦à°ķ": 9106,
      "Ġàª¸àªŃ": 9107,
      "ĠØ¬Ø§Ùħ": 9108,
      "ĠÛĶÛĶÛĶ": 9109,
      "Ġà¨īà¨®": 9110,
      "à¤½à¤¤": 9111,
      "Ġcaptain": 9112,
      "ĠØ±ÙĪÙ¾ÛĴ": 9113,
      "à¬¬à¬¦": 9114,
      "Ġmention": 9115,
      "Ġhy": 9116,
      "ĠÙĪØ¬ÙĪØ¯": 9117,
      "ÙģÙĪ": 9118,
      "ĠÙĤÙĪÙħÛĮ": 9119,
      "Ġpresident": 9120,
      "à´Ľ": 9121,
      "à²¨à²ª": 9122,
      "anks": 9123,
      "Ġà¤Ńà¤ıà¤°": 9124,
      "Ġà¤ļà¤²à¤¤": 9125,
      "Ġà°¸à°¨": 9126,
      "ĠAng": 9127,
      "Ġà¨Ĩà¨ı": 9128,
      "à¤īà¤¦": 9129,
      "\\\\\\\\\\\\\\\\": 9130,
      "àª¨àª°": 9131,
      "Ġdate": 9132,
      "Ø´Ø§Ø¯": 9133,
      "ĠØµØ¯": 9134,
      "\\'": 9135,
      "Ġsong": 9136,
      "Ġà°¶à°°": 9137,
      "ĠØ§Ø³ØªØ§ÙĨ": 9138,
      "Ġà¦¸à¦ľ": 9139,
      "Ġà¦Ĩà¦ĵà¦¯": 9140,
      "à²£à²¨": 9141,
      "Ġà§§à§ª": 9142,
      "Ġbegin": 9143,
      "Ġà¤°à¤ĸà¤¨": 9144,
      "Ġreach": 9145,
      "erson": 9146,
      "ĠEnglish": 9147,
      "à²¸à²Ĺ": 9148,
      "Ġmis": 9149,
      "à¦Ĺà¦łà¦¨": 9150,
      "à¬³àŃŁà¬°": 9151,
      "Ġà´¨à´Ĺ": 9152,
      "ĠØ§ÙĦØ¯ÛĮÙĨ": 9153,
      "ĠDis": 9154,
      "ube": 9155,
      "ĠÙģÙĪØ¬": 9156,
      "à¬ıà¬®": 9157,
      "Ġà¤ıà¤µà¤®": 9158,
      "à´ķà´°à´®": 9159,
      "SH": 9160,
      "à²·à²µ": 9161,
      "ĠUp": 9162,
      "à®µà®©à®¤": 9163,
      "Ġà¦¸à¦¹à¦¯": 9164,
      "ÚĪÛĮÙĪ": 9165,
      "Ġà¤Ńà¤£": 9166,
      "eta": 9167,
      "Ġà¬Ńà¬Ĺ": 9168,
      "Ġà¬Ļ": 9169,
      "Ġà¤µà¤ľà¤¹": 9170,
      "Ġà°Ĩà°¹": 9171,
      "aign": 9172,
      "à´±à´ļ": 9173,
      "Ġàªķàª¨": 9174,
      "Ġàª¸àª¦": 9175,
      "Ġà¤ĩà¤¤à¤ķ": 9176,
      "ĠÚĨØ§ÛģØªÛĴ": 9177,
      "à¤ľà¤¬": 9178,
      "atory": 9179,
      "ĠØªØ®": 9180,
      "Ġà¨¤à¨¹": 9181,
      "Ġà¤ĸà¤²": 9182,
      "iri": 9183,
      "Ġà´ħà´µàµ¼": 9184,
      "Ġrights": 9185,
      "mi": 9186,
      "à¦¿)": 9187,
      "Ġà¤Ńà¤°à¤¤": 9188,
      "ĠØªØ±ÛĮÙĨ": 9189,
      "Ġà´ķà´£à´ķ": 9190,
      "Ġà¦ļà¦°": 9191,
      "Ø²Ùħ": 9192,
      "ĠCont": 9193,
      "Ġshall": 9194,
      "Ġà²Ĵà²ª": 9195,
      "àªŁàª°àª¨": 9196,
      "Ġàªľàª¯": 9197,
      "Ġà²ħà²·": 9198,
      "Ġseven": 9199,
      "ĠØµØŃØª": 9200,
      "Ġcheck": 9201,
      "Ġahead": 9202,
      "Ġmother": 9203,
      "ĠØ§Ø¨Ú¾ÛĮ": 9204,
      "Ġbelow": 9205,
      "Ġà¬ĭ": 9206,
      "Ġbar": 9207,
      "Ġà¨ħà¨²": 9208,
      "ĠAir": 9209,
      "ĠØ±ÙĪÚ©": 9210,
      "Ġimprove": 9211,
      "ĠØ§Ø¬Ø§Ø²Øª": 9212,
      "à¨§à¨¨": 9213,
      "ogn": 9214,
      "ÙħØ§ÙĦÚ©": 9215,
      "ĠØ¯Ø§Ø®ÙĦ": 9216,
      "ĠØ¯Ùħ": 9217,
      "à²Łà²Ĺ": 9218,
      "Ġà¨ħà¨°à¨¥": 9219,
      "ema": 9220,
      "àµ¾à´ª": 9221,
      "ips": 9222,
      "Ġàªªàª¡àª¶": 9223,
      "ÛĮÙĨÚĪ": 9224,
      "Ġà¬Ńà¬°": 9225,
      "ĠJust": 9226,
      "Ġà¬ĩà¬£": 9227,
      "hest": 9228,
      "à²¨à²¤": 9229,
      "ĠÙħØ¨Ø§Ø±": 9230,
      "Ġà¤¤à¤¦à¤¨": 9231,
      "ĠàªīàªŃ": 9232,
      "Ġ2024": 9233,
      "Ġà®ľà®©": 9234,
      "Ġcelebr": 9235,
      "Ġà¨ļà¨®": 9236,
      "resh": 9237,
      "Ġworks": 9238,
      "ĠÙħØ³Ø¬Ø¯": 9239,
      "ĠÙħØªØ§Ø«": 9240,
      "Ġà¤ħà¤µà¤¸à¤°": 9241,
      "selves": 9242,
      "à´£à´¯": 9243,
      "men": 9244,
      "à°®à°µ": 9245,
      "Ġàªľàª¶": 9246,
      "Ġà®ĩà®³": 9247,
      "Ġrev": 9248,
      "Ġà²ĩà²¬": 9249,
      "àªŃàªĹ": 9250,
      "Ġ44": 9251,
      "à´Łàµ»": 9252,
      "Ø¨Ø§Ø¯": 9253,
      "à¦¶à¦Ĺ": 9254,
      "Ġà¬ħà¬£": 9255,
      "Ġà´ĩà´ķ": 9256,
      "ÙĨØ¯Ø±": 9257,
      "ĠØ³ÙĪØ±": 9258,
      "illi": 9259,
      "hips": 9260,
      "ON": 9261,
      "à¤²à¤¯à¤®": 9262,
      "erial": 9263,
      "Ġà°ªà°ķ": 9264,
      "à°ļà°¬à°¡": 9265,
      "à«ĩ.\\": 9266,
      "ĠØ¯ÙĪØ³Øª": 9267,
      "àªĨàª°": 9268,
      "à®İà®©": 9269,
      "ÇĿ": 9270,
      "Ġir": 9271,
      "à¨ľà¨²": 9272,
      "ĠMc": 9273,
      "à°®à°®": 9274,
      "àª£àª¸": 9275,
      "à¤ħà¤¥": 9276,
      "Ġsuff": 9277,
      "ovember": 9278,
      "à°ļà°ķ": 9279,
      "ĠSept": 9280,
      "Ġà´ħà´ªà´ķ": 9281,
      "ÛĮÚ©ÛĮ": 9282,
      "Ġimm": 9283,
      "ĠØ°Ûģ": 9284,
      "à¬¬à¬Ļ": 9285,
      "Ġemer": 9286,
      "Ġà²¤à²¯": 9287,
      "à¦ıà¦¨à¦ª": 9288,
      "à´ķà´µ": 9289,
      "Ġà«ª": 9290,
[...]
