{
  "version": "1.0",
  "truncation": null,
  "padding": null,
  "added_tokens": [
    {
      "id": 0,
      "content": "<unk>",
      "single_word": false,
      "lstrip": false,
      "rstrip": false,
      "normalized": false,
      "special": true
    },
    {
      "id": 1,
      "content": "<s>",
      "single_word": false,
      "lstrip": false,
      "rstrip": false,
      "normalized": false,
      "special": true
    },
    {
      "id": 2,
      "content": "</s>",
      "single_word": false,
      "lstrip": false,
      "rstrip": false,
      "normalized": false,
      "special": true
    },
    {
      "id": 3,
      "content": "<pad>",
      "single_word": false,
      "lstrip": false,
      "rstrip": false,
      "normalized": false,
      "special": true
    }
  ],
  "normalizer": null,
  "pre_tokenizer": {
    "type": "ByteLevel",
    "add_prefix_space": false,
    "trim_offsets": true,
    "use_regex": true
  },
  "post_processor": null,
  "decoder": {
    "type": "ByteLevel",
    "add_prefix_space": true,
    "trim_offsets": true,
    "use_regex": true
  },
  "model": {
    "type": "BPE",
    "dropout": null,
    "unk_token": "<unk>",
    "continuing_subword_prefix": null,
    "end_of_word_suffix": null,
    "fuse_unk": false,
    "byte_fallback": false,
    "ignore_merges": false,
    "vocab": {
      "<unk>": 0,
      "<s>": 1,
      "</s>": 2,
      "<pad>": 3,
      "!": 4,
      "\"": 5,
      "#": 6,
      "$": 7,
      "%": 8,
      "&": 9,
      "'": 10,
      "(": 11,
      ")": 12,
      "*": 13,
      "+": 14,
      ",": 15,
      "-": 16,
      ".": 17,
      "/": 18,
      "0": 19,
      "1": 20,
      "2": 21,
      "3": 22,
      "4": 23,
      "5": 24,
      "6": 25,
      "7": 26,
      "8": 27,
      "9": 28,
      ":": 29,
      ";": 30,
      "<": 31,
      "=": 32,
      ">": 33,
      "?": 34,
      "@": 35,
      "A": 36,
      "B": 37,
      "C": 38,
      "D": 39,
      "E": 40,
      "F": 41,
      "G": 42,
      "H": 43,
      "I": 44,
      "J": 45,
      "K": 46,
      "L": 47,
      "M": 48,
      "N": 49,
      "O": 50,
      "P": 51,
      "Q": 52,
      "R": 53,
      "S": 54,
      "T": 55,
      "U": 56,
      "V": 57,
      "W": 58,
      "X": 59,
      "Y": 60,
      "Z": 61,
      "[": 62,
      "\\": 63,
      "]": 64,
      "^": 65,
      "_": 66,
      "`": 67,
      "a": 68,
      "b": 69,
      "c": 70,
      "d": 71,
      "e": 72,
      "f": 73,
      "g": 74,
      "h": 75,
      "i": 76,
      "j": 77,
      "k": 78,
      "l": 79,
      "m": 80,
      "n": 81,
      "o": 82,
      "p": 83,
      "q": 84,
      "r": 85,
      "s": 86,
      "t": 87,
      "u": 88,
      "v": 89,
      "w": 90,
      "x": 91,
      "y": 92,
      "z": 93,
      "{": 94,
      "|": 95,
      "}": 96,
      "~": 97,
      "¡": 98,
      "¢": 99,
      "£": 100,
      "¤": 101,
      "¥": 102,
      "¦": 103,
      "§": 104,
      "¨": 105,
      "©": 106,
      "ª": 107,
      "«": 108,
      "¬": 109,
      "®": 110,
      "¯": 111,
      "°": 112,
      "±": 113,
      "²": 114,
      "³": 115,
      "´": 116,
      "µ": 117,
      "¶": 118,
      "·": 119,
      "¸": 120,
      "¹": 121,
      "º": 122,
      "»": 123,
      "¼": 124,
      "½": 125,
      "¾": 126,
      "¿": 127,
      "À": 128,
      "Á": 129,
      "Â": 130,
      "Ã": 131,
      "Ä": 132,
      "Å": 133,
      "Æ": 134,
      "Ç": 135,
      "È": 136,
      "É": 137,
      "Ê": 138,
      "Ë": 139,
      "Ì": 140,
      "Í": 141,
      "Î": 142,
      "Ï": 143,
      "Ð": 144,
      "Ñ": 145,
      "Ò": 146,
      "Ó": 147,
      "Ô": 148,
      "Õ": 149,
      "Ö": 150,
      "×": 151,
      "Ø": 152,
      "Ù": 153,
      "Ú": 154,
      "Û": 155,
      "Ü": 156,
      "Ý": 157,
      "Þ": 158,
      "ß": 159,
      "à": 160,
      "á": 161,
      "â": 162,
      "ã": 163,
      "ä": 164,
      "å": 165,
      "æ": 166,
      "ç": 167,
      "è": 168,
      "é": 169,
      "ê": 170,
      "ë": 171,
      "ì": 172,
      "í": 173,
      "î": 174,
      "ï": 175,
      "ð": 176,
      "ñ": 177,
      "ò": 178,
      "ó": 179,
      "ô": 180,
      "õ": 181,
      "ö": 182,
      "÷": 183,
      "ø": 184,
      "ù": 185,
      "ú": 186,
      "û": 187,
      "ü": 188,
      "ý": 189,
      "þ": 190,
      "ÿ": 191,
      "Ā": 192,
      "ā": 193,
      "Ă": 194,
      "ă": 195,
      "Ą": 196,
      "ą": 197,
      "Ć": 198,
      "ć": 199,
      "Ĉ": 200,
      "ĉ": 201,
      "Ċ": 202,
      "ċ": 203,
      "Č": 204,
      "č": 205,
      "Ď": 206,
      "ď": 207,
      "Đ": 208,
      "đ": 209,
      "Ē": 210,
      "ē": 211,
      "Ĕ": 212,
      "ĕ": 213,
      "Ė": 214,
      "ė": 215,
      "Ę": 216,
      "ę": 217,
      "Ě": 218,
      "ě": 219,
      "Ĝ": 220,
      "ĝ": 221,
      "Ğ": 222,
      "ğ": 223,
      "Ġ": 224,
      "ġ": 225,
      "Ģ": 226,
      "ģ": 227,
      "Ĥ": 228,
      "ĥ": 229,
      "Ħ": 230,
      "ħ": 231,
      "Ĩ": 232,
      "ĩ": 233,
      "Ī": 234,
      "ī": 235,
      "Ĭ": 236,
      "ĭ": 237,
      "Į": 238,
      "į": 239,
      "İ": 240,
      "ı": 241,
      "Ĳ": 242,
      "ĳ": 243,
      "Ĵ": 244,
      "ĵ": 245,
      "Ķ": 246,
      "ķ": 247,
      "ĸ": 248,
      "Ĺ": 249,
      "ĺ": 250,
      "Ļ": 251,
      "ļ": 252,
      "Ľ": 253,
      "ľ": 254,
      "Ŀ": 255,
      "ŀ": 256,
      "Ł": 257,
      "ł": 258,
      "Ń": 259,
      "à¤": 260,
      "Ġà": 261,
      "à¦": 262,
      "à¥": 263,
      "Ġà¤": 264,
      "à²": 265,
      "à°": 266,
      "à´": 267,
      "à¬": 268,
      "à®": 269,
      "àª": 270,
      "à¨": 271,
      "à§": 272,
      "à¤¾": 273,
      "Ġà¦": 274,
      "à¥į": 275,
      "à¯": 276,
      "àµ": 277,
      "ĠĠ": 278,
      "à±": 279,
      "à³": 280,
      "Ġà¨": 281,
      "à¤°": 282,
      "à«": 283,
      "àŃ": 284,
      "à©": 285,
      "Ġàª": 286,
      "à¦¾": 287,
      "ĠØ": 288,
      "à¥ĩ": 289,
      "à¤¿": 290,
      "Ġà¬": 291,
      "à¯į": 292,
      "àµį": 293,
      "à¤¤": 294,
      "à¤¨": 295,
      "Ġà°": 296,
      "Ġà²": 297,
      "ÛĮ": 298,
      "Ø§": 299,
      "à¤¯": 300,
      "à§ĩ": 301,
      "Ġà®": 302,
      "à¤ķ": 303,
      "à¦¿": 304,
      "à§į": 305,
      "Ġà´": 306,
      "à¥Ģ": 307,
      "àª¾": 308,
      "à³į": 309,
      "ĠĠĠĠ": 310,
      "à±į": 311,
      "à¥ĭ": 312,
      "ĠÙ": 313,
      "à¤®": 314,
      "à¤²": 315,
      "Ġt": 316,
      "à¤Ĥ": 317,
      "à¬¾": 318,
      "Ú©": 319,
      "à¤µ": 320,
      "Ø±": 321,
      "à¨¾": 322,
      "àŃį": 323,
      "à¤¸": 324,
      "à²¿": 325,
      "à¦°": 326,
      "à§°": 327,
      "Ûģ": 328,
      "Ġà¤ķ": 329,
      "in": 330,
      "à´¿": 331,
      "à°¿": 332,
      "à¦¨": 333,
      "à¬°": 334,
      "à¬¿": 335,
      "ÙĪ": 336,
      "à¯ģ": 337,
      "à«ĩ": 338,
      "à®¿": 339,
      "Ġa": 340,
      "à¦¤": 341,
      "er": 342,
      "à±ģ": 343,
      "à¥ģ": 344,
      "à°¾": 345,
      "on": 346,
      "Ġà¤¸": 347,
      "à®ķ": 348,
      "ÛĴ": 349,
      "ĠÚ©": 350,
      "à®¤": 351,
      "à¤¹": 352,
      "ÙĨ": 353,
      "à²°": 354,
      "à¦¯": 355,
      "àª°": 356,
      "à¤¦": 357,
      "à´¨": 358,
      "à¤ª": 359,
      "à³ģ": 360,
      "he": 361,
      "à¦ķ": 362,
      "à¥¤": 363,
      "à²¾": 364,
      "à°°": 365,
      "Ġà¤ª": 366,
      "à¦²": 367,
      "re": 368,
      "à°¨": 369,
      "à¨°": 370,
      "Ġà¥": 371,
      "à²¦": 372,
      "àµģ": 373,
      "à´ķ": 374,
      "at": 375,
      "àŃĩ": 376,
      "à«į": 377,
      "à©Ģ": 378,
      "àª¨": 379,
      "ÙĦ": 380,
      "à°Ĥ": 381,
      "à©ĩ": 382,
      "à«Ģ": 383,
      "ĠØ§": 384,
      "à´¤": 385,
      "à´¾": 386,
      "st": 387,
      "à¨¿": 388,
      "en": 389,
      "à°²": 390,
      "à®°": 391,
      "or": 392,
      "à³Ĩ": 393,
      "à¦¼": 394,
      "à¦¬": 395,
      "à®Ł": 396,
      "Ġà¤®": 397,
      "à§ģ": 398,
      "à®¾": 399,
      "Øª": 400,
      "à¤ļ": 401,
      "an": 402,
      "à²¨": 403,
      "Ùħ": 404,
      "à´¯": 405,
      "à¤Ĺ": 406,
      "Ġthe": 407,
      "à¦®": 408,
      "Ġc": 409,
      "Ġà¥¤": 410,
      "à²²": 411,
      "à´°": 412,
      "à¤£": 413,
      "Ġà¦ķ": 414,
      "à²¤": 415,
      "Ġà¤¹": 416,
      "it": 417,
      "Ġs": 418,
      "ĠĠĠ": 419,
      "à¬ķ": 420,
      "Ġà¤µ": 421,
      "ĠÙħ": 422,
      "à®©": 423,
      "à²Ĺ": 424,
      "àªĤ": 425,
      "à¬¨": 426,
      "à§ĭ": 427,
      "à®®": 428,
      "à®²": 429,
      "àŃģ": 430,
      "ed": 431,
      "à°ķ": 432,
      "Ġà¤¨": 433,
      "à´Ł": 434,
      "Ø³": 435,
      "al": 436,
      "Ġà¤¤": 437,
      "à®ª": 438,
      "Ġw": 439,
      "es": 440,
      "à¬¤": 441,
      "Ġà¦¬": 442,
      "à¤Ł": 443,
      "Ø¯": 444,
      "à²µ": 445,
      "Úº": 446,
      "ar": 447,
      "à¤ľ": 448,
      "Ġà¤ħ": 449,
      "Ġà¦¸": 450,
      "à¤·": 451,
      "Ġf": 452,
      "à°¤": 453,
      "Ġà¦ª": 454,
      "à¥Ī": 455,
      "àª®": 456,
      "à¤¶": 457,
      "à¨Ĥ": 458,
      "àª¤": 459,
      "Ġp": 460,
      "à«ĭ": 461,
      "à¥Ĥ": 462,
      "àªµ": 463,
      "à¤§": 464,
      "ing": 465,
      "is": 466,
      "à²Ĥ": 467,
      "à¬¬": 468,
      "à¨¤": 469,
      "Ġb": 470,
      "ĠÛģ": 471,
      "Ġà¤Ĩ": 472,
      "à¯Ī": 473,
      "Ġo": 474,
      "àµĨ": 475,
      "à²ķ": 476,
      "à®¯": 477,
      "à¨¸": 478,
      "à²¯": 479,
      "ion": 480,
      "à¨¨": 481,
      "ro": 482,
      "à®³": 483,
      "à®±": 484,
      "ĠĠĠĠĠĠĠĠ": 485,
      "à´²": 486,
      "nd": 487,
      "Ġm": 488,
      "Ġà¨¦": 489,
      "le": 490,
      "à§Ģ": 491,
      "Ġà¤¦": 492,
      "à¦¦": 493,
      "Ġà¤¬": 494,
      "à¨²": 495,
      "àª¯": 496,
      "à´Ĥ": 497,
      "Ġà¨ķ": 498,
      "Ġà¨¸": 499,
      "à¦¸": 500,
      "à¦ĩ": 501,
      "Ġà¤°": 502,
      "à®µ": 503,
      "à°¦": 504,
      "à°¯": 505,
      "à±ĩ": 506,
      "Ġà¦Ĩ": 507,
      "as": 508,
      "à©°": 509,
      "àª¿": 510,
      "Ġà¤ľ": 511,
      "à±ĭ": 512,
      "Ġd": 513,
      "ĠØ¨": 514,
      "àªķ": 515,
      "à«ģ": 516,
      "Ġin": 517,
      "à°Ł": 518,
      "Ø§Ø": 519,
      "Ġà¨¹": 520,
      "Ġà¤Ĺ": 521,
      "à¦Ł": 522,
      "à©ĭ": 523,
      "à¨ķ": 524,
      "à©±": 525,
      "à¦ª": 526,
      "à¨¹": 527,
      "à¤¬": 528,
      "à¤¥": 529,
      "Ġh": 530,
      "Ġ(": 531,
      "ic": 532,
      "ÛĮÚº": 533,
      "Ġ\"": 534,
      "Ġto": 535,
      "à¤¡": 536,
      "à´±": 537,
      "ĉĉ": 538,
      "Ġàªķ": 539,
      "Ġà¤¯": 540,
      "Ġà¬ķ": 541,
      "et": 542,
      "à¬®": 543,
      "ou": 544,
      "à²¸": 545,
      "ĠØ³": 546,
      "ent": 547,
      "à°¸": 548,
      "à¦¹": 549,
      "Ġà¦®": 550,
      "Ġà¤Ń": 551,
      "Ú¾": 552,
      "à´ª": 553,
      "Ġà¬¸": 554,
      "à°®": 555,
      "à¦Ľ": 556,
      "à°µ": 557,
      "à°¡": 558,
      "à´®": 559,
      "à¤Ń": 560,
      "à¤¾à¤Ĥ": 561,
      "am": 562,
      "à°ª": 563,
      "à²³": 564,
      "Ġàªª": 565,
      "Ġà¨¨": 566,
      "Ġof": 567,
      "à¨¦": 568,
      "à¬²": 569,
      "Ġ-": 570,
      "Ġà¬ª": 571,
      "Ø¨": 572,
      "à¦ľ": 573,
      "id": 574,
      "ct": 575,
      "Ġà¦¨": 576,
      "à¦Ĺ": 577,
      "Ġà¤²": 578,
      "à´£": 579,
      "à´µ": 580,
      "Ġn": 581,
      "Ġand": 582,
      "Ġà¦ı": 583,
      "ĠÙĨ": 584,
      "Ġà¨µ": 585,
      "Ġà¦¹": 586,
      "àŃŁ": 587,
      "Ġre": 588,
      "à¬¹": 589,
      "à²¡": 590,
      "ĠØª": 591,
      "il": 592,
      "Ú¯": 593,
      "àª²": 594,
      "Ġà®ª": 595,
      "à©ģ": 596,
      "à°Ĺ": 597,
      "à¤ı": 598,
      "à±Ģ": 599,
      "Ġ'": 600,
      "Ġà¦¦": 601,
      "à©Ī": 602,
      "ÙĪØ±": 603,
      "Ø§ÙĨ": 604,
      "Ġàª¸": 605,
      "à´³": 606,
      "à¦·": 607,
      "el": 608,
      "àª¾àªĤ": 609,
      "à¤ĥ": 610,
      "Ġà¦¤": 611,
      "ad": 612,
      "Ġà°ª": 613,
      "Ġà®ķ": 614,
      "à¨¼": 615,
      "à¦¶": 616,
      "Ġà²®": 617,
      "à©Ĥ": 618,
      "à³ĩ": 619,
      "à°ļ": 620,
      "Ġà¬¬": 621,
      "ĠÚ©ÛĮ": 622,
      "à¬¸": 623,
      "à´ļ": 624,
      "àª¸": 625,
      "ut": 626,
      "Ġàª¤": 627,
      "Ġà¤ī": 628,
      "om": 629,
      "à¨Ĩ": 630,
      "ĠÚ©ÛĴ": 631,
      "Ġà´ª": 632,
      "Ġà²¸": 633,
      "Ġ=": 634,
      "ĠÙ¾": 635,
      "à²®": 636,
      "Ġàª®": 637,
      "Ġà¦ħ": 638,
      "Ġ1": 639,
      "ĠØ¯": 640,
      "Ġà¤¶": 641,
      "à¨®": 642,
      "ĠÙĪ": 643,
      "ĠÛ": 644,
      "àµĭ": 645,
      "à¨¾à¨Ĥ": 646,
      "àŃĭ": 647,
      "Ġà®µ": 648,
      "à¥ĩà¤Ĥ": 649,
      "à±Ĩ": 650,
      "Ġth": 651,
      "Ġà°ķ": 652,
      "ur": 653,
      "ĠĠĠĠĠĠĠ": 654,
      "Ġà¨ª": 655,
      "à¤ĸ": 656,
      "ĠØ¬": 657,
      "à´¸": 658,
      "à¬ĩ": 659,
      "Ġà®®": 660,
      "à¬ª": 661,
      "à²Ł": 662,
      "Ġà¤ļ": 663,
      "Ġl": 664,
      "im": 665,
      "à¬£": 666,
      "à®ļ": 667,
      "Ġà²ķ": 668,
      "ex": 669,
      "Ġà°µ": 670,
      "ĠÛĶ": 671,
      "Ø¹": 672,
      "ĠS": 673,
      "Ø§Ø±": 674,
      "à´Ļ": 675,
      "à¦£": 676,
      "Ġà´ķ": 677,
      "àªŁ": 678,
      "à¦ļ": 679,
      "à¦¼à¦¾": 680,
      "00": 681,
      "à®¨": 682,
      "Ġà¨ľ": 683,
      "à¦§": 684,
      "à®ķà®³": 685,
      "ÙĤ": 686,
      "us": 687,
      "à¯ĩ": 688,
      "Ġ2": 689,
      "ol": 690,
      "àµĩ": 691,
      "Ġà®¤": 692,
      "Ġàªľ": 693,
      "ĠT": 694,
      "ĠA": 695,
      "Ġà®ħ": 696,
      "à¨£": 697,
      "Ġà°¸": 698,
      "ĠàªĽ": 699,
      "ag": 700,
      "Ùģ": 701,
      "Ġàªħ": 702,
      "Ġà°®": 703,
      "Ġà¤ķà¤°": 704,
      "àª£": 705,
      "à®£": 706,
      "--": 707,
      "àªª": 708,
      "à¬¥": 709,
      "ac": 710,
      "à¬¦": 711,
      "àŃĢ": 712,
      "Ġà¬®": 713,
      "ĠàªĨ": 714,
      "Ġà¨ħ": 715,
      "Ġà®ļ": 716,
      "ot": 717,
      "à¨µ": 718,
      "ig": 719,
      "ve": 720,
      "Ġà¤ĩ": 721,
      "à¦ĸ": 722,
      "ay": 723,
      "à¨ľ": 724,
      "à¦¥": 725,
      "àª¹": 726,
      "Ġà²¨": 727,
      "Ġà°ħ": 728,
      "Ġà¨®": 729,
      "à¨ļ": 730,
      "à¯Ĩ": 731,
      "Ġg": 732,
      "ĠÙħÛĮÚº": 733,
      "à¦¼à§ĩ": 734,
      "Ġà¨¤": 735,
      "Ġ{": 736,
      "àµģà´Ĥ": 737,
      "à¥ĥ": 738,
      "Ġà¤ı": 739,
      "à¤Ī": 740,
      "ver": 741,
      "à§±": 742,
      "od": 743,
      "Ø§ÙĦ": 744,
      "Ġàªµ": 745,
      "Ġà´µ": 746,
      "Ġà¨ĩ": 747,
      "Ġà´¸": 748,
      "ĠC": 749,
      "à§Ī": 750,
      "Ġst": 751,
      "ĠÛģÛĴ": 752,
      "Ġà²ħ": 753,
      "ĠI": 754,
      "à¨Ĺ": 755,
      "àª¥": 756,
      "ow": 757,
      "Ġà¦¯": 758,
      "à¬Ł": 759,
      "ĠØ±": 760,
      "àª¦": 761,
      "Ġà®ĩ": 762,
      "Ġà¦ľ": 763,
      "ĠĊ": 764,
      "ul": 765,
      "ation": 766,
      "à¨Ł": 767,
      "Ġà§": 768,
      "àªľ": 769,
      "à°¿à°Ĥ": 770,
      "Ø´": 771,
      "à¦Ń": 772,
      "àªĹ": 773,
      "ÛĮØ§": 774,
      "à¬Ļ": 775,
      "Ġàª¹": 776,
      "Ġà¦Ĺ": 777,
      "à¬³": 778,
      "Ġà²ª": 779,
      "Ġà²¹": 780,
      "ch": 781,
      "à¦ĵ": 782,
      "à¨ª": 783,
      "Ġis": 784,
      "Ø¬": 785,
      "à³Ĥ": 786,
      "ate": 787,
      "à²ª": 788,
      "un": 789,
      "Ġà°ļ": 790,
      "Ġon": 791,
      "à¬Ĺ": 792,
      "Ġà´®": 793,
      "Ġà¤ªà¤°": 794,
      "à¦¡": 795,
      "ĠÚ©Ø±": 796,
      "ĠØ§ÙĪØ±": 797,
      "Ġà´¨": 798,
      "se": 799,
      "if": 800,
      "à¬·": 801,
      "Ġfor": 802,
      "Ġà¦ļ": 803,
      "Ġà¨²": 804,
      "ĠM": 805,
      "à«ģàªĤ": 806,
      "Ġà®¨": 807,
      "ĠØ§Ø³": 808,
      "à¦Ĥ": 809,
      "Ø²": 810,
      "ab": 811,
      "Ġà°¨": 812,
      "ĠÙĦ": 813,
      "Ġà¨¬": 814,
      "Ġàª¨": 815,
      "Ġà´ħ": 816,
      "Ġà²¬": 817,
      "Ġà¤Ĺà¤°": 818,
      "ce": 819,
      "à¨Ī": 820,
      "ue": 821,
      "à³Ģ": 822,
      "à³Ĭ": 823,
      "âĢ": 824,
      "ĠĠĠĠĠ": 825,
      "Ġà¬¨": 826,
      "à¯ĭ": 827,
      "ØŃ": 828,
      "ĠÚ©Ûģ": 829,
      "ÚĨ": 830,
      "Ġbe": 831,
      "à¤°à¤¤": 832,
      "Ġà¦¶": 833,
      "àª¡": 834,
      "pe": 835,
      "Ġà¤Ľ": 836,
      "ess": 837,
      "Ġcon": 838,
      "à²Ĺà²³": 839,
      "em": 840,
      "Ġà¬ħ": 841,
      "ĠØĮ": 842,
      "Ø§Ùħ": 843,
      "à¤ł": 844,
      "Ġà¬ı": 845,
      "ÙĪÚº": 846,
      "à©į": 847,
      "ĠØ³ÛĴ": 848,
      "à±Ĥ": 849,
      "ir": 850,
      "Ġàª°": 851,
      "à§ĩà¥¤": 852,
      "Ġà¬¦": 853,
      "àª¶": 854,
      "à¤Ľ": 855,
      "à¤°à¤ķ": 856,
      "à¬¶": 857,
      "à¥ĭà¤Ĥ": 858,
      "à¬ľ": 859,
      "à³ĭ": 860,
      "ĠP": 861,
      "..": 862,
      "ers": 863,
      "ĠÚ¯": 864,
      "Ġà¦ķà¦°": 865,
      "ĠØ¹": 866,
      "AA": 867,
      "à©Ĥà©°": 868,
      "ame": 869,
      "Ġà¤¸à¤®": 870,
      "à¦ģ": 871,
      "Ġà¬¹": 872,
      "Ġà¦Ń": 873,
      "Ġà¦ķà§°": 874,
      "Ġà¦²": 875,
      "àµĢ": 876,
      "ÛĮÙĨ": 877,
      "ĠÚ©ÙĪ": 878,
      "Ġà°¤": 879,
      "Ġà¬ķà¬°": 880,
      "ort": 881,
      "à²¬": 882,
      "Ø§Øª": 883,
      "à¬§": 884,
      "Ù¾": 885,
      "ap": 886,
      "à¬¡": 887,
      "à¬Ľ": 888,
      "Ø¦": 889,
      "ĠÛģÙĪ": 890,
      "ly": 891,
      "Ġà¬Ĩ": 892,
      "à¨¬": 893,
      "à¥Į": 894,
      "Ġà²µ": 895,
      "à²£": 896,
      "à¤³": 897,
      "à´¦": 898,
      "à¯į.": 899,
      "th": 900,
      "ri": 901,
      "àµ½": 902,
      "Ù¹": 903,
      "à±ģ.": 904,
      "à«ĩ.": 905,
      "à¨¿à©±": 906,
      "ith": 907,
      "Ġàªķàª°": 908,
      "ĠØ¢": 909,
      "àª§": 910,
      "Ġà¤ĸ": 911,
      "Ġà¨°": 912,
      "à®Ļ": 913,
      "à¤ģ": 914,
      "Ġàª¬": 915,
      "Ġy": 916,
      "àµ¼": 917,
      "à¤°à¤®": 918,
      "à¯Ĭ": 919,
      "ĠB": 920,
      "à¤µà¤°": 921,
      "à³Ĩ.": 922,
      "ak": 923,
      "rom": 924,
      "Ġas": 925,
      "Ġà®İ": 926,
      "Ġe": 927,
      "Ø§Ø¦": 928,
      "à²·": 929,
      ");": 930,
      "Ġà¦ī": 931,
      "à¥ĩ.": 932,
      "ÛĮÚ©": 933,
      "ĠØŃ": 934,
      "\",": 935,
      "à¤«": 936,
      "à´·": 937,
      "um": 938,
      "Ġv": 939,
      "ĠÚ©Ø§": 940,
      "Ġà¨Ĺ": 941,
      "à°·": 942,
      "Ġ}": 943,
      "Ġàªı": 944,
      "ĠØ§ÙĦ": 945,
      "Ġà¨ī": 946,
      "ter": 947,
      "ĠR": 948,
      "à¤ıà¤ķ": 949,
      "à±Ī": 950,
      "ĠD": 951,
      "à°ľ": 952,
      "lo": 953,
      "Ġà¤Ĩà¤¹": 954,
      "à²¹": 955,
      "à¤¯à¤¤": 956,
      "==": 957,
      "à®´": 958,
      "à«Ĥ": 959,
      "Ġà¬°": 960,
      "ist": 961,
      "ĠN": 962,
      "pt": 963,
      "Ġà¤¥": 964,
      "à¤ĩ": 965,
      "Ġà°°": 966,
      "Ġà¨ķà¨°": 967,
      "ĠØ´": 968,
      "Ġàªħàª¨": 969,
      "à¤°à¤£": 970,
      "à§Ĥ": 971,
      "Ġthat": 972,
      "Ġà´¤": 973,
      "Ġr": 974,
      "and": 975,
      "ĠØ§ÙĨ": 976,
      "àª³": 977,
      "ĠØ®": 978,
      "à¤¯à¤ķ": 979,
      "à¨ĸ": 980,
      "up": 981,
      "ĠÙģ": 982,
      "Ġk": 983,
      "con": 984,
      "Ġit": 985,
      "Ġ:": 986,
      "Ġà¤ıà¤ķ": 987,
      "res": 988,
      "à²ļ": 989,
      "Ġà¤«": 990,
      "port": 991,
      "Ġwith": 992,
      "à¬ģ": 993,
      "Ġal": 994,
      "ĠÙĨÛĴ": 995,
      "Ġà²¤": 996,
      "Ġàª¦": 997,
      "Ġan": 998,
      "à§ĥ": 999,
      "à°¿.": 1000,
      "Ġà²Ĩ": 1001,
      "àµĤ": 1002,
      "ĠH": 1003,
      "ĠĠĠĠĠĠĠĠĠĠĠ": 1004,
      "à¬Ń": 1005,
      "à²¦à²°": 1006,
      "à¨¡": 1007,
      "à¤¼": 1008,
      "Ġà´İ": 1009,
      "ill": 1010,
      "Ø±ÛĮ": 1011,
      "Ġà¬¤": 1012,
      "Ġà¤ħà¤¸": 1013,
      "à¬ļ": 1014,
      "à°¶": 1015,
      "Ġwh": 1016,
      "à¤¹à¤°": 1017,
      "à±Ĭ": 1018,
      "Ġ.": 1019,
      "Ġà²ĩ": 1020,
      "ÛĮÛģ": 1021,
      "ain": 1022,
      "ĠĠĠĠĠĠĠĠĠ": 1023,
      "à°¬": 1024,
      "ext": 1025,
      "art": 1026,
      "Øµ": 1027,
      "à®ªà®Ł": 1028,
      "Ġàª¶": 1029,
      "Ġà¤Ķ": 1030,
      "à°§": 1031,
      "----": 1032,
      "à²ľ": 1033,
      "iv": 1034,
      "Ġà²İ": 1035,
      "ass": 1036,
      "Ġà¨Ĩ": 1037,
      "àªļ": 1038,
      "Ġàª²": 1039,
      "à¤ī": 1040,
      "àµį.": 1041,
      "à²¶": 1042,
      "Ġà¤ħà¤¨": 1043,
      "Ġà¤ĺ": 1044,
      "à¯Ģ": 1045,
      "ÙĨÛĴ": 1046,
      "ef": 1047,
      "à¤¤à¤°": 1048,
      "Ú¾ÛĮ": 1049,
      "ore": 1050,
      "ĠÙ¾Ø±": 1051,
      "à±ģà°Ĥ": 1052,
      "à¬¯": 1053,
      "à¯Ĥ": 1054,
      "ity": 1055,
      "Ġà¬ľ": 1056,
      "ew": 1057,
      "à¤¯à¤®": 1058,
      "ord": 1059,
      "à²§": 1060,
      "Ø®": 1061,
      "Ġà¥¥": 1062,
      "Ġà¦¸à¦®": 1063,
      "Ġà¨ħà¨¤": 1064,
      "ĠÙĤ": 1065,
      "à¤ŀ": 1066,
      "ect": 1067,
      "age": 1068,
      "est": 1069,
      "ht": 1070,
      "Ġà¬Ĺ": 1071,
      "à©ĭà¨Ĥ": 1072,
      "end": 1073,
      "Ġà°Ĩ": 1074,
      "Ġà¤Ķà¤°": 1075,
      "Ø§Ø¨": 1076,
      "Ġhe": 1077,
      "à´§": 1078,
      "ment": 1079,
      "Ġà¬¯": 1080,
      "àª¬": 1081,
      "à´ŀ": 1082,
      "02": 1083,
      "Ġà¦°": 1084,
      "ĠG": 1085,
      "Ġpro": 1086,
      "Ġ3": 1087,
      "Ġà®ī": 1088,
      "ĉĉĉĉ": 1089,
      "our": 1090,
      "à¥Īà¤Ĥ": 1091,
      "Ġà¬Ń": 1092,
      "Ġà´ĩ": 1093,
      "ĠL": 1094,
      "ĠW": 1095,
      "ÛĮØ±": 1096,
      "à¨§": 1097,
      "oc": 1098,
      "Ġse": 1099,
      "=\"": 1100,
      "à²¿à²Ĥ": 1101,
      "nt": 1102,
      "Ġfrom": 1103,
      "à´¶": 1104,
      "Ġ<": 1105,
      "à¤ªà¤°": 1106,
      "à®µà®°": 1107,
      "à¥¦": 1108,
      "Ġà´ļ": 1109,
      "à¯į,": 1110,
      "ok": 1111,
      "ĠThe": 1112,
      "à¤ķà¤°": 1113,
      "ÙĦÛĮ": 1114,
      "àª·": 1115,
      "op": 1116,
      "àªĸ": 1117,
      "Ġà²°": 1118,
      "ĠÛģÛĮÚº": 1119,
      "à¤µà¤¸": 1120,
      "à¨¿à©°": 1121,
      "ĠàŃ": 1122,
      "àµ»": 1123,
      "ĠF": 1124,
      "à°£": 1125,
      "Ġà§°": 1126,
      "à²µà²°": 1127,
      "à¤¿à¤Ĥ": 1128,
      "Ġat": 1129,
      "à´Ĺ": 1130,
      "à¤ªà¤¨": 1131,
      "Ġà¦Ĩà§°": 1132,
      "Ġà¦¥": 1133,
      "Ġà°¦": 1134,
      "und": 1135,
      "),": 1136,
      "à¬Ĥ": 1137,
      "ere": 1138,
      "Ø§Ûģ": 1139,
      "ĠàªĹ": 1140,
      "Ġà´Ĩ": 1141,
      "à³ģ.": 1142,
      "Ø§Ø¯": 1143,
      "Ġcom": 1144,
      "àªĪ": 1145,
      "à¦ł": 1146,
      "ĠE": 1147,
      "à¬ĸ": 1148,
      "ĠÚĨ": 1149,
      "ant": 1150,
      "Ġcl": 1151,
      "urn": 1152,
      "Ġà¤®à¤¹": 1153,
      "Ġà¦ĵ": 1154,
      "Ġà°¬": 1155,
      "Ġà°Ĺ": 1156,
      "Ġà¤§": 1157,
      "ĠÙĨÛģ": 1158,
      "Ġ)": 1159,
      "ra": 1160,
      "Ġà¦ıà¦ķ": 1161,
      "ld": 1162,
      "Ġ?": 1163,
      "Ġà¦¹à¦¯": 1164,
      "à¤¨à¤ķ": 1165,
      "à¤¢": 1166,
      "Ġex": 1167,
      "à¤µà¤¤": 1168,
      "Ġà¤Ł": 1169,
      "à¬¼": 1170,
      "ive": 1171,
      "à©ľ": 1172,
      "ÚĪ": 1173,
      "Ġà®İà®©": 1174,
      "ub": 1175,
      "à¤°à¤¸": 1176,
      "âĢĻ": 1177,
      "à¤ĺ": 1178,
      "Ġà°ĩ": 1179,
      "Ġà¦ıà¦ĩ": 1180,
      "pl": 1181,
      "qu": 1182,
      "Ġà¦ĩ": 1183,
      "Ġà¦ĸ": 1184,
      "àµ¾": 1185,
      "AAAA": 1186,
      "Ġ4": 1187,
      "Ġà¤°à¤¹": 1188,
      "à°¹": 1189,
      "Ġà°ī": 1190,
      "ack": 1191,
      "Ġwas": 1192,
      "ost": 1193,
      "all": 1194,
      "Ġàª¹àª¤": 1195,
      "ang": 1196,
      "Ġ|": 1197,
      "Ø¶": 1198,
      "Ġà®Ĩ": 1199,
      "Ġà¤ĩà¤¤": 1200,
      "à²¦à²²": 1201,
      "à¥Īà¥¤": 1202,
      "à¯ģ.": 1203,
      "Ø·": 1204,
      "à¥Ģà¤Ĥ": 1205,
      "à¦Ļ": 1206,
      "àµĬ": 1207,
      "os": 1208,
      "Ġà¨ļ": 1209,
      "Ø§Ø³": 1210,
      "Ġà²¦": 1211,
      "ĠK": 1212,
      "Ġà¬¶": 1213,
      "Ġàª¥": 1214,
      "Ġà¦ªà§°": 1215,
      "à´¨à´¤": 1216,
      "ype": 1217,
      "ave": 1218,
      "Ġà°²": 1219,
      "Ġnot": 1220,
      "àŃĤ": 1221,
      "Ġus": 1222,
      "Ġtr": 1223,
      "ail": 1224,
      "Ġare": 1225,
      "ia": 1226,
      "àµģ.": 1227,
      "ĠØµ": 1228,
      "Ġby": 1229,
      "ata": 1230,
      "Ġà¤ĩà¤¸": 1231,
      "à¤ľà¤¨": 1232,
      "Ġor": 1233,
      "Ġà¨ĩà¨¸": 1234,
      "à´¹": 1235,
      "ÙĦÛģ": 1236,
      "Ġsh": 1237,
      "ĠO": 1238,
      "à´ķà´³": 1239,
      "Ġà¥§": 1240,
      "Ġde": 1241,
      "Ø¦ÛĴ": 1242,
      "Ġà¦ħà¦¨": 1243,
      "Ġà²Ĺ": 1244,
      "àªı": 1245,
      "ine": 1246,
      "Ġ5": 1247,
      "Úĳ": 1248,
      "turn": 1249,
      "Ġà²ľ": 1250,
      "ÙĨØ¯": 1251,
      "à´´": 1252,
      "og": 1253,
      "àªŃ": 1254,
      "à¬ī": 1255,
      "ath": 1256,
      "Ġà°ľ": 1257,
      "ure": 1258,
      "ies": 1259,
      "ase": 1260,
      "()": 1261,
      "à¨ĩ": 1262,
      "Ġhas": 1263,
      "ction": 1264,
      "iz": 1265,
      "ĠàªĨàªµ": 1266,
      "com": 1267,
      "Ġà¬ĵ": 1268,
      "à´ľ": 1269,
      "à¬ı": 1270,
      "Ġif": 1271,
      "à§°à¦¤": 1272,
      "ud": 1273,
      "Ġà¤¡": 1274,
      "Ġà¬ī": 1275,
      "ast": 1276,
      "à¤°à¤µ": 1277,
      "Ġ!": 1278,
      "à°Ń": 1279,
      "ØªÛĮ": 1280,
      "ĠàªŃ": 1281,
      "ĠJ": 1282,
      "ÙĪÙĨ": 1283,
      "ult": 1284,
      "Ġà¨²à¨Ī": 1285,
      "cl": 1286,
      "ust": 1287,
      "ĠØªÚ¾": 1288,
      "à¤°à¤¹": 1289,
      "ik": 1290,
      "one": 1291,
      "ug": 1292,
      "01": 1293,
      "ial": 1294,
      "à¤¾,": 1295,
      "à©Į": 1296,
      "ard": 1297,
      "ÛĮØ¯": 1298,
      "àŃĥ": 1299,
      "à¤Ļ": 1300,
      "Ġàªĸ": 1301,
      "Ġà¦Ľ": 1302,
      "Ġthis": 1303,
      "à¦ľà¦¨": 1304,
      "ile": 1305,
      "ØªÛĴ": 1306,
      "Ġà¬²": 1307,
      "à¤¯à¤¸": 1308,
      "ĠØªÙĪ": 1309,
      "à¬Ĩ": 1310,
      "ĠU": 1311,
      "Ġle": 1312,
      "//": 1313,
      "Ġà¦§": 1314,
      "Ġà°İ": 1315,
      "Ġà¨ĸ": 1316,
      "Ġà¦«": 1317,
      "(\"": 1318,
      "à¤¯à¤¨": 1319,
      "ps": 1320,
      "à³Ī": 1321,
      "que": 1322,
      "à²Ń": 1323,
      "à²¥": 1324,
      "to": 1325,
      "ĠØ¨Ú¾ÛĮ": 1326,
      "Ġch": 1327,
      "à¤®à¤¨": 1328,
      "à¨¥": 1329,
      "Ġj": 1330,
      "à¥ī": 1331,
      "Ġà¬¸à¬®": 1332,
      "are": 1333,
      "ĠØ·": 1334,
      "Ġà¦Ĩà¦®": 1335,
      "ØªØ§": 1336,
      "Ġà¤¸à¤°": 1337,
      "à©Īà¥¤": 1338,
      "Ġà¬ªà¬°": 1339,
      "Ø¦ÛĮ": 1340,
      "à¬ł": 1341,
      "à¤ªà¤¤": 1342,
      "Ġàªļ": 1343,
      "Ġà¤Ĩà¤£": 1344,
      "à¤½": 1345,
      "ight": 1346,
      "Ġàªī": 1347,
      "Ġà¤µà¤°": 1348,
      "ÙĨØ§": 1349,
      "Ġà¬ļ": 1350,
      "à´¡": 1351,
      "ption": 1352,
      "ring": 1353,
      "Ġà¬ıà¬¹": 1354,
      "Ġàªªàª°": 1355,
      "à¨ħ": 1356,
      "ÙĪÙĦ": 1357,
      "Ġsa": 1358,
      "ĠÛĮÛģ": 1359,
      "Ġpl": 1360,
      ").": 1361,
      "ice": 1362,
      "Ġà¨¹à¨¨": 1363,
      "à©Ģà¨Ĥ": 1364,
      "Ġà¨Ń": 1365,
      "Ø³Øª": 1366,
      "à¤µà¤¨": 1367,
      "à¦ŀ": 1368,
      "Ġhave": 1369,
      "ind": 1370,
      "out": 1371,
      "ode": 1372,
      "ime": 1373,
      "Ġres": 1374,
      "à¤¤à¤®": 1375,
      "à°²à°¨": 1376,
      "à¬ķà¬°": 1377,
      "ĠØ²": 1378,
      "so": 1379,
      "à´Ļà´³": 1380,
      "à¤¾.": 1381,
      "à¤¾à¤ģ": 1382,
      "à¦«": 1383,
      "à¦ķà¦²": 1384,
      "Ġà¥¨": 1385,
      "Ġà¤ħà¤§": 1386,
      "à°³": 1387,
      "à¥ĩ,": 1388,
      "orm": 1389,
      "à¤¸à¤®": 1390,
      "Ġyou": 1391,
      "Name": 1392,
      "à§ĩ,": 1393,
      "act": 1394,
      "ip": 1395,
      "cc": 1396,
      "ĠâĢ": 1397,
      "Ġà´°": 1398,
      "à²µà²¨": 1399,
      "Ġà¦ªà¦°": 1400,
      "Ġà´İà´¨": 1401,
      "Ġ[": 1402,
      "Ġ0": 1403,
      "Ġà¤Ńà¤¨": 1404,
      "Ġà²¶": 1405,
      "ÙĨÛĮ": 1406,
      "à¤ħ": 1407,
      "àªĵ": 1408,
      "Ġwill": 1409,
      "Ġà¦ĺ": 1410,
      "'s": 1411,
      "à´¬": 1412,
      "à¦¼à¥¤": 1413,
      "Ġclass": 1414,
      "ĠÙĨÛģÛĮÚº": 1415,
      "à¤ķà¤¤": 1416,
      "Ġim": 1417,
      "ey": 1418,
      "à³Ĭà²Ĥ": 1419,
      "Ġà´¬": 1420,
      "ĠØ§ÛĮÚ©": 1421,
      "à¨«": 1422,
      "atch": 1423,
      "à¤¸à¤ķ": 1424,
      "à¥Ģ.": 1425,
      "Ġà¤Ŀ": 1426,
      "get": 1427,
      "quest": 1428,
      "à¦¾à¦ģ": 1429,
      "à°¾à°Ĥ": 1430,
      "Ġà¨«": 1431,
      "',": 1432,
      "ff": 1433,
      "ĠĠĠĠĠĠĠĠĠĠĠĠĠĠĠ": 1434,
      "ire": 1435,
      "able": 1436,
      "ace": 1437,
      "à«ĩ,": 1438,
      "ep": 1439,
      "ÙĪØ¯": 1440,
      "Ġà¤īà¤ª": 1441,
      "ated": 1442,
      "à°¥": 1443,
      "à¨ī": 1444,
      "à¦ĸà¦¨": 1445,
      "Ġà®ĩà®°": 1446,
      "av": 1447,
      "Ġconst": 1448,
      "Ġà¤¤à¤°": 1449,
      "à¨Ń": 1450,
      "à´Ń": 1451,
      "Ø¸": 1452,
      "Ġà´ī": 1453,
      "Ġap": 1454,
      "ould": 1455,
      "Ġ=>": 1456,
      "Ġwe": 1457,
      "Ġà¤īà¤¨": 1458,
      "à©ģà©±": 1459,
      "ry": 1460,
      "ÙĦØ§": 1461,
      "à®¸": 1462,
      "ĠØ¯Ø±": 1463,
      "ib": 1464,
      "ĠÚ©ÛĮØ§": 1465,
      "Ø§Ø²": 1466,
      "ror": 1467,
      "--------": 1468,
      "ĉĉĉ": 1469,
      "Ġreturn": 1470,
      "ah": 1471,
      "Ġà²Ī": 1472,
      "Ġà´Ĵ": 1473,
      "Ġà¦Ł": 1474,
      "Ġà¦ľà¦¨": 1475,
      "à´¯à´¤": 1476,
      "ĠÙĪÛģ": 1477,
      "Ġà¦¬à¦²": 1478,
      "pro": 1479,
      "à¦¬à¦²": 1480,
      "à¤Ĺà¤°": 1481,
      "\":": 1482,
      "Ġhis": 1483,
      "Ø§ÛĮ": 1484,
      "ork": 1485,
      "§à§": 1486,
      "Ø³ÛĮ": 1487,
      "à¤°à¤¦": 1488,
      "ec": 1489,
      "Ġà²®à²¤": 1490,
      "Id": 1491,
      "à¬ªà¬°": 1492,
      "Ġà¤¬à¤¨": 1493,
      "à¥Ģ,": 1494,
      "Ġà°ħà°¨": 1495,
      "à¦ī": 1496,
      "ary": 1497,
      "à¤¨à¤®": 1498,
      "à¤·à¤£": 1499,
      "ser": 1500,
      "ear": 1501,
      "àªĩ": 1502,
      "Ġà°Ī": 1503,
      "à¬Ľà¬¨": 1504,
      "Ġàªªàª£": 1505,
      "Ġà´ľ": 1506,
      "à¦°à¦¤": 1507,
      "ÙħÛĮ": 1508,
      "ĠØ§Ù¾": 1509,
      "\")": 1510,
      "Ġcont": 1511,
      "à¨ı": 1512,
      "à´¥": 1513,
      "====": 1514,
      "te": 1515,
      "àµĪ": 1516,
      "ign": 1517,
      "à¤Ĺà¤¤": 1518,
      "à¤īà¤¨": 1519,
      "Ġ6": 1520,
      "Ġà¤¤à¤¥": 1521,
      "ide": 1522,
      "che": 1523,
      "à¨¼à¨¾": 1524,
      "Ġag": 1525,
      "Ġup": 1526,
      "ans": 1527,
      "div": 1528,
      "Ġro": 1529,
      "Ġàª«": 1530,
      "St": 1531,
      "Ġà¤Ĩà¤ª": 1532,
      "àª®àª¨": 1533,
      "ont": 1534,
      "Ø§Ú©": 1535,
      "à¬¬à¬°": 1536,
      "à¦¾à¥¤": 1537,
      "à¥§": 1538,
      "ition": 1539,
      "Ġall": 1540,
      "</": 1541,
      "à¤Ĩ": 1542,
      "Ġà®Ĵ": 1543,
      "ĠØ±Ûģ": 1544,
      "Ġcan": 1545,
      "ance": 1546,
      "à¤¸à¤°": 1547,
      "Ġ*": 1548,
      "à¤²à¤ķ": 1549,
      "Ġen": 1550,
      "ence": 1551,
      "à¤Ŀ": 1552,
      "ong": 1553,
      "Ġà²ļ": 1554,
      "à¤¾à¥¤": 1555,
      "Ġad": 1556,
      "Ġà¤ªà¤¨": 1557,
      "à²¯à²²": 1558,
      "Ġàªıàªķ": 1559,
      "Ġà®ħà®¤": 1560,
      "ĠIn": 1561,
      "Ġà¤ľà¤¨": 1562,
      "over": 1563,
      "à¤¯à¤°": 1564,
      "000": 1565,
      "à¬ĩà¬¥": 1566,
      "ĠØ¨Ûģ": 1567,
      "int": 1568,
      "Ġà¨ĩà¨¹": 1569,
      "ĠØ¬ÙĪ": 1570,
      "Ø§Ø±ÛĮ": 1571,
      "per": 1572,
      "Ġ/": 1573,
      "ell": 1574,
      "022": 1575,
      "atus": 1576,
      "Ġà¤®à¤¨": 1577,
      "Ġà¨ķà¨°à¨¨": 1578,
      "sh": 1579,
      "Ġà¬ħà¬¨": 1580,
      "ĠV": 1581,
      "...": 1582,
      "à¤ķà¤²": 1583,
      "Ġà²Ń": 1584,
      "Ú¯Ø±": 1585,
      "const": 1586,
      "cri": 1587,
      "à±Ĩà°Ĥ": 1588,
      "à¨°à¨¤": 1589,
      "Ġà¤¸à¤¹": 1590,
      "à¬°à¬ķ": 1591,
      "Ġà¦¡": 1592,
      "Ġàªķàª°àªµ": 1593,
      "Ġà¦Ĩà¦Ľ": 1594,
      "ich": 1595,
      "Ġà°¶": 1596,
      "Ġà¤ł": 1597,
      "ĠØ§ÛĮ": 1598,
      "ession": 1599,
      "ject": 1600,
      "Ġà¤ªà¤¹": 1601,
      "Ġàª°àª¹": 1602,
      "Ø«": 1603,
      "ount": 1604,
      "Ġà¤¨à¤¹": 1605,
      "ck": 1606,
      "Ġtype": 1607,
      "ob": 1608,
      "Ġà²ī": 1609,
      "Ġà²¯": 1610,
      "\">": 1611,
      "Ġà²Ĵ": 1612,
      "à´°à´¤": 1613,
      "={": 1614,
      "50": 1615,
      "àª°àª®": 1616,
      "aw": 1617,
      "à¤¶à¤¨": 1618,
      "ick": 1619,
      "àª°àª¨": 1620,
      "à®Łà®¤": 1621,
      "à´µà´°": 1622,
      "Ġà°¯": 1623,
      "àª«": 1624,
      "Ġà°Ń": 1625,
      "à¬ŀ": 1626,
      "à±ģ,": 1627,
      "Ġà¤¤à¤¤": 1628,
      "form": 1629,
      "à«Ģ.": 1630,
      "ĠclassName": 1631,
      "à¬¿à¥¤": 1632,
      "pon": 1633,
      "ook": 1634,
      "Ġun": 1635,
      "àŃŁà¬°": 1636,
      "Ġà¤¯à¤¹": 1637,
      "à®ªà®¤": 1638,
      "Ġà¤Ńà¤ıà¤ķ": 1639,
      "à¤®à¤¤": 1640,
      "Ġà¦®à¦¨": 1641,
      "Ġà´¶": 1642,
      "à¨¤à¨°": 1643,
      "à§°à¦£": 1644,
      "à¤¾à¤ĥ": 1645,
      "ĠInd": 1646,
      "à§İ": 1647,
      "Ġab": 1648,
      "à²ķà²°": 1649,
      "à¦Ĺà¦¤": 1650,
      "ite": 1651,
      "essage": 1652,
      "Ġ7": 1653,
      "Ġà¥§à¥": 1654,
      "Ġà¬ĸ": 1655,
      "put": 1656,
      "own": 1657,
      "ress": 1658,
      "à¤µà¤²": 1659,
      "à§¦": 1660,
      "Ø§Ø¦ÛĮ": 1661,
      "AAAAAAAA": 1662,
      "à§°à§°": 1663,
      "tt": 1664,
      "uth": 1665,
      "àŃ±": 1666,
      "du": 1667,
      "à°²à°ķ": 1668,
      "nc": 1669,
      "Ġnew": 1670,
      "Ġà¤ķà¤®": 1671,
      "Ø°": 1672,
      "à®©à®°": 1673,
      "ÙĪÙħ": 1674,
      "à³ģ,": 1675,
      "Ġà¤ķà¤°à¤£": 1676,
      "ings": 1677,
      "à¬¼à¬¿": 1678,
      "ĠTh": 1679,
      "ĠÙħÙĨ": 1680,
      "ÙĦÙħ": 1681,
      "à¥ģà¤Ĥ": 1682,
      "à¦®à¦¨": 1683,
      "ĠÙģØ±": 1684,
      "ber": 1685,
      "Ġà¦īà¦ª": 1686,
      "odel": 1687,
      "à®µà®¤": 1688,
      "Ġout": 1689,
      "Ġ19": 1690,
      "Ġ201": 1691,
      "ĠØ¨ÛĮ": 1692,
      "Ġà®°": 1693,
      "Ġset": 1694,
      "ĠØ§ÙĦÙĦÛģ": 1695,
      "Ġà¤ħà¤°": 1696,
      "Ġtheir": 1697,
      "à¬¤à¬°": 1698,
      "à¤¦à¤°": 1699,
      "Ġà¤īà¤¤": 1700,
      "Ġà®µà®°": 1701,
      "à²¾à²Ĥ": 1702,
      "Ġà´²": 1703,
      "Ø§ÙĨÛĮ": 1704,
      "à§Į": 1705,
      "Ġà¨Ĩà¨ª": 1706,
      "Ø¯Ûģ": 1707,
      "à¤¸à¤¨": 1708,
      "àªĽ": 1709,
      "):": 1710,
      "ait": 1711,
      "à°µà°°": 1712,
      "ory": 1713,
      "à¦¸à¦®": 1714,
      "ll": 1715,
      "à¤¦à¤¨": 1716,
      "à°°à°®": 1717,
      "à¦ķà§°": 1718,
      "à¦¨à§°": 1719,
      "ull": 1720,
      "ss": 1721,
      "à¨ĺ": 1722,
      "à¤®à¤§": 1723,
      "hen": 1724,
      "ĠÛģÙħ": 1725,
      "Ġà¦ķà¦¥": 1726,
      "ĠØ±ÙĪ": 1727,
      "à³Ĩà²Ĥ": 1728,
      "Ġ10": 1729,
      "Ġà°¹": 1730,
      "name": 1731,
      "à¤ļà¤¨": 1732,
      "à²¤à²°": 1733,
      "à¦ı": 1734,
      "Ġà¤ķà¤¹": 1735,
      "ĠØªÚ¾Ø§": 1736,
      "à¤°à¤¯": 1737,
      "à¦¼à¦¿": 1738,
      "à²¯à²¨": 1739,
      "à²Ĺà²³à²¨": 1740,
      "ĠàªĨàªª": 1741,
      "Ġà¤ķà¤°à¤¤": 1742,
      "Ġà¤Ĩà¤²": 1743,
      "ĠCh": 1744,
      "ĠØ¨Ø±": 1745,
      "Ġ8": 1746,
      "à¦°à¦ķ": 1747,
      "Ġsaid": 1748,
      "Ġà¬¥": 1749,
      "Ġà¤ıà¤µ": 1750,
      "Ġte": 1751,
      "Ġà¨¸à¨ķ": 1752,
      "ĠØ§Ùħ": 1753,
      "Ġàª¸àª®": 1754,
      "row": 1755,
      "ĠàªŁ": 1756,
      "Ġper": 1757,
      "Ġpart": 1758,
      "à¤Łà¤°": 1759,
      "à®±à®¤": 1760,
      "ake": 1761,
      "à©Ī,": 1762,
      "sion": 1763,
      "ple": 1764,
      "Ġà¤²à¤Ĺ": 1765,
      "à¦ĥ": 1766,
      "ĠÙĪØ§ÙĦ": 1767,
      "Ġàª§": 1768,
      "we": 1769,
      "Ġà®ĩà®¨": 1770,
      "ev": 1771,
      "àª°àª£": 1772,
      "Ġà¨°à¨¹": 1773,
      "à²ĸ": 1774,
      "eng": 1775,
      "Ġà¨¨à¨¹": 1776,
      "fer": 1777,
      "Ġà¤¸à¤ķ": 1778,
      "Ġà¦ıà¦¬": 1779,
      "à©Īà¨Ĥ": 1780,
      "ĠÛĮ": 1781,
      "ĠÙħØ¹": 1782,
      "In": 1783,
      "à´ķà´°": 1784,
      "ax": 1785,
      "Ġalso": 1786,
      "pect": 1787,
      "ric": 1788,
      "Ġà¨¸à¨®": 1789,
      "Øº": 1790,
      "vid": 1791,
      "Ġà²ħà²µà²°": 1792,
      "à³ĥ": 1793,
      "ĠĠĠĠĠĠĠĠĠĠĠĠĠ": 1794,
      "Ġà¤Ľà¤¨": 1795,
      "Ġà¤¸à¤°à¤ķ": 1796,
      "ient": 1797,
      "ĠÙĦÛĮ": 1798,
      "à´¿.": 1799,
      "Ġà§§à§": 1800,
      "Ġund": 1801,
      "Ġaw": 1802,
      "alue": 1803,
      "à¦¾,": 1804,
      "ous": 1805,
      "ther": 1806,
      "à´Łà´¤": 1807,
      "Ġman": 1808,
      "à©ģà©°": 1809,
      "cre": 1810,
      "\"\"": 1811,
      "ach": 1812,
      "Ġà¤ķà¤°à¤¨": 1813,
      "The": 1814,
      "error": 1815,
      "pan": 1816,
      "Ġgo": 1817,
      "Ġwhich": 1818,
      "âĶ": 1819,
      "à®ķà®ª": 1820,
      "à¤¤à¤¤": 1821,
      "à¬°à¬¤": 1822,
      "Ġdis": 1823,
      "Ġname": 1824,
      "Ġwho": 1825,
      ":*": 1826,
      "Ġà¬®à¬§": 1827,
      "à´ķà´¯": 1828,
      "à¬°à¬®": 1829,
      "ome": 1830,
      "Ġbut": 1831,
      "ark": 1832,
      "à¦¤à§°": 1833,
      "Ġ9": 1834,
      "ĠØ¨ÙĨ": 1835,
      "à±ĥ": 1836,
      "fig": 1837,
      "Ġà¬ĺ": 1838,
      "ÙĪÛĮ": 1839,
      "à¦¾à¦Ĥ": 1840,
      "à¦¿à¥¤": 1841,
      "Ġà®ĩà®¤": 1842,
      "Ġdo": 1843,
      "à¤Ĺà¤²": 1844,
      "à¦°à¦£": 1845,
      "à®¤à®²": 1846,
      "àª°àª¤": 1847,
      "Ġà¨¡": 1848,
      "à¤ĵ": 1849,
      "Ġà¨Ł": 1850,
      "à²¤à²¦": 1851,
      "à®Łà®®": 1852,
      "à´¯à´®": 1853,
      "à¤¤à¤²": 1854,
      "Ġà¨īà¨¸": 1855,
      "Ġà´Ĵà´°": 1856,
      "Ġbeen": 1857,
      "://": 1858,
      "Ġme": 1859,
      "vi": 1860,
      "Ġà¤¬à¤¤": 1861,
      "ĠSt": 1862,
      "à¤°à¤²": 1863,
      "ations": 1864,
      "ĠÚĪ": 1865,
      "à°¿,": 1866,
      "à©Ī.": 1867,
      "ĠÙħØŃ": 1868,
      "à¦¨à¦¤": 1869,
      "old": 1870,
      "Ġà¤ħà¤ªà¤¨": 1871,
      "text": 1872,
      "app": 1873,
      "Ġà°Ł": 1874,
      "Ġà¤Ĩà¤°": 1875,
      "à´°à´®": 1876,
      "ĠÙ¾ÛĮ": 1877,
      "à¬¨à¬Ļ": 1878,
      "elf": 1879,
      "ody": 1880,
      "Ġà¬Ł": 1881,
      "à¨°à¨ķ": 1882,
      "Ø¯ÛĮ": 1883,
      "Ġà°®à°°": 1884,
      "Ġà¨īà¨¹": 1885,
      "à¤¸à¤²": 1886,
      "§àŃ": 1887,
      "Ġà¬ıà¬¬": 1888,
      "Ġ#": 1889,
      "Ø±Ùģ": 1890,
      "à¤¯à¤µ": 1891,
      "à¦ĵà¦¯": 1892,
      "à¥¨": 1893,
      "à¬¨à¬°": 1894,
      "ĠØ¯ÛĮ": 1895,
      "Ú©Ú¾": 1896,
      "ĠØ¯ÙĪ": 1897,
      "Ġyour": 1898,
      "Ġà¨Ĩà¨ªà¨£": 1899,
      "à´ķàµ¾": 1900,
      "Ġone": 1901,
      "à¥Īà¤Ĥà¥¤": 1902,
      "Ġmet": 1903,
      "Ġne": 1904,
      "à¨°à¨¸": 1905,
      "ock": 1906,
      "Ø§Ø¹": 1907,
      "ĠÛģÛĮ": 1908,
      "ya": 1909,
      "ally": 1910,
      "à¦ªà¦¨": 1911,
      "ish": 1912,
      "à²¸à²²": 1913,
      "à¤²à¤¨": 1914,
      "Ġà¤Ĺà¤¯": 1915,
      "Ġà²ĩà²¦": 1916,
      "Ġà¤¤à¤¸": 1917,
      "à¤¤à¤ķ": 1918,
      "à¬°à¬°": 1919,
      "ĠØ¢Ù¾": 1920,
      "à¤¹à¤£": 1921,
      "ents": 1922,
      "low": 1923,
      "à¦ĺ": 1924,
      "Ø¨Ø±": 1925,
      "Ġ</": 1926,
      "Ú©Ûģ": 1927,
      "à²°à²¦": 1928,
      "Ġà¦Ĩà¦°": 1929,
      "ian": 1930,
      "Ġ&": 1931,
      "ĠY": 1932,
      "ise": 1933,
      "à¤µà¤®": 1934,
      "ĠØªØ¹": 1935,
      "fter": 1936,
      "Ġà¬¸à¬¹": 1937,
      "Ġhtt": 1938,
      "('": 1939,
      "à³ģà²Ĥ": 1940,
      "ĠÙħÙĪ": 1941,
      "à¤²à¤¯": 1942,
      "Ġàª¤àª®": 1943,
      "Ġthey": 1944,
      "à¤®à¤ķ": 1945,
      "Ġà¨ªà¨°": 1946,
      "Ø±Øª": 1947,
      "Ġover": 1948,
      "min": 1949,
      "Ġà«": 1950,
      "à®ķà®°": 1951,
      "Ø¨ÛĮ": 1952,
      "gr": 1953,
      "Re": 1954,
      "à¤¬à¤°": 1955,
      "Ġà®ķà®Ł": 1956,
      "à§°à¦ķ": 1957,
      "à®ķà®®": 1958,
      "fo": 1959,
      "Ġstr": 1960,
      "order": 1961,
      "Ġàªĺ": 1962,
      "cent": 1963,
      "ai": 1964,
      "Ġà¤ħà¤Ń": 1965,
      "Ġàª¶àªķ": 1966,
      "ĠÙ¹": 1967,
      "Ġà°ı": 1968,
      "à¨°à¨¨": 1969,
      "à®³à®¤": 1970,
      "à¤¤à¤µ": 1971,
      "round": 1972,
      "20": 1973,
      "Ġà¦Ĩà¦¨": 1974,
      "Ú¾Ø±": 1975,
      "erv": 1976,
      "à¤²à¤®": 1977,
      "Ø§Úº": 1978,
      "Ġdef": 1979,
      "à³Ĩ,": 1980,
      "Ġà´ħà´¤": 1981,
      "ĠÙħÛĮ": 1982,
      "àŃŁà¬ķ": 1983,
      "\\\\": 1984,
      "Ġà¥©": 1985,
      "ync": 1986,
      "Ø§Ø¦ÛĴ": 1987,
      "à¦¬à¦¨": 1988,
      "Ġget": 1989,
      "à©ĩà¨Ĥ": 1990,
      "à¤Łà¤¨": 1991,
      "à¤¤à¤¨": 1992,
      "à«ĥ": 1993,
      "Ġso": 1994,
      "Ġà°¡": 1995,
      "Ġà´¦": 1996,
      "à¤¿à¤ĥ": 1997,
      "àª°àªķ": 1998,
      "45": 1999,
      "Ġhad": 2000,
      "Ġà¤Ĩà¤¯": 2001,
      "irst": 2002,
      "à¦Ĩ": 2003,
      "ĠÛĮØ§": 2004,
      "Ġsu": 2005,
      "Ġtext": 2006,
      "Ġà²²": 2007,
      "à²°à²¤": 2008,
      "Ġ,": 2009,
      "ash": 2010,
      "ÙĦÛĴ": 2011,
      "very": 2012,
      "àªŁàª²": 2013,
      "ÙĨÚ¯": 2014,
      "Ġà¬«": 2015,
      "à°ĸ": 2016,
      "Ġdes": 2017,
      "Ġà¬ıà¬ķ": 2018,
      "ild": 2019,
      "Ġà¤ħà¤¤": 2020,
      "Ġà®ħà®µà®°": 2021,
      "ÙĦØ§Ùħ": 2022,
      "son": 2023,
      "à¦¬à¦°": 2024,
      "30": 2025,
      "Ġmatch": 2026,
      "à¨Łà¨°": 2027,
      "Ġ202": 2028,
      "à°°à°¤": 2029,
      "22": 2030,
      "à«ĭ.": 2031,
      "à¤Ĭ": 2032,
      "Ġà°Ĵ": 2033,
      "à²¯à²ķ": 2034,
      "ĠØ¬Ø³": 2035,
      "à¤Łà¤ķ": 2036,
      ":*:*": 2037,
      "Ø§ØªÚ¾": 2038,
      "à°¦à°¨": 2039,
      "import": 2040,
      "ĠØ§Ø³Øª": 2041,
      "Ġ||": 2042,
      "ays": 2043,
      "à¦¬à§°": 2044,
      "Ġà´±": 2045,
      "àª¾.": 2046,
      "à¤°à¤ª": 2047,
      "Ġà¤µà¤¹": 2048,
      "Ġà§¨": 2049,
      "Ġà®¨à®Ł": 2050,
      "Ġar": 2051,
      "aj": 2052,
      "à©Ģà¥¤": 2053,
      "Ġà¦ħà¦Ń": 2054,
      "à¤°à¤¶": 2055,
      "âĶĢ": 2056,
      "Ġàª¯": 2057,
      "Ġà¦ıà¦Ł": 2058,
      "ĠØº": 2059,
      "à´«": 2060,
      "à¬°à¬£": 2061,
      "Ġà®Ĵà®°": 2062,
      "à°¦à°°": 2063,
      "Ġà¦Ĩà¦¹": 2064,
      "à²¿,": 2065,
      "ĠÙħØ³": 2066,
      "Ø§ØŃ": 2067,
      "ens": 2068,
      "à¦ļà¦¨": 2069,
      "Ø§ÙĤ": 2070,
      "lect": 2071,
      "tr": 2072,
      "à´Ļàµ¾": 2073,
      "Ġinter": 2074,
      "à¬ĩà¬Ľ": 2075,
      "sl": 2076,
      "Ġà¨ĺ": 2077,
      "Ġà´ªà´±": 2078,
      "à¬¿à¬ģ": 2079,
      "ÛĮÙħ": 2080,
      "${": 2081,
      "Ġreg": 2082,
      "Ġoff": 2083,
      "Ġev": 2084,
      "ov": 2085,
      "Ġàª¡": 2086,
      "àªł": 2087,
      "à¤µà¤ķ": 2088,
      "à®¤à®¤": 2089,
      "Ġà¬°à¬¹": 2090,
      "à¤ªà¤¦": 2091,
      "Ġstring": 2092,
      "à¤ķà¤¡": 2093,
      "Ġà®®à®±": 2094,
      "àµĥ": 2095,
      "Ø±ÙĪ": 2096,
      "à¤¨à¤¨": 2097,
      "Ġà¤¸à¤¬": 2098,
      "Ġits": 2099,
      "ĠÙħÙĦ": 2100,
      "ge": 2101,
      "Ø§Ùģ": 2102,
      "Ġtime": 2103,
      "âĶĢâĶĢ": 2104,
      "à®ķà®µ": 2105,
      "Ġà¦®à¦¹": 2106,
      "à´Ĥ.": 2107,
      "à¤ªà¤ķ": 2108,
      "Ġcre": 2109,
      "à®ľ": 2110,
      "ication": 2111,
      "ĠÙ¾Ûģ": 2112,
      "Ġà¬ķà¬¹": 2113,
      "ĠĠĠĠĠĠĠĠĠĠĠĠĠĠĠĠĠĠĠ": 2114,
      "à¨°à¨®": 2115,
      "ĠÚ©Ø±ÙĨÛĴ": 2116,
      "Ġà®īà®³": 2117,
      "à¬«": 2118,
      "Ġà®ı": 2119,
      "à°¯à°¨": 2120,
      "à´ĸ": 2121,
      "Ġà²ħà²¨": 2122,
      "à¥«": 2123,
      "à¦²à¦¤": 2124,
      "à¤§à¤¨": 2125,
      "à²°à²µ": 2126,
      "à®°à®®": 2127,
      "19": 2128,
      "oth": 2129,
      "Ġpre": 2130,
      "led": 2131,
      "Ġà¦¸à¦®à¦¯": 2132,
      "Ġà°ªà°°": 2133,
      "ponse": 2134,
      "ĠSh": 2135,
      "à¤¬à¤¨": 2136,
      "Ġà°¸à°®": 2137,
      "Ú©Ø±": 2138,
      "Ġmore": 2139,
      "à¨Ŀ": 2140,
      "ner": 2141,
      "à°°à°ķ": 2142,
      "à¯ģ,": 2143,
      "à¤¹à¤¤": 2144,
      "Ġà¬§": 2145,
      "Ġwere": 2146,
      "amp": 2147,
      "ors": 2148,
      "à¦ªà¦¤": 2149,
      "str": 2150,
      "Ġword": 2151,
      "load": 2152,
      "àª¿àªĤ": 2153,
      "Ø§ÙĨÛĴ": 2154,
      "Ġtrue": 2155,
      "à¨¦à¨°": 2156,
      "ØªÛģ": 2157,
      "ari": 2158,
      "rit": 2159,
      "Ġà°«": 2160,
      "Ġà¤¯à¤¸": 2161,
      "Ġà¤ĵ": 2162,
      "Ġyear": 2163,
      "à¤¨à¤¸": 2164,
      "à¦ªà§°": 2165,
      "Ġany": 2166,
      "ĠØ§Ø¨": 2167,
      "ĠØ§Ù¾ÙĨÛĴ": 2168,
      "Ġà´Ń": 2169,
      "Ġà´Ĺ": 2170,
      "à¬ħ": 2171,
      "Ġà¤īà¤¦": 2172,
      "Ø¹Ø¯": 2173,
      "Ġà¤¤à¤¦": 2174,
      "sc": 2175,
      "à¥ħ": 2176,
      "Ġ12": 2177,
      "Ġà¤¬à¤¢": 2178,
      "Ġ+": 2179,
      "à¤°à¤Ń": 2180,
      "Ġà¨¯": 2181,
      "ates": 2182,
      "à°ģ": 2183,
      "ĠÚ¯ÛĮØ§": 2184,
      "à¤µà¤¶": 2185,
      "Ġàªķàª¹": 2186,
      "Ø¢": 2187,
      "à¤¤à¤¸": 2188,
      "ery": 2189,
      "Ġà¤īà¤¨à¤ķ": 2190,
      "ely": 2191,
      "set": 2192,
      "Ġ200": 2193,
      "Ġà¨īà¨¨": 2194,
      "à¨ĩà¨Ĩ": 2195,
      "Ġem": 2196,
      "ĠIndia": 2197,
      "Ġà´¯": 2198,
      "à®·": 2199,
      "Ġà¦ıà¦ķà¦Ł": 2200,
      "Ø§ÙĨÛģ": 2201,
      "eb": 2202,
      "Ġà¨Ĳ": 2203,
      "oid": 2204,
      "à®ķà®¤": 2205,
      "Ġà¤ªà¤¤": 2206,
      "à®Łà®©": 2207,
      "ike": 2208,
      "Ġwork": 2209,
      "Ġher": 2210,
      "Ġsp": 2211,
      "alse": 2212,
      "àŃ¦": 2213,
      "Ġà¤Ĩà¤¤": 2214,
      "ĠÙħØ±": 2215,
      "Ġà´ªà´°": 2216,
      "à¤¯à¤µà¤¸": 2217,
      "à²¯à²µ": 2218,
      "à²¨à²²": 2219,
      "à¤®à¤²": 2220,
      "Ġà¬ľà¬£": 2221,
      "ict": 2222,
      "Ġà¦Ĩà¦Ĺ": 2223,
      "ccess": 2224,
      "enc": 2225,
      "ix": 2226,
      "Ġà¤¦à¤°": 2227,
      "à¨īà¨£": 2228,
      "à®¯à®¤": 2229,
      "Ġop": 2230,
      "à¤ªà¤®": 2231,
      "urre": 2232,
      "ree": 2233,
      "itle": 2234,
      "Ġà°Ĵà°ķ": 2235,
      "log": 2236,
      "à¥ĩà¥¤": 2237,
      "wo": 2238,
      "à¥Ī,": 2239,
      "Ġuse": 2240,
      "àª°àªµ": 2241,
      "ĠÚ©ÛģØ§": 2242,
      "Ġà¨ĩà¨ķ": 2243,
      "Ġàª¨àª¥": 2244,
      "Ġimport": 2245,
      "àµį,": 2246,
      "âĢĿ": 2247,
      "ink": 2248,
      "ON": 2249,
      "à¦ªà¦°": 2250,
      "Ġàªīàªª": 2251,
      "Ġà¤¸à¤¤": 2252,
      "dition": 2253,
      "Ġà´ĩà´¤": 2254,
      "Ø§Ø¬": 2255,
      "à°¯à°ķ": 2256,
      "à¦¼à§ĭ": 2257,
      "----------------": 2258,
      "Ġà¨¸à¨ķà¨¦": 2259,
      "Ø§ÙĦÛĮ": 2260,
      "àª¨àª¨": 2261,
      "}}": 2262,
      "met": 2263,
      "à°«": 2264,
      "à®Łà®°": 2265,
      "Ġà¦¬à§°": 2266,
      "Ġ},": 2267,
      "à¬¬à¬¨": 2268,
      "ert": 2269,
      "29": 2270,
      "61": 2271,
      "ÙħØ§": 2272,
      "Ġawait": 2273,
      "Ġsc": 2274,
      "Ġà¤ªà¤¦": 2275,
      "gan": 2276,
      "Ûĥ": 2277,
      "ions": 2278,
      "ĠØ°": 2279,
      "ool": 2280,
      "Ġà®ħà®°": 2281,
      "igh": 2282,
      "à¤ĩà¤¨": 2283,
      "ĠIt": 2284,
      "àªĿ": 2285,
      "Ġwhen": 2286,
      "Pro": 2287,
      "ical": 2288,
      "line": 2289,
      "Ġqu": 2290,
      "à¤²à¤¤": 2291,
      "ER": 2292,
      "Ġà¬¬à¬°": 2293,
      "ĠâĢľ": 2294,
      "day": 2295,
      "à¥ª": 2296,
      "Ġam": 2297,
      "10": 2298,
      "à¥©": 2299,
      "========": 2300,
      "à«Ģ,": 2301,
      "Ø§Ø´": 2302,
      "ĠØªÚ¾ÛĴ": 2303,
      "ined": 2304,
      "Ù¹ÛĮ": 2305,
      "ft": 2306,
      "Ġà²¨à²¡": 2307,
      "ĠØªÙħ": 2308,
      "Ġplay": 2309,
      "à¥Ń": 2310,
      "vel": 2311,
      "à¤°à¤¨": 2312,
      "27": 2313,
      "à¨¼à©Ģ": 2314,
      "Ġabout": 2315,
      "à®¤à®®": 2316,
      "Ġà¤¬à¤¹": 2317,
      "Ġà¨ªà¨¹": 2318,
      "ade": 2319,
      "Ġà²ªà²°": 2320,
      "Ġà´ĩà´¨": 2321,
      "Ġà¤Ĩà¤ľ": 2322,
      "à¦¤à¦°": 2323,
      "Ú©ÛĮ": 2324,
      "Ġà´«": 2325,
      "à¤ķà¤°à¤£": 2326,
      "Ġà´Ł": 2327,
      "ÙĤØª": 2328,
      "à¤ķà¤®": 2329,
      "à¥Ģà¥¤": 2330,
      "Ġàªµàª§": 2331,
      "Ġafter": 2332,
      "by": 2333,
      "à¨¼à¨¿": 2334,
      "à«Ī": 2335,
      "cription": 2336,
      "à§ĭà¦ģ": 2337,
      "Ġpol": 2338,
      "ĠHe": 2339,
      "à´°à´£": 2340,
      "à²¿.": 2341,
      "Ġà´ħà´µ": 2342,
      "Ġà¤ħà¤¸à¤²": 2343,
      "Ø±ØŃ": 2344,
      "à®¯à®²": 2345,
      "oint": 2346,
      "ST": 2347,
      "\"]": 2348,
      "à®¯à®®": 2349,
      "à²°à²£": 2350,
      "à¨Ĩà¨°": 2351,
      "ound": 2352,
      "Ġà¦¸à¦ķà¦²": 2353,
      "ÚĨÚ¾": 2354,
      "à®µà®©": 2355,
      "ng": 2356,
      "à´İ": 2357,
      "Ġà¨ķà¨°à¨¦": 2358,
      "àŃĩà¥¤": 2359,
      "Ġact": 2360,
      "({": 2361,
      "ĠàŃ§àŃ": 2362,
      "à²°à²ķ": 2363,
      "à²ĥ": 2364,
      "ader": 2365,
      "cont": 2366,
      "à¨ł": 2367,
      "à¦·à¦£": 2368,
      "))": 2369,
      "à°ķà°°": 2370,
      "Ġthem": 2371,
      "Ú¯ÛĮ": 2372,
      "ĠÙĦØ¦ÛĴ": 2373,
      "à¥įà¥¤": 2374,
      "ØªØ±": 2375,
      "ĠÙĦÛĮÛĴ": 2376,
      "à©Ģ,": 2377,
      "Ġà¨¬à¨£": 2378,
      "ĠØ³Ø§ØªÚ¾": 2379,
      "uthor": 2380,
      "Ġ20": 2381,
      "bo": 2382,
      "Ġpe": 2383,
      "Ġàªµàª°": 2384,
      "ĠÙħÙĤ": 2385,
      "Ġind": 2386,
      "à¤¯à¤²": 2387,
      "Ġà²¸à²®": 2388,
      "à¦¦à§°": 2389,
      "Ġ===": 2390,
      "à¥¬": 2391,
      "Ġà¥¤à¥¤": 2392,
      "ĠØªÚ©": 2393,
      "Ġà®Ł": 2394,
      "à¦¯à¦ķ": 2395,
      "Ġà¤Ĩà¤«": 2396,
      "Ġà¤ķà¤²": 2397,
      "Ġà¤ħà¤ª": 2398,
      "Ġno": 2399,
      "ĠØ¹Ùħ": 2400,
      "ph": 2401,
      "les": 2402,
      "à¤¿,": 2403,
      "ize": 2404,
      "à¤¯à¤ª": 2405,
      "Ġfirst": 2406,
      "à«ĩàª¾": 2407,
      "Ġ15": 2408,
      "à¦®à¦¤": 2409,
      "Ġà¨§": 2410,
      "ÛģØ±": 2411,
      "clud": 2412,
      "à¬¢": 2413,
      "à¦¿,": 2414,
      "àŃĮ": 2415,
      "Ġà¦Ĩà¦²": 2416,
      "Ġà¬¡": 2417,
      "à±į,": 2418,
      "àµ¼à´¤": 2419,
      "Ġback": 2420,
      "ility": 2421,
      "Ġà¦īà¦¦": 2422,
      "à³Į": 2423,
      "Ġatt": 2424,
      "adata": 2425,
      "ied": 2426,
      "Ġà¥ª": 2427,
      "Ġà´ħà´¨": 2428,
      "Ù¹Ø±": 2429,
      "Ġhttps": 2430,
      "ĠÙĦÙĪ": 2431,
      "ange": 2432,
      "Ġà¤Ĳ": 2433,
      "Ġà´¹": 2434,
      "Res": 2435,
      "man": 2436,
      "à¤¡à¤²": 2437,
      "Ġàª®àª¹": 2438,
      "àª¾,": 2439,
      "à±Ĭà°Ĥ": 2440,
      "à¦¿à¦Ĥ": 2441,
      "98": 2442,
      "Ġà®ħà®®": 2443,
      "ank": 2444,
      "Ġà¬Ĩà¬¸": 2445,
      "unction": 2446,
      "ÙģØ±": 2447,
      "Ġàª¬àª¨": 2448,
      "à´¾à´Ĥ": 2449,
      "à¦°à¦®": 2450,
      "Ġà¦¹à¦¬": 2451,
      "Ġcol": 2452,
      "ÙħØ¯": 2453,
      "sp": 2454,
      "ĠØªØ±": 2455,
      "();": 2456,
      "Ġstatus": 2457,
      "ĠØ§Ø²": 2458,
      "Ġother": 2459,
      "ĠØ³Ø±": 2460,
      "à§¨": 2461,
      "Ġà¤®à¤§": 2462,
      "ose": 2463,
      "à°¯à°®": 2464,
      "Ġagain": 2465,
      "à¤µà¤¯": 2466,
      "Ġrun": 2467,
      "Ġà¥«": 2468,
      "Ġà´¸à´®": 2469,
      "à¤¦à¤¸": 2470,
      "à¤¶à¤ķ": 2471,
      "Ø¬Ûģ": 2472,
      "ÛĮØª": 2473,
      "ning": 2474,
      "Ġà´¡": 2475,
      "ask": 2476,
      "Ġà¦¬à¦¹": 2477,
      "Ġrem": 2478,
      "fore": 2479,
      "à¦²à¦ķ": 2480,
      "anc": 2481,
      "ĠNone": 2482,
      "ru": 2483,
      "urrent": 2484,
      "Ø¯Ø±": 2485,
      "à¨°à¨¦": 2486,
      "vider": 2487,
      "type": 2488,
      "ĠØ¬Ø¨": 2489,
      "return": 2490,
      "ek": 2491,
      "à¥ĭà¥¤": 2492,
      "AAAAAAAAAAAAAAAA": 2493,
      "à¤°à¤ļ": 2494,
      "\\\"": 2495,
      "Ø³ØªØ§ÙĨ": 2496,
      "key": 2497,
      "Ġà¤¹à¤ľ": 2498,
      "Ġwould": 2499,
      "àµģà´Ĥ.": 2500,
      "Ġà¬ħà¬§": 2501,
      "ma": 2502,
      "Ø´ÙĨ": 2503,
      "à¦¬à¦¸": 2504,
      "Ġà¤ĩà¤¨": 2505,
      "à¥¥": 2506,
      "Ġà°īà°¨": 2507,
      "Ġ`": 2508,
      "à¦¼,": 2509,
      "ĠØ³Ú©": 2510,
      "ĠØ®ÙĪ": 2511,
      "à®¯à®°": 2512,
      "à¤¤à¤¦": 2513,
      "Ġà¦ħà¦¸à¦®": 2514,
      "à¤®à¤ļ": 2515,
      "à¦Ĺà§°": 2516,
      "à¦·à¦¯": 2517,
      "ove": 2518,
      "Ġà¤ħà¤¶": 2519,
      "htt": 2520,
      "àª¶àª¨": 2521,
      "but": 2522,
      "ĠØ¹ÙĦ": 2523,
      "ĠØ¨Ø§": 2524,
      "à°Łà°°": 2525,
      "à²¡à²²": 2526,
      "à¤¼à¤¾": 2527,
      "be": 2528,
      "Ġthere": 2529,
      "à¨¯": 2530,
      "ason": 2531,
      "Ġà¬®à¬¹": 2532,
      "request": 2533,
      "Ġà¦ļà¦²": 2534,
      "li": 2535,
      "ĠÚ¯Ø§": 2536,
      "à¬Łà¬°": 2537,
      "Ġà¬ĩ": 2538,
      "à¦¢": 2539,
      "ĠÙģÛĮ": 2540,
      "àª¸àª¨": 2541,
      "à¤·à¤¯": 2542,
      "Ø¨Ûģ": 2543,
      "à¤Łà¤²": 2544,
      "status": 2545,
      "iel": 2546,
      "Ø§Øµ": 2547,
      "à¥®": 2548,
      "25": 2549,
      "Ġ18": 2550,
      "ener": 2551,
      "Ġà¤¯à¤¦": 2552,
      "Ġcomm": 2553,
      "umber": 2554,
      "Ġà¦¸à¦¨": 2555,
      "Ġapp": 2556,
      "ĠRe": 2557,
      "?.": 2558,
      "use": 2559,
      "Ġi": 2560,
      "Ġfil": 2561,
      "Ġdata": 2562,
      "pr": 2563,
      "ĠØ¯ÛĮØ§": 2564,
      "à´°à´µ": 2565,
      "Ġpr": 2566,
      "ĠàŃ¨": 2567,
      "à²°à²®": 2568,
      "read": 2569,
      "à¦¸à¦ķà¦²": 2570,
      "ĠØ¨Ø¹Ø¯": 2571,
      "à¨¾,": 2572,
      "uk": 2573,
      "ages": 2574,
      "overn": 2575,
      "ĠĠĠĠĠĠĠĠĠĠĠĠĠĠĠĠĠ": 2576,
      "ault": 2577,
      "ET": 2578,
      "Ġà¦¸à¦¹": 2579,
      "Ġà¤ĺà¤°": 2580,
      "àªµàª¨": 2581,
      "à²Ĺà²³à²²": 2582,
      "Ø§Ø±ÛĴ": 2583,
      "ization": 2584,
      "Ġà®ªà®Ł": 2585,
      "à°İ": 2586,
      "ĠØ¬ÙĨ": 2587,
      "11": 2588,
      "Ġà¦ħà¦§": 2589,
      "ÙħØ§ÙĨ": 2590,
      "void": 2591,
      "à¨ķà¨¸": 2592,
      "Ġà²¡": 2593,
      "url": 2594,
      "à¤·à¤ķ": 2595,
      "Ġà¤¸à¤ķà¤¤": 2596,
      "à±Į": 2597,
      "à¬®à¬°": 2598,
      "ments": 2599,
      "Ġàª®àª³": 2600,
      "Ġà´ı": 2601,
      "à¥Ī.": 2602,
      "à¤ªà¤Ľ": 2603,
      "ĠØŃÚ©": 2604,
      "Ġà´Ī": 2605,
      "à¥Įà¤Ĥ": 2606,
      "Ġà²Ł": 2607,
      "def": 2608,
      "tings": 2609,
      "Ġver": 2610,
      "ĠAn": 2611,
      "ĠÙħØª": 2612,
      "Ġmatchers": 2613,
      "ople": 2614,
      "à²İ": 2615,
      "Ġà¬®à¬¨": 2616,
      "Ġfe": 2617,
      "à¤¸à¤¤": 2618,
      "à®©à®¤": 2619,
      "ton": 2620,
      "ĠÚ©Ø±ØªÛĴ": 2621,
      "Ġà°ħà°µ": 2622,
      "Ø¬Ú¾": 2623,
      "Con": 2624,
      "à«ģàªĤ.": 2625,
      "ten": 2626,
      "Ġà¦Ĩà¦¸": 2627,
      "à¤®à¤°": 2628,
      "Ġà¦¹à¦²": 2629,
      "from": 2630,
      "Ġà¤ĸà¤°": 2631,
      "à¦®à§°": 2632,
      "ĠÚ©ÙĪØ¦ÛĮ": 2633,
      "px": 2634,
      "à¬Ĺà¬°": 2635,
      "à¤ªà¤¯": 2636,
      "à¦¶à¦¨": 2637,
      "Ġdet": 2638,
      "hi": 2639,
      "à²«": 2640,
      "Ġà®µà®´": 2641,
      "à²¤à²¨": 2642,
      "ugh": 2643,
      "Ġjust": 2644,
      "Ġà¬Ľ": 2645,
      "cess": 2646,
      "à´²à´¯": 2647,
      "duct": 2648,
      "pos": 2649,
      "à¤µà¤ª": 2650,
      "ĠÙħØ´": 2651,
      "à¬ļà¬¨": 2652,
      "à¤¥à¤®": 2653,
      "Ġ11": 2654,
      "Ġbody": 2655,
      "Ġà¤Ĩà¤¦": 2656,
      "Ġàªĵ": 2657,
      "als": 2658,
      "orld": 2659,
      "Ġà´µà´°": 2660,
      "à²¦à²¨": 2661,
      "Ġonly": 2662,
      "ield": 2663,
      "IN": 2664,
      "ÙĤÛĮ": 2665,
      "Ġlike": 2666,
      "Ġinto": 2667,
      "Ġtwo": 2668,
      "\";": 2669,
      "àªµàªµ": 2670,
      "à¨¾à¥¤": 2671,
      "à´¯à´ķ": 2672,
      "à¬³à¬°": 2673,
      "à¬¾,": 2674,
      "Ø³Ø±": 2675,
      "à¤°à¤§": 2676,
      "Ġà¦¹à¦ĩ": 2677,
      "ities": 2678,
      "ems": 2679,
      "hed": 2680,
      "à¤Ĺà¤®": 2681,
      "irect": 2682,
      "Ġà¥¨à¥¦": 2683,
      "ister": 2684,
      "Ġà°ķà°²": 2685,
      "à¨¸à¨¤": 2686,
      "Ġkn": 2687,
      "à´µà´¨": 2688,
      "Th": 2689,
      "àªĨ": 2690,
      "Ġ30": 2691,
      "à¦¤à¦¨": 2692,
      "Ġà´ĵ": 2693,
      "Ġà¤ªà¤ķ": 2694,
      "46": 2695,
      "Ġbo": 2696,
      "code": 2697,
      "bb": 2698,
      "Ġà¦§à§°": 2699,
      "Ġsome": 2700,
      "à¤¼à¥į": 2701,
      "à¦²à¦¨": 2702,
      "à®³à®°": 2703,
      "Ġà¤¸à¤¨": 2704,
      "100": 2705,
      "ÙĦÙĪ": 2706,
      "Ġ_": 2707,
      "Ġà²Ĩà²Ĺ": 2708,
      "ĉĉĉĉĉ": 2709,
      "ĠØ§Ø¹": 2710,
      "à¬¿,": 2711,
      "Ġhim": 2712,
      "Ġà¨¬à¨¹": 2713,
      "àŃĩ,": 2714,
      "à±ĩà°Ĥ": 2715,
      "à¤µà¤£": 2716,
      "Ġà¤¤à¤ķ": 2717,
      "à¬ĥ": 2718,
      "ele": 2719,
      "api": 2720,
      "Ġel": 2721,
      "à¤¨à¤¤": 2722,
      "à¨°à¨ľ": 2723,
      "Ġ&&": 2724,
      "UR": 2725,
      "àªľàª¨": 2726,
      "ĠØŃØ¶": 2727,
      "Ġà®ħà®Ł": 2728,
      "Ġà¦®à¦§": 2729,
      "Ġà¦¬à¦¨": 2730,
      "abel": 2731,
      "à²²à²µ": 2732,
      "ĠØ¶": 2733,
      "à¥ĭ,": 2734,
      "Ġà²Ĩà²°": 2735,
      "à®ŀ": 2736,
      "ms": 2737,
      "efined": 2738,
      "Ġunder": 2739,
      "ĠØ¬Ø§Øª": 2740,
      "à°·à°¨": 2741,
      "user": 2742,
      "à¬°à¬¸": 2743,
      "Ġmin": 2744,
      "Ġà¦Ĩà¦¬": 2745,
      "Ġsup": 2746,
      "Ġvi": 2747,
      "Ġà²«": 2748,
      "à¤µà¤¦": 2749,
      "Cont": 2750,
      "ater": 2751,
      "à®¤à®©": 2752,
      "Ġà°ħà°¯": 2753,
      "à¨Ľ": 2754,
      "Ġà¤ħà¤¸à¤¤": 2755,
      "Ġàªħàª®": 2756,
      "Ġà®ħà®©": 2757,
      "à¦ĩà¦¨": 2758,
      "ÙĪØ±ÛĮ": 2759,
      "à¦ľà§°": 2760,
      "pec": 2761,
      "à¤¯à¤¦": 2762,
      "12": 2763,
      "à¬ĺ": 2764,
      "à¦²à§°": 2765,
      "à°®à°¨": 2766,
      "Ġstart": 2767,
      "18": 2768,
      "à´ļà´¤": 2769,
      "à´°à´ķ": 2770,
      "àª¤àª¨": 2771,
      "ĠThis": 2772,
      "ĠØ§ÛĮÙĨ": 2773,
      "ĠØ³ÙĪ": 2774,
      "Ġsever": 2775,
      "ÛĮÚ©ÙĨ": 2776,
      "à°°à°£": 2777,
      "Ġàª¨àª¹": 2778,
      "rror": 2779,
      "Ġàªªàª¡": 2780,
      "ger": 2781,
      "mer": 2782,
      "ĠÙħØ·": 2783,
      "47": 2784,
      "ĠÚ©Ø³ÛĮ": 2785,
      "à¤Ńà¤µ": 2786,
      "Ġà¨ħà¨¸": 2787,
      "ĠÚ©Ùħ": 2788,
      "ĠØ¬Ø§ÙĨ": 2789,
      "à¤®à¤¸": 2790,
      "à¦¹à§°": 2791,
      "Ġadd": 2792,
      "Ġpath": 2793,
      "vers": 2794,
      "à¦ħ": 2795,
      "of": 2796,
      "ĠØ³Ø¨": 2797,
      "Ġà¤Ĩà¤ªà¤²": 2798,
      "à¤ľà¤°": 2799,
      "work": 2800,
      "Ġàª¥àª¯": 2801,
      "àª¯àª¨": 2802,
      "Ġent": 2803,
      "Ġà´¤à´¨": 2804,
      "?:": 2805,
      "ie": 2806,
      "ĠØªÚ¾ÛĮ": 2807,
      "Ġà¦Ĩà¦¦": 2808,
      "à¦ķà¦¤": 2809,
      "à¤Ľà¤¨": 2810,
      "Ġà¤¸à¤Ń": 2811,
      "à¥ģà¤ĥ": 2812,
      "Ġend": 2813,
      "ubl": 2814,
      "Ġà¦ķà¦²": 2815,
      "Ġpeople": 2816,
      "à¨¬à¨°": 2817,
      "Ġà´¨à´Ł": 2818,
      "Ġour": 2819,
      "à¥¯": 2820,
      "à¦Łà¦¨": 2821,
      "à®²à®®": 2822,
      "Ġà²¸à²°": 2823,
      "message": 2824,
      "Ġid": 2825,
      "Ø³ÛĴ": 2826,
      "ĠNew": 2827,
      "ĠØ¨Úĳ": 2828,
      "Ġà¨®à¨¹": 2829,
      "Ġà¤Ĩà¤§": 2830,
      "Ġà®¯": 2831,
      "Ġà¦ķà¦®": 2832,
      "Ġ==": 2833,
      "Ġà¤ħà¤²": 2834,
      "ÙĪØ±Øª": 2835,
      "à°ĥ": 2836,
      "Ġfin": 2837,
      "Ġlast": 2838,
      "à´¤à´®": 2839,
      "ww": 2840,
      "à²¯à²°": 2841,
      "ÙĪÛģ": 2842,
      "ags": 2843,
      "ating": 2844,
      "data": 2845,
      "Ġbet": 2846,
      "Ġà¤īà¤¸": 2847,
      "Ø§Ø¡": 2848,
      "red": 2849,
      "à¦°à¦¸": 2850,
      "à¥į,": 2851,
      "ca": 2852,
      "ible": 2853,
      "Ġà¨Ľ": 2854,
      "ĠÛģÙĪØ¦ÛĴ": 2855,
      "Ġshe": 2856,
      "ĠÚ©Ú¾": 2857,
      "à¤½à¤ª": 2858,
      "Ġà¤¹à¤°": 2859,
      "]?": 2860,
      "Ġmax": 2861,
      "Ġext": 2862,
      "à®°à®¤": 2863,
      "ÛĮØ²": 2864,
      "Ġà¤¬à¤¸": 2865,
      "Ġà¦Ĩà¦ķ": 2866,
      "Ġà¤Ĺà¤¤": 2867,
      "Ġ()": 2868,
      "à¤®à¤£": 2869,
      "ĠØ¯ÙĨ": 2870,
      "ÙħÛģ": 2871,
      "à«ĢàªĤ": 2872,
      "Ġà¦Ĩà¦ľ": 2873,
      "yst": 2874,
      "Ġà¤¶à¤°": 2875,
      "arch": 2876,
      "Ġà¦ł": 2877,
      "à¤¨à¤²": 2878,
      "Ø®Øª": 2879,
      "Ġà¥¬": 2880,
      "à°°à°¸": 2881,
      "Ġà¦ħà¦¤": 2882,
      "à¨ķà¨°": 2883,
      "Ġ$": 2884,
      "Ġuser": 2885,
      "à©Ģ.": 2886,
      "ana": 2887,
      "Ġacc": 2888,
      "ting": 2889,
      "àªµàª¸": 2890,
      "àµ¼à´ķ": 2891,
      "Ġàªĩ": 2892,
      "lex": 2893,
      "à¤²à¤¬": 2894,
      "ĠÙĦÙĪÚ¯": 2895,
      "ne": 2896,
      "à¬ĩà¬¬": 2897,
      "ual": 2898,
      "Ġàªªàª¹": 2899,
      "à²¤à²µ": 2900,
      "Ġob": 2901,
      "Ġà¤ħà¤®": 2902,
      "erson": 2903,
      "Ġbu": 2904,
      "oug": 2905,
      "à¤¹à¤¨": 2906,
      "à§§à§": 2907,
      "ĠØ¨Ø§Øª": 2908,
      "Ġà®ľ": 2909,
      "Ġà¤¹à¤®": 2910,
      "Ġà¤¨à¤µ": 2911,
      "Ġà¤²à¤ķ": 2912,
      "edi": 2913,
      "view": 2914,
      "ÙħÙĨ": 2915,
      "Ġà¤ħà¤¬": 2916,
      "val": 2917,
      "à¦²à¦¯": 2918,
      "Ġà¤ĩà¤¸à¤ķ": 2919,
      "Ġà²ı": 2920,
      "ervice": 2921,
      "Ġà²®à²¨": 2922,
      "Ġresult": 2923,
      "à¨ķà¨¤": 2924,
      "oh": 2925,
      "à¦°à¦¬": 2926,
      "Ġnull": 2927,
      "ĠØ§Ù¾ÙĨÛĮ": 2928,
      "Ġteam": 2929,
      "ĠØ¬Ø§": 2930,
      "ÙģØª": 2931,
      "ational": 2932,
      "Ġà®ħà®±": 2933,
      "à¤ķà¤¸": 2934,
      "AT": 2935,
      "icy": 2936,
      "ĠÛģÙĪØ§": 2937,
      "export": 2938,
      "ics": 2939,
      "99": 2940,
      "Ġà¦ķà¦°à¦¤": 2941,
      "à¬¬à¬¸": 2942,
      "Ġà¤¸à¤®à¤¯": 2943,
      "àª¤àª°": 2944,
      "à«ĭàªĤ": 2945,
      "uring": 2946,
      "àªµàª°": 2947,
      "ased": 2948,
      "à¦¦à¦¨": 2949,
      "à¬ľà¬¨": 2950,
      "Ġà¦¸à¦¬": 2951,
      "Ġauthor": 2952,
      "Ġà¤¶à¤ķ": 2953,
      "Ġlead": 2954,
      "Ø§Ø±Ûģ": 2955,
      "Ġà¦ıà¦ĸà¦¨": 2956,
      "Ġà¦®à¦¤": 2957,
      "à¤µà¤ļ": 2958,
      "Ġrec": 2959,
      "Ġà²ĩà²²": 2960,
      "ts": 2961,
      "Ġagainst": 2962,
      "Ġhigh": 2963,
      "ĠÚ©Ø§Ùħ": 2964,
      "Ġborder": 2965,
      "Ġcount": 2966,
      "à°µà°²": 2967,
      "Ġmon": 2968,
      "ĠØ±Ú©Ú¾": 2969,
      "Ġ14": 2970,
      "Ġà¤Ĩà¤®": 2971,
      "Ġà¦¯à¦¦": 2972,
      "à¬¦à¬°": 2973,
      "àªķàª°": 2974,
      "arg": 2975,
      "tern": 2976,
      "ĠØŁ": 2977,
      "ength": 2978,
      "Ġà¦īà¦ł": 2979,
      "à¦ķà¦°": 2980,
      "Ġà®ªà®²": 2981,
      "ĠØ·Ø±ØŃ": 2982,
      "Ġ16": 2983,
      "à²¸à²°": 2984,
      "Ġà°¤à°¨": 2985,
      "plo": 2986,
      "[\"": 2987,
      "Ġà¨Ĺà¨Ī": 2988,
      "Ġthan": 2989,
      "ify": 2990,
      "its": 2991,
      "àªĵàª¨": 2992,
      "Ch": 2993,
      "à¨Ĺà¨°": 2994,
      "à¤¦à¤²": 2995,
      "ĠØ§ØŃ": 2996,
      "ĠÙĨØ¸": 2997,
      "Ġà¤ħà¤µ": 2998,
      "à°²à°²": 2999,
      "ĠØ£": 3000,
      "ĠÙĤØ±": 3001,
      "EN": 3002,
      "15": 3003,
      "Ġundefined": 3004,
      "me": 3005,
      "à¤§à¤°": 3006,
      "ute": 3007,
      "à´°à´¸": 3008,
      "Ġà°ľà°°": 3009,
      "ĠÙ¾Ø§Ú©": 3010,
      "Ġà¤ªà¤¹à¤²": 3011,
      "af": 3012,
      "lob": 3013,
      "Ġà¤ĳ": 3014,
      "'t": 3015,
      "à®°à®£": 3016,
      "par": 3017,
      "ted": 3018,
      "Ġà²ľà²¨": 3019,
      "abled": 3020,
      "io": 3021,
      "Ġ>": 3022,
      "à¨®à¨²": 3023,
      "ee": 3024,
      "Ġ//": 3025,
      "Ġtest": 3026,
      "ÙĨÛģ": 3027,
      ")}": 3028,
      "Ġà´Ĩà´°": 3029,
      "overnment": 3030,
      "info": 3031,
      "Ġà¬ķà¬²": 3032,
      "à¬®à¬¨": 3033,
      "Model": 3034,
      "roup": 3035,
      "à²¯à²¦": 3036,
      "à¬ªà¬£": 3037,
      "Ġà¦ıà¦¨": 3038,
      "json": 3039,
      "Ġsub": 3040,
      "Ġà´ķà´´": 3041,
      "à¤°à¤ľ": 3042,
      "ĠÛģØ±": 3043,
      "Ġmessage": 3044,
      "à¦¥à¦®": 3045,
      "word": 3046,
      "Ġser": 3047,
      "Ġ13": 3048,
      "Ġà¤ħà¤¹": 3049,
      "Ġstate": 3050,
      "Ġà´ªà´±à´ŀ": 3051,
      "à®ĩ": 3052,
      "à©ĩ,": 3053,
      "Ġà²µà²°": 3054,
      "State": 3055,
      "Ġà¦²à¦Ĺà¦¤": 3056,
      "à¦¤à¦ķ": 3057,
      "ract": 3058,
      "ĠØ±ÛģÛĴ": 3059,
      "ection": 3060,
      "Ø¯Ø§": 3061,
      "à°¤à°°": 3062,
      "Ġà²İà²²": 3063,
      "ower": 3064,
      "Ġà¦ĩà¦¯": 3065,
      "à¤ªà¤£": 3066,
      "Ġà¤§à¤°": 3067,
      "Ġà¦¸à¦Ļ": 3068,
      "lock": 3069,
      "SS": 3070,
      "Ġà¦¬à¦Ľ": 3071,
      "Ġ25": 3072,
      "Ġnow": 3073,
      "à¤¨à¤µ": 3074,
      "Ġà®ıà®±": 3075,
      "ource": 3076,
      "16": 3077,
      "Ġà¨¸à¨¨": 3078,
      "Ġhand": 3079,
      "Ġà¬ħà¬Ń": 3080,
      "su": 3081,
      "à°ªà°¡": 3082,
      "Ġwhat": 3083,
      "à¦¾-": 3084,
      "Ġac": 3085,
      "ĠØ¨Ú¾": 3086,
      "ĠCom": 3087,
      "ÛĮÙĦ": 3088,
      "à®¤à®°": 3089,
      "àµĮ": 3090,
      "Ġà¤īà¤¨à¤²": 3091,
      "àŃĪ": 3092,
      "},": 3093,
      "aking": 3094,
      "http": 3095,
      "Ġx": 3096,
      "àªĥ": 3097,
      "ĠÛģÙĪÚº": 3098,
      "Ġà¦®à¦ĩ": 3099,
      "Ġà®ĩà®²": 3100,
      "à©ĩà¥¤": 3101,
      "Ġà¦ħà¦¸": 3102,
      "Ø§ÙĪØ±": 3103,
      "40": 3104,
      "Ġà´ķà´£": 3105,
      "back": 3106,
      "Ex": 3107,
      "Ġà®ķà®²": 3108,
      "Ġpar": 3109,
      "hod": 3110,
      "ole": 3111,
      "Ġà¤ľà¤¬": 3112,
      "Ø¯Ø§Ø±": 3113,
      "à°¨à°Ł": 3114,
      "Ġà°¤à°°": 3115,
      "time": 3116,
      "Ġà®µà®¨": 3117,
      "à¤·à¤¤": 3118,
      "Ġà²¬à²³": 3119,
      "Ġà¤ħà¤Ĺ": 3120,
      "Ġreport": 3121,
      "ĠØ§Ú¯Ø±": 3122,
      "session": 3123,
      "reat": 3124,
      "Ġdig": 3125,
      "Ġint": 3126,
      "Ġshould": 3127,
      "Ġà¦¨à¦¹": 3128,
      "Ġcould": 3129,
      "ful": 3130,
      "Cl": 3131,
      "à´ĺ": 3132,
      "byte": 3133,
      "32": 3134,
      "à¤ıà¤°": 3135,
      "riv": 3136,
      "Ġà¤¯à¤¥": 3137,
      "à¤¸à¤¦": 3138,
      "à¨ĵ": 3139,
      "à¤²à¤²": 3140,
      "Ġinclud": 3141,
      "value": 3142,
      "add": 3143,
      "Ġmy": 3144,
      "Ġbefore": 3145,
      "à®ķà®²": 3146,
      "ices": 3147,
      "àŃģà¬ģ": 3148,
      "à°ķà°²": 3149,
      "à³į,": 3150,
      "Ġà¬īà¬ª": 3151,
      "à¨°à¨Ł": 3152,
      "ml": 3153,
      "à¨ªà¨¤": 3154,
      "....": 3155,
      "à²¬à²¹": 3156,
      "Ġà¬Ĩà¬®": 3157,
      "à²²à²ķ": 3158,
      "ever": 3159,
      "Ġà¤īà¤¸à¤ķ": 3160,
      "Ġà¤¤à¤¯": 3161,
      "Ġneed": 3162,
      "self": 3163,
      "àªŁàª¨": 3164,
      "Tr": 3165,
      "ĠÚ©Ø§Ø±": 3166,
      "rough": 3167,
      "à°¤à°¨": 3168,
      "col": 3169,
      "ĠØªØŃ": 3170,
      "Ġà®ķà®£": 3171,
      "alth": 3172,
      "Ġàª®àª¨": 3173,
      "à®¿,": 3174,
      "PI": 3175,
      "eep": 3176,
      "ĠØ±Ø³": 3177,
      "Ġdescription": 3178,
      "à¥ģà¤ģ": 3179,
      "Ġà¨¸à¨Ń": 3180,
      "ĠàªĹàª¯": 3181,
      "Ġtrans": 3182,
      "Ġhel": 3183,
      "Ġ]": 3184,
      "à¤ªà¤¸": 3185,
      "ĠEx": 3186,
      "à®ªà®°": 3187,
      "Ø¹Ûģ": 3188,
      "Ġ50": 3189,
      "à¨¸à¨Ł": 3190,
      "Ġà°µà°ļ": 3191,
      "à²°à²²": 3192,
      "ĠØ¨ÙĦ": 3193,
      "Ġà¤ļà¤²": 3194,
      "az": 3195,
      "à¦¤à¦®": 3196,
      "ference": 3197,
      "Ġ--": 3198,
      "Ġlog": 3199,
      "Ġà®ļà®®": 3200,
      "ptions": 3201,
      "à¤Ĺà¤£": 3202,
      "ann": 3203,
      "à´¯à´¨": 3204,
      "Ġph": 3205,
      "ÙħØª": 3206,
      "Ġà®¤à®®": 3207,
      "Ø§Ø¯ÛĮ": 3208,
      "àª¯àª®": 3209,
      "Base": 3210,
      "à¤¨à¤°": 3211,
      "à°°à°Ń": 3212,
      "vent": 3213,
      "ability": 3214,
      "query": 3215,
      "Ġà¦Ĩà¦ª": 3216,
      "ĠAs": 3217,
      "heck": 3218,
      "à¬¾à¥¤": 3219,
      "Ġself": 3220,
      "à²Ĺà²²": 3221,
      "{{": 3222,
      "ĠâĢĶ": 3223,
      "Request": 3224,
      "press": 3225,
      "Ûĵ": 3226,
      "ÛĮÚ©Ú¾": 3227,
      "à´Łà´Ļ": 3228,
      "Ġasync": 3229,
      "Ġà¤¬à¤ľ": 3230,
      "Ġpos": 3231,
      "ĠØ§ÙĨÛģ": 3232,
      "ÛĶ": 3233,
      "48": 3234,
      "Ġà²ĸ": 3235,
      "à®®à®²": 3236,
      "Ġà¥Ń": 3237,
      "test": 3238,
      "string": 3239,
      "à°ªà°Ł": 3240,
      "Path": 3241,
      "gent": 3242,
      "ĠØ±Ø§": 3243,
      "ĠUn": 3244,
      "àª¯àªķ": 3245,
      "Ġhow": 3246,
      "cript": 3247,
      "à´ªà´¤": 3248,
      "ames": 3249,
      "Ġà¬¸à¬®à¬¸": 3250,
      "Ġà¦ıà¦°": 3251,
      "Ġlist": 3252,
      "Ġmost": 3253,
      "ĠÚĨØ§Ûģ": 3254,
      "à²¬à²°": 3255,
      "à§İà¦¸": 3256,
      "à°¯à°²": 3257,
      "ĠÙ¾Úĳ": 3258,
      "ĠÚ¯ÛĴ": 3259,
      "Ø§Ø¶": 3260,
      "Ġà®ĩà®©": 3261,
      "à¤µà¤¡": 3262,
      "ĠØ³Ø§ÙĦ": 3263,
      "sert": 3264,
      "à¬·à¬°": 3265,
      "65": 3266,
      "Ġà¤¯à¤¤": 3267,
      "wh": 3268,
      "Ġà¨¹à¨°": 3269,
      "à¦¼à§Ģ": 3270,
      "Ġà¤Ĺà¤Ī": 3271,
      "Ġà¦¥à¦ķ": 3272,
      "à®²à®¤": 3273,
      "Ġnumber": 3274,
      "Ġ17": 3275,
      "à¦Ľà¦¤": 3276,
      "à°Ĩ": 3277,
      "à§«": 3278,
      "Ġcall": 3279,
      "êŀ": 3280,
      "à±ĭà°Ĥ": 3281,
      "Ġà®ªà®£": 3282,
      "path": 3283,
      "202": 3284,
      "à¤¦à¤µ": 3285,
      "date": 3286,
      "à¤¶à¤¤": 3287,
      "VE": 3288,
      "ĠàªªàªĽ": 3289,
      "Ġàª¸àª°": 3290,
      "ared": 3291,
      "à«¦": 3292,
      "ØªÙħ": 3293,
      "à´·à´£": 3294,
      "Ġà¦ħà¦¬": 3295,
      "quire": 3296,
      "Ġà²Ĩà²¦à²°": 3297,
      "à¤¡à¤ķ": 3298,
      "Ġlook": 3299,
      "Ġinst": 3300,
      "air": 3301,
      "Ġshow": 3302,
      "à¤®à¤ª": 3303,
      "ĠØ§Ø±": 3304,
      "Ġà²ħà²µ": 3305,
      "Ġvalue": 3306,
      "ground": 3307,
      "Ġà¦ªà¦¡": 3308,
      "Ġmetadata": 3309,
      "db": 3310,
      "Ġà®ħà®°à®ļ": 3311,
      "Ġevery": 3312,
      "Ġtry": 3313,
      "ĠPro": 3314,
      "à¤¸à¤¹": 3315,
      "ÛģÙħ": 3316,
      "ĠÙĦÚ¯": 3317,
      "ches": 3318,
      "Ġcomp": 3319,
      "àªªàª¨": 3320,
      "Ġà¦īà¦¤": 3321,
      "mit": 3322,
      "Ġà°Ĩà°°": 3323,
      "ÙģÛĮ": 3324,
      "ĠWh": 3325,
      "à¤Łà¤®": 3326,
      "ats": 3327,
      "àµ½à´ķ": 3328,
      "ized": 3329,
      "Ġà°ħà°§": 3330,
      "model": 3331,
      "à«Į": 3332,
      "à¤¬à¤²": 3333,
      "à®¿.": 3334,
      "ollow": 3335,
      "Ġà®®à®ķ": 3336,
      "àªŁàª°": 3337,
      "ĠÙĨØ§Ùħ": 3338,
      "ification": 3339,
      "Ġmake": 3340,
      "à§°à¦®": 3341,
      "à´µà´¸": 3342,
      "ugin": 3343,
      "Ġàª¦àª°": 3344,
      "Ġà²ħà²§": 3345,
      "URL": 3346,
      "Ġà²ķà²°": 3347,
      "Ġwhile": 3348,
      "Ġà¦§à¦°": 3349,
      "ative": 3350,
      "à®¯à®©": 3351,
      "Type": 3352,
      "à´¨à´Ļ": 3353,
      "Ġàªıàªµ": 3354,
      "Ġàª¥àªĪ": 3355,
      "êŀĮ": 3356,
      "ĠØ²ÛĮØ§": 3357,
      "Ġà´ħà´±": 3358,
      "((": 3359,
      "àµº": 3360,
      "à®Łà®Ļ": 3361,
      "Ġà®²": 3362,
      "Ġrequest": 3363,
      "à¦¤à¦¬": 3364,
      "ganization": 3365,
      "ha": 3366,
      "Ø±Ûģ": 3367,
      "à²ľà²¨": 3368,
      "iss": 3369,
      "Ġmay": 3370,
      "à¨¼à©ģ": 3371,
      "uch": 3372,
      "ures": 3373,
      "Ġà´®à´±": 3374,
      "à¥ĭ.": 3375,
      "Ġ});": 3376,
      "à¬¸à¬°": 3377,
      ",\"": 3378,
      "ĠØ¬Ø§Ø¦ÛĴ": 3379,
      "Ġà¦ıà¦¤": 3380,
      "Ġàª¤àª°": 3381,
      "Ġerror": 3382,
      "Ġà¤¬à¤°": 3383,
      "Ġna": 3384,
      "Ġàªķàª°àª¤": 3385,
      "Ġà¤Ĩà¤Ĺ": 3386,
      "cond": 3387,
      "Ġkey": 3388,
      "à§±à§°": 3389,
      "17": 3390,
      "àªī": 3391,
      "ĠØ¹ÙĦÛĮÛģ": 3392,
      "Ġà°ĵ": 3393,
      "à¦°à¦¹": 3394,
      "ys": 3395,
      "à¦°à¦¦": 3396,
      "Ú©ÙĦ": 3397,
      "Ġà¦¸à¦Ń": 3398,
      "han": 3399,
      "à²²à²¦": 3400,
      "ĠÙĨÙĪ": 3401,
      "Ġfalse": 3402,
      "Ø¬ÙĪØ¯": 3403,
      "Set": 3404,
      "ams": 3405,
      "Ġà¤Ńà¤µ": 3406,
      "Ø§Ø¨ÙĤ": 3407,
      "ote": 3408,
      "SE": 3409,
      "à®¤à®ª": 3410,
      "à°¤à°®": 3411,
      "rem": 3412,
      "Ġà®¤à®²": 3413,
      "à¬ľà¬°": 3414,
      "àªªàª°": 3415,
      "ĠÙĪÙĤØª": 3416,
      "Ġ/>": 3417,
      "Ġwell": 3418,
      "à¬¸à¬¨": 3419,
      "Ġà°ĩà°¦": 3420,
      "span": 3421,
      "ĠPr": 3422,
      "icket": 3423,
      "à§±à¦¸": 3424,
      "ĠÙĪØ§ÙĦÛĴ": 3425,
      "Ġà´®à´¨": 3426,
      "ĠØ¨ÛģØª": 3427,
      "à²°à²¸": 3428,
      "à¤¦à¤®": 3429,
      "Ġthrough": 3430,
      "àŃ¨": 3431,
      "àªľàª°": 3432,
      "ÙĦÙĤ": 3433,
      "Ġà®ªà®ķ": 3434,
      "TP": 3435,
      "oin": 3436,
      "à¤°à¤¹à¤°": 3437,
      "Ġà¦ħà¦°": 3438,
      "à¤¼à¥Ģ": 3439,
      "ÙĪØ³": 3440,
      "ĠØŃØ¶Ø±Øª": 3441,
      "à¨ħà¨¦": 3442,
      "ains": 3443,
      "âĶĢâĶĢâĶĢâĶĢ": 3444,
      "ĠÛģÙĪÙĨÛĴ": 3445,
      "ager": 3446,
      "13": 3447,
      "à¤Īà¤²": 3448,
      "ĠAr": 3449,
      "Ġwords": 3450,
      "imit": 3451,
      "Ġà¬ĵà¬¡": 3452,
      "**": 3453,
      "à¦ĩà¦Ł": 3454,
      "Ġcons": 3455,
      "200": 3456,
      "Ġ100": 3457,
      "ĠØ³ÛĮ": 3458,
      "à¤¾-": 3459,
      "àªµàª¤": 3460,
      "ĠØ¯ÙĪØ±": 3461,
      "Ġà¤µà¤¸": 3462,
      "Ġà¤ħà¤µà¤¸": 3463,
      "ĠØ¯ÛĮÚ©Ú¾": 3464,
      "Ġà°®à°¨": 3465,
      "à¦ĩà¦Ľ": 3466,
      "à¤ľà¤¯": 3467,
      "à¬°à¬¹": 3468,
      "àŃŁà¬¨": 3469,
      "Ġà¤Ĳà¤¸": 3470,
      "à¤łà¤®": 3471,
      "Ġà²¬à²°": 3472,
      "Ġà¬īà¬ªà¬°": 3473,
      "à°µà°¡": 3474,
      "à¯Ī.": 3475,
      "LE": 3476,
      "oken": 3477,
      "à¨Ĭ": 3478,
      "Ġà¤®à¤°": 3479,
      "Ġà¨®à¨¨": 3480,
      "Ġà¥®": 3481,
      "à¤°à¤¬": 3482,
      "Ġthese": 3483,
      "expect": 3484,
      "à®¤à®µ": 3485,
      "à´ĥ": 3486,
      "ID": 3487,
      "Ġà¨¤à¨°": 3488,
      "oot": 3489,
      "Ú¾ÙĪ": 3490,
      "Ġà²ħà²²": 3491,
      "ified": 3492,
      "Ø§Ø¤": 3493,
      "esh": 3494,
      "Error": 3495,
      "Ġwhere": 3496,
      "à¤ľà¤ķ": 3497,
      "eli": 3498,
      "Ġcap": 3499,
      "ĠØ¬Ùħ": 3500,
      "Ġà¤¤à¤ª": 3501,
      "ved": 3502,
      "Ġàªıàª¨": 3503,
      "agent": 3504,
      "à¬¼à¬¾": 3505,
      "Ġexpect": 3506,
      "à´¤à´¤": 3507,
      "90": 3508,
      "à²Łà²°": 3509,
      "arn": 3510,
      "Ġread": 3511,
      "ĠAnd": 3512,
      "àª²àª¨": 3513,
      "à¨°à¨µ": 3514,
      "ÙĪØª": 3515,
      "à°¸à°°": 3516,
      "à´¯à´ª": 3517,
      "Ġ24": 3518,
      "à²®à²¨": 3519,
      "Ġà²§": 3520,
      "à¤¯à¤¯": 3521,
      "Ġassert": 3522,
      "config": 3523,
      "Ġà¤ľà¤°": 3524,
      "file": 3525,
      "à¤¬à¤¤": 3526,
      "Com": 3527,
      "à®µà®Ł": 3528,
      "Ġà¤¨à¤Ĺà¤°": 3529,
      "à¬¤à¬¨": 3530,
      "à´³à´¤": 3531,
      "ĠTr": 3532,
      "à´¯à´¯": 3533,
      "Ġgr": 3534,
      "Ġdif": 3535,
      "Ġseverity": 3536,
      "à¬ªà¬¤": 3537,
      "ĠØ¹ÙĦÛĮ": 3538,
      "Ġà¤ªà¤£": 3539,
      "Ġà²¸à²¹": 3540,
      "Ġtags": 3541,
      "Ú©ÛĴ": 3542,
      "à°°à°¨": 3543,
      "Ġà¦¬à¦¸": 3544,
      "à§©": 3545,
      "à¤£à¤¯": 3546,
      "à´Łà´ķ": 3547,
      "})": 3548,
      "Ġà¨¸à¨°à¨ķ": 3549,
      "àªķàª¨": 3550,
      "Ġà®ħà®¨": 3551,
      "Ġà¤ªà¤¡": 3552,
      "Ap": 3553,
      "àª¦àª°": 3554,
      "Ġeven": 3555,
      "à§ª": 3556,
      "à¦ķà¦Ł": 3557,
      "Ġmade": 3558,
      "ential": 3559,
      "à§°à¦¹": 3560,
      "Ġyears": 3561,
      "ĠMin": 3562,
      "Ġdec": 3563,
      "à¬īà¬Ľ": 3564,
      "Ġà°§": 3565,
      "ific": 3566,
      "Ù¹Ú¾": 3567,
      "Ġà¨ħà¨ľ": 3568,
      "ystem": 3569,
      "ern": 3570,
      "Ġà¬¸à¬¬": 3571,
      "Ġà¤Ńà¤µà¤¤": 3572,
      "ĠØ¹Ø¨": 3573,
      "run": 3574,
      "Ø²Ø§Ø±": 3575,
      "Ġà²ħà²¦": 3576,
      "Ġà¤Ĩà¤µà¤¶": 3577,
      "à°¯à°¤": 3578,
      "Ġsuch": 3579,
      "Ġà¦īà¦²": 3580,
      "37": 3581,
      "Ġà¤Ī": 3582,
      "Ġsm": 3583,
      "Ġà¤¬à¤ļ": 3584,
      "Ġà®¤à®©": 3585,
      "ĠÚ¯Ø¦ÛĮ": 3586,
      "44": 3587,
      "àª¤àª®": 3588,
      "Ø§Ø®": 3589,
      "Session": 3590,
      "à¤¦à¤¯": 3591,
      "à´¤à´°": 3592,
      "Ġà¨ľà¨¦": 3593,
      "Ġbeing": 3594,
      "Ġà°ķà°¨": 3595,
      "urity": 3596,
      "Ġà¦²à¦Ĺ": 3597,
      "Ġform": 3598,
      "Ø§ÛĮØª": 3599,
      "ĠÙĨÙħ": 3600,
      "\"\"\"": 3601,
      "Ġthen": 3602,
      "yle": 3603,
      "Ø±ÛĮÚ©": 3604,
      "ross": 3605,
      "amil": 3606,
      "Ġresponse": 3607,
      "ĠØ¬ÛĮ": 3608,
      "ĠØ²ÛĮØ§Ø¯Ûģ": 3609,
      "ution": 3610,
      "ĠÚ¯Ø¦ÛĴ": 3611,
      "ife": 3612,
      "Config": 3613,
      "à®ħ": 3614,
      "ÙĪØ¨": 3615,
      "Ġ[]": 3616,
      "Ġà§©": 3617,
      "Ġà®İà®¤": 3618,
      "à¤«à¤²": 3619,
      "AC": 3620,
      "action": 3621,
      "ĠØ³Ùħ": 3622,
      "RE": 3623,
      "500": 3624,
      "ince": 3625,
      "à¬°à¬¬": 3626,
      "roll": 3627,
      "ward": 3628,
      "olog": 3629,
      "Ġ*/": 3630,
      "9022": 3631,
      "à°²à°¤": 3632,
      "ĠZ": 3633,
      "Ġà¤ķà¤¸": 3634,
      "Ġà¤¬à¤²": 3635,
      "à¤·à¤®": 3636,
      "Ġhead": 3637,
      "à¤ľà¤¸": 3638,
      "Ġà°ħà°¦": 3639,
      "ĠÙĦÛĮÚ©ÙĨ": 3640,
      "Ġà¦¹à¦¤": 3641,
      "Ġà°¸à°°": 3642,
      "Ġà²īà²¤": 3643,
      "à¦¯à¦¨": 3644,
      "ator": 3645,
      "Ġfunction": 3646,
      "àª¦àª¨": 3647,
      ".\"": 3648,
      "Ġpres": 3649,
      "à¦¤à¦¤": 3650,
      "Ġcompan": 3651,
      "ement": 3652,
      "ween": 3653,
      "sole": 3654,
      "645": 3655,
      "Ġrel": 3656,
      "Ġà¤īà¤®": 3657,
      "ustom": 3658,
      "ĠÛģÙĪØªØ§": 3659,
      "à¨Ĳ": 3660,
      "ush": 3661,
      "à¬¿à¬Ĥ": 3662,
      "à§ĭà¥¤": 3663,
      "à´¯à´Ļ": 3664,
      "Ġà¦ªà¦¦": 3665,
      "922": 3666,
      "80": 3667,
      "à°°à°µ": 3668,
      "ream": 3669,
      "ĠÚ¯ÛĮ": 3670,
      "Ġcase": 3671,
      "ĠÚ©ÚĨÚ¾": 3672,
      "àª¢": 3673,
      "not": 3674,
      "ĠAl": 3675,
      "ÙħÛĮÙĨ": 3676,
      "Ġdigest": 3677,
      "ĠØ¯ÛĮÙĨ": 3678,
      "à¤ļà¤°": 3679,
      "Ġallow": 3680,
      "à¨¼à©ĩ": 3681,
      "Ġà®ħà®µ": 3682,
      "ular": 3683,
      "Ġà¦¦à¦²": 3684,
      "Ġà¨ħà¨¨": 3685,
      "ĠàªĪ": 3686,
      "729": 3687,
      "ffect": 3688,
      "à´Łà´¨": 3689,
      "});": 3690,
      "à¤ķà¤¨": 3691,
      "à¦¹à¦¤": 3692,
      "à¦ªà¦ķ": 3693,
      "Ġproduct": 3694,
      "Ġmem": 3695,
      "ĠØ§Ùģ": 3696,
      "lobal": 3697,
      "761": 3698,
      "Ġà¦¤à¦¥": 3699,
      "Ġdown": 3700,
      "Ġà®ķà®°": 3701,
      "à¨®à¨°": 3702,
      "Ġà¤®à¤¹à¤¤": 3703,
      "Ġelse": 3704,
      "ĠÂ": 3705,
      "cept": 3706,
      "Ġà²®à²¹": 3707,
      "ĠÛģÙĪÚ¯": 3708,
      "à¤¤à¤ª": 3709,
      "Ġà²ªà²¡": 3710,
      "other": 3711,
      "ision": 3712,
      "Ġà¬Ĩà¬ªà¬£": 3713,
      "Ġà¦Ĩà¦¤": 3714,
      "à®Łà®²": 3715,
      "Ġcreate": 3716,
      "ature": 3717,
      "Ġcr": 3718,
      "Ġà¬ªà¬¡": 3719,
      "IT": 3720,
      "Ġà¤Ĩà¤¨": 3721,
      "ÛĮØ§Øª": 3722,
      "ood": 3723,
      "ĠÚ¯Ø±": 3724,
      "Ġhelp": 3725,
      "\\\"'": 3726,
      "pen": 3727,
      "Ġà¦¬à¦°": 3728,
      "ale": 3729,
      "à¦ĩà¦ķ": 3730,
      ",âĢĿ": 3731,
      "Ġà²¬à²Ĺ": 3732,
      "Ġà¤ķà¤¥": 3733,
      "Ġà´İà´¤": 3734,
      "Ġà´¨à´Łà´¤": 3735,
      "aa": 3736,
      "[\\\"'": 3737,
      "à¤£à¤¤": 3738,
      "Ġà®ħà®²": 3739,
      "ĠÙ¾ÛĮØ´": 3740,
      "à¤¯à¤ļ": 3741,
      "Ø®Øµ": 3742,
      "[\\\"']?": 3743,
      "à¦Ŀ": 3744,
      "Ġà¤¶à¤¬": 3745,
      "à°¾,": 3746,
      "Ġàª¶àª°": 3747,
      "à¦¯à¦¬": 3748,
      "ĠØ·Ø±Ùģ": 3749,
      "Ġperson": 3750,
      "Ġà¤īà¤ļ": 3751,
      "à¬ĩà¬Ľà¬¨": 3752,
      "à¨ķà¨²": 3753,
      "Ġà¤ļà¤°": 3754,
      "à¨°à¨¬": 3755,
      "Ġsession": 3756,
      "Ġà®ħà®ª": 3757,
      "2798": 3758,
      "Ġà®Ĩà®ķ": 3759,
      "Ġà¤ªà¤¶": 3760,
      "64": 3761,
      "Ġ!==": 3762,
      "Ġà¬īà¬¤": 3763,
      "Ġà²ħà²Ń": 3764,
      "Ġass": 3765,
      "Ġpass": 3766,
      "Ġà¨Ĺà¨ı": 3767,
      "Ġà¤®à¤¤": 3768,
      "Ġ->": 3769,
      "Ġà²¨à²®": 3770,
      "Ġà®Ĩà®£": 3771,
      "à¤µà¤µ": 3772,
      "for": 3773,
      "90222798": 3774,
      "64590222798": 3775,
      "72950": 3776,
      "à°Ĥ.": 3777,
      "Ġworld": 3778,
      "àªħ": 3779,
      "Ġà¤¸à¤®à¤¸": 3780,
      "Ġà§¨à§¦": 3781,
      "ines": 3782,
      "à®¯à®ķ": 3783,
      "à²·à²£": 3784,
      "60": 3785,
      "Ġ;": 3786,
      "Ġsign": 3787,
      "It": 3788,
      "ÙĪØ²": 3789,
      "àª®àª£": 3790,
      "à¤ªà¤²": 3791,
      "score": 3792,
      "à¤®à¤¦": 3793,
      "Ġcent": 3794,
      "ĠÙħÛĮØ±": 3795,
      "Ġwant": 3796,
      "wn": 3797,
      "')": 3798,
      "ven": 3799,
      "à²ł": 3800,
      "Ġà¤Ĩà¤µ": 3801,
      "Ġtake": 3802,
      "ÙħØ§ÙĦ": 3803,
      "à¬¾'": 3804,
      "à¦¸à¦¨": 3805,
      "à®ĥ": 3806,
      "ĠÚ©Øª": 3807,
      "à¤ıà¤¸": 3808,
      "à´Ĺà´¤": 3809,
      "ina": 3810,
      "Ġà¤®à¤²": 3811,
      "à¨ĥ": 3812,
      "à¨¸à¨²": 3813,
      "±Û": 3814,
      "rics": 3815,
      "att": 3816,
      "à®©à®®": 3817,
      "à¦ļà¦²": 3818,
      "arget": 3819,
      "umn": 3820,
      "Ġà¨µà¨§": 3821,
      "35": 3822,
      "à¤ĥ,": 3823,
      "Ġmany": 3824,
      "Ġà¬ķà¬®": 3825,
      "à¦¯à¦¤": 3826,
      "WE": 3827,
      "à¦¬à¦¤": 3828,
      "à¤§à¤¤": 3829,
      "Ġfont": 3830,
      "Ġz": 3831,
      "à¨ªà¨°": 3832,
      "àª°àª¸": 3833,
      "à¨Ĩà¨¨": 3834,
      "ĠAp": 3835,
      "Ø¨Øª": 3836,
      "dd": 3837,
      "ough": 3838,
      "Ġday": 3839,
      "ache": 3840,
      "Ġcv": 3841,
      "à²Ĺà²°": 3842,
      "ĠØ·ÙĪØ±": 3843,
      "SON": 3844,
      "à¬¶à¬°": 3845,
      "ĠÙħØ¯": 3846,
      "à®ļà®®": 3847,
      "à¦ĩà¦²": 3848,
      "ÛĮØ§Úº": 3849,
      "ĠBut": 3850,
      "ailed": 3851,
      "Ø§Ø¦ÛĮÚº": 3852,
      "à²ĺ": 3853,
      "input": 3854,
      "Ġcontin": 3855,
      "Ġà´¨à´²": 3856,
      "class": 3857,
      "ĠØ§ÙĪ": 3858,
      "Ġà¦Ĩà¦¶": 3859,
      "ĠØŃØ§ÙĦ": 3860,
      "à´¨à´®": 3861,
      "ĠHT": 3862,
      "à¤¦à¤¤": 3863,
      "Ġcurrent": 3864,
      "ĠÙ¾Ú¾Ø±": 3865,
      "\");": 3866,
      "Ġà¥§à¥¦": 3867,
      "ĠIndian": 3868,
      "ĠØ¨ÚĨ": 3869,
      "../": 3870,
      "à¤Ĺà¤µ": 3871,
      "à¤ľà¤²": 3872,
      "Ġmethod": 3873,
      "Ġà´īà´£": 3874,
      "object": 3875,
      "Ġà®¸": 3876,
      "Ġdid": 3877,
      "ÙĪÙħØª": 3878,
      "pass": 3879,
      "à¤§à¤ķ": 3880,
      ":*:*:*:*": 3881,
      "Ġgood": 3882,
      "AR": 3883,
      "body": 3884,
      "Ġwin": 3885,
      "Ġà°µà°°": 3886,
      "à¦ľà¦¤": 3887,
      "ĠØ«": 3888,
      "à²¯à²¤": 3889,
      "oad": 3890,
      "Ø§ÙĨØ§": 3891,
      "Ġ??": 3892,
      "à°Łà°¨": 3893,
      "Ø§ÛģØ±": 3894,
      "ĠØ§Ø³ÛĴ": 3895,
      "Ġra": 3896,
      "à¤¯à¤Ń": 3897,
      "Ġà¤ķà¤ª": 3898,
      "à²ªà²°": 3899,
      "à¨¹à¨°": 3900,
      "ument": 3901,
      "================": 3902,
      "Ġà¦ıà¦¸": 3903,
      "length": 3904,
      "Ġed": 3905,
      "><": 3906,
      "AN": 3907,
      "Ġdsl": 3908,
      "Ġà®ªà®¤": 3909,
      "ident": 3910,
      "Ġà®īà®£": 3911,
      "à®¯à®ª": 3912,
      "à°¨à°¦": 3913,
      "à¤Ĭà¤¨": 3914,
      "à¦¨à¦ķ": 3915,
      "Ġàªīàªªàª°": 3916,
      "Ġbr": 3917,
      "arket": 3918,
      "à¤®à¤®": 3919,
      "aut": 3920,
      "formation": 3921,
      "à¤¦à¤ķ": 3922,
      "Ġà¤ľà¤®": 3923,
      "à¬ĵ": 3924,
      "à§§": 3925,
      "ends": 3926,
      "à¥Īà¤ĥ": 3927,
      "Ġfollow": 3928,
      "Ġtitle": 3929,
      "Ġà¦Ĩà¦ªà¦¨": 3930,
      "Ġà®İà®Ł": 3931,
      "à®±à®ª": 3932,
      "àªĹàª°": 3933,
      "come": 3934,
      "àªĺ": 3935,
      "ga": 3936,
      "Ġpost": 3937,
      "har": 3938,
      "ĠØ§Ø³ÙĦØ§Ùħ": 3939,
      "à°¬à°¡": 3940,
      "comm": 3941,
      "022100": 3942,
      "Ġ${": 3943,
      "ala": 3944,
      "Ġcvss": 3945,
      "Ġà¤Ńà¤ı": 3946,
      "Ġà´ħà´Ł": 3947,
      "ĠØ§Ø¬": 3948,
      "Ġright": 3949,
      "ience": 3950,
      "ĠÚ©Ø±ÙĨØ§": 3951,
      "Ġà¬ķà¬¥": 3952,
      "àªĪàª¨": 3953,
      "ĠĠĠĠĠĠĠĠĠĠĠĠĠĠĠĠĠĠĠĠĠĠĠ": 3954,
      "Ġà¨¸à¨¹": 3955,
      "à°¯à°µ": 3956,
      "à´°à´Ļ": 3957,
      "ues": 3958,
      "Be": 3959,
      "à¤¼à¥ĩ": 3960,
      "28": 3961,
      "ï·": 3962,
      "Ġà®ªà®°": 3963,
      "ublic": 3964,
      "OR": 3965,
      "Ġà¤¸à¤¦à¤¸": 3966,
      "Ġà¤ħà¤ķ": 3967,
      "à¤ļà¤ķ": 3968,
      "Ġà´ŀ": 3969,
      "à¦·à¦ķ": 3970,
      "Ġopen": 3971,
      "Ġà²¤à²®": 3972,
      "ĠÙħØ¬": 3973,
      "Ġ(!": 3974,
      "ulner": 3975,
      "à¨°à¨Ĺ": 3976,
      "à§Ģ,": 3977,
      "oy": 3978,
      "Ġ...": 3979,
      "ĠÙĪØ³": 3980,
      "Ġà¦¸à¦¦": 3981,
      "Ġà¬ł": 3982,
      "Ġà²ĩà²¨": 3983,
      "Ġàªīàª¤": 3984,
      "Ġà¬¸à¬°à¬ķ": 3985,
      "à¦°à¦¯": 3986,
      "à¤ľà¤ª": 3987,
      "play": 3988,
      "Ġà¤Ĩà¤ªà¤ķ": 3989,
      "Ġfl": 3990,
      "Ġthree": 3991,
      "Ġtop": 3992,
      "ĠMan": 3993,
      "201": 3994,
      "Ġà¤Ńà¤°": 3995,
      "ĠØ±ÛģØ§": 3996,
      "à¬·à¬£": 3997,
      "ĠWe": 3998,
      "Ġmed": 3999,
      "ists": 4000,
      "à¤¹à¤®": 4001,
      "à®®à®©": 4002,
      "14": 4003,
      "Ġpay": 4004,
      "à¤Ńà¤°": 4005,
      "à¦¯à§°": 4006,
      "Ġduring": 4007,
      "Ġà¤Ĺà¤ı": 4008,
      "Ġà¦¨à¦¤": 4009,
      "Ġà¤¶à¤ķà¤¤": 4010,
      "Ġindex": 4011,
      "Ġà¦ķà¦¯": 4012,
      "à´£à´®": 4013,
      "Ġà°ħà°²": 4014,
      "Ġcondition": 4015,
      "ech": 4016,
      "Ġà¤¨à¤¯": 4017,
      "ï·º": 4018,
      "à´¤à´²": 4019,
      "Ġdoes": 4020,
      "Ġround": 4021,
      "ier": 4022,
      "fil": 4023,
      "à°Ĥ,": 4024,
      "Ġmodel": 4025,
      "ission": 4026,
      "Ġattack": 4027,
      "ĠØ®ÙĪØ¯": 4028,
      "ĠCon": 4029,
      "');": 4030,
      "ĠØ¯ÙĦ": 4031,
      "Ġàªľàª£": 4032,
      "rompt": 4033,
      "à²°à²¡": 4034,
      "à¨²à¨¤": 4035,
      "à°¦à°²": 4036,
      "ĠØªØ¹Ø§ÙĦÛĮ": 4037,
      "Ġà¦¦à§°": 4038,
      "ital": 4039,
      "Ġ40": 4040,
      "ble": 4041,
      "Ġà¤ľà¤Ĺ": 4042,
      "à¤°à¤ĸ": 4043,
      "ĠàŃ©": 4044,
      "AAAAAAAAAAAAAAAAAAAAAAAAAAAAAAAA": 4045,
      "ÙĪØ§ÙĦ": 4046,
      "ries": 4047,
      "ĠØ®Ø§ÙĨ": 4048,
      "Data": 4049,
      "Ø´ÛĮ": 4050,
      "ĉĉĉĉĉĉ": 4051,
      "Ġnext": 4052,
      "Ġà¦ķà¦¬": 4053,
      "36": 4054,
      "Ġà´ªà´±à´¯": 4055,
      "Ġà«§": 4056,
      "Key": 4057,
      "à§¬": 4058,
      "ĠØ¶Ø±": 4059,
      "Ġco": 4060,
      "ÙħÙĦ": 4061,
      "à´®à´¯": 4062,
      "ĠGET": 4063,
      "Ġvery": 4064,
      "Ġà¤¢": 4065,
      "space": 4066,
      "ĠNews": 4067,
      "Ġà¬ĺà¬Ł": 4068,
      "Ġà²Ĩà²¦": 4069,
      "[]": 4070,
      "à¥Ĥà¤Ĥ": 4071,
      "ched": 4072,
      "sm": 4073,
      "à¦ĩà¦¬": 4074,
      "à¤²à¤µ": 4075,
      "à¥ĩà¤ĥ": 4076,
      "reak": 4077,
      "Ġà¨²à¨Ĺ": 4078,
      "Ġà¬Ĩà¬ī": 4079,
      "Ġknow": 4080,
      "ĠĠĠĠĊ": 4081,
      "à¤ĸà¤¨": 4082,
      "Ø³Ø§": 4083,
      "Ġgovernment": 4084,
      "ĠÙĨÛĮ": 4085,
      "Ġà´īà´ª": 4086,
      "à°ķà°¡": 4087,
      "ba": 4088,
      "Ġà¨ı": 4089,
      "à°ªà°°": 4090,
      "à²¯à²®": 4091,
      "à°ļà°¡": 4092,
      "Ø£": 4093,
      "ĠØ´Ø±": 4094,
      "Ġdi": 4095,
      "Ġà²ħà²°": 4096,
      "Ġà¬¬à¬¨": 4097,
      "à°ľà°¨": 4098,
      "title": 4099,
      "à¤®à¤¹": 4100,
      "alk": 4101,
      "ĠÙħØ³ÙĦÙħ": 4102,
      "ÙĪØ§ÙĨ": 4103,
      "à´¿à´Ĥ": 4104,
      "Ġ\"\"\"": 4105,
      "ĠØ§ÙĨØª": 4106,
      "à¬°à¬¦": 4107,
      "Ø¯Ùħ": 4108,
      "ÙĪÙĦÛĮ": 4109,
      "Ġà¬°à¬ĸ": 4110,
      "Ġà°Ĩà°¯à°¨": 4111,
      "pre": 4112,
      "à²Ĺà²¦": 4113,
      "38": 4114,
      "Ġà¨¸à¨¥": 4115,
      "Ġà°·": 4116,
      "Ġà¤¬à¤¡": 4117,
      "Ġà¦ĩà¦¤": 4118,
      "ited": 4119,
      "à«ĭ,": 4120,
      "à°µà°¨": 4121,
      "serv": 4122,
      "ĠØ¨ÛĮØ§ÙĨ": 4123,
      "ĠX": 4124,
      "ĠØ¢ÙĨ": 4125,
      "Ġà¦ĺà¦Łà¦¨": 4126,
      "à¤ĩà¤¤": 4127,
      "ĠØ¬Ûģ": 4128,
      "à¤®à¤µ": 4129,
      "Ġmonth": 4130,
      "à´µà´¤": 4131,
      "ral": 4132,
      "ÙĦØ³": 4133,
      "Ġà¨¥": 4134,
      "Ġàª¸àª®àª¯": 4135,
      "Ġà¦¤à¦¬": 4136,
      "resh": 4137,
      "à¤¤à¤¯": 4138,
      "Ġà¤¨à¤®": 4139,
      "à°¨à°¨": 4140,
      "Ġà®®à®©": 4141,
      "indow": 4142,
      "det": 4143,
      "à¬ĩà¬ª": 4144,
      "ty": 4145,
      "Ġspec": 4146,
      "Ġàªĺàª£": 4147,
      "à²³à²Ĺ": 4148,
      "Ġà®Ĩà®©": 4149,
      "ÙĦØ§ÙĤ": 4150,
      "ĠØ§Ø¯": 4151,
      "à¤ĸà¤°": 4152,
      "ĠÙģØ±ÙħØ§": 4153,
      "ĠàªĿ": 4154,
      "atest": 4155,
      "Ġsame": 4156,
      "ĠÙĪØ²": 4157,
      "à°Ĩà°°": 4158,
      "Ġà¨ħà¨§": 4159,
      "Ġà¤ĺà¤Łà¤¨": 4160,
      "ampa": 4161,
      "ĠÙ¾Ø§Ú©Ø³ØªØ§ÙĨ": 4162,
      "ars": 4163,
      "à§®": 4164,
      "ÙĦØ§Ùģ": 4165,
      "ĠàªıàªŁàª²": 4166,
      "ĠØ§Ø®": 4167,
      "à¥Īà¤Ĥ,": 4168,
      "Ġloc": 4169,
      "kn": 4170,
      "à¤Ĺà¤¨": 4171,
      "à¬ķà¬Ļ": 4172,
      "Ú©Ø§": 4173,
      "à¤¶à¤¬": 4174,
      "Ġà°®à°¹": 4175,
      "ĠQ": 4176,
      "à²Ĺà²¤": 4177,
      "à¤¹à¤ķ": 4178,
      "à®µà®²": 4179,
      "ĠØµØŃ": 4180,
      "à¬īà¬¥": 4181,
      "Ġà¤Ĩà¤¶": 4182,
      "à§Ń": 4183,
      "iness": 4184,
      "à®ļà®°": 4185,
      "ren": 4186,
      "(),": 4187,
      "Ġà¬¬à¬¹": 4188,
      "rop": 4189,
      "Ġà¦¢": 4190,
      "Ġà¨ĩà¨¨": 4191,
      "Ġà°ħà°®": 4192,
      "àª®àª¤": 4193,
      "à¨µà¨°": 4194,
      "vest": 4195,
      "à²ªà²¡": 4196,
      "Ġà¦¸à¦°": 4197,
      "à®³à®µ": 4198,
      "Ġà´°à´£": 4199,
      "Ġà°ħà°Ń": 4200,
      "ray": 4201,
      "à¤µà¤³": 4202,
      "ĠÛģÙĪØ¦ÛĮ": 4203,
      "Ġlong": 4204,
      "ĠØ¨Ø§ÙĦ": 4205,
      "Ġà°İà°¨": 4206,
      "à¤Ĥ.": 4207,
      "à¦ļà§°": 4208,
      "à¦²à¦¬": 4209,
      "à¦§à¦¨": 4210,
      "Ġà²¤à²¨": 4211,
      "75": 4212,
      "Ġà¥¯": 4213,
      "Ġbetween": 4214,
      "à¬°à¬Ļ": 4215,
      "Ø§Ø·": 4216,
      "à¤ķà¤ª": 4217,
      "lected": 4218,
      "Ġà°ĩà°ª": 4219,
      "Ġsk": 4220,
      "àŃŁà¬¤": 4221,
      "à¬Ĺà¬²": 4222,
      "Ġà®ĵ": 4223,
      "à¤Ńà¤¨": 4224,
      "Ú©Øª": 4225,
      "à²µà²£": 4226,
      "à¤§à¤µ": 4227,
      "à´¨à´¯": 4228,
      "ĠØªÙħØ§Ùħ": 4229,
      "24": 4230,
      "Ġreference": 4231,
      "Ø¨ÙĦ": 4232,
      "à¦¯à¦®": 4233,
      "Ġà¦Ĺà¦¤": 4234,
      "Ġway": 4235,
      "Ġà®ħà®£": 4236,
      "Ġà¦īà¦ļ": 4237,
      "part": 4238,
      "70": 4239,
      "Ġmat": 4240,
      "Ġà¬¸à¬°": 4241,
      "ĠàªĨàª°": 4242,
      "à¨¾.": 4243,
      "Ġgame": 4244,
      "center": 4245,
      "Ġprocess": 4246,
      "à²¨à²¦": 4247,
      "ond": 4248,
      "nect": 4249,
      "AL": 4250,
      "à¬Ĩà¬°": 4251,
      "Ġà¤ĭ": 4252,
      "à°µà°¤": 4253,
      "Ġbest": 4254,
      "content": 4255,
      "à¦īà¦¨": 4256,
      "Ġcpe": 4257,
      "à´·à´¨": 4258,
      "à¬¦à¬¨": 4259,
      "></": 4260,
      "à´°à´¯": 4261,
      "Ġàªľàª°": 4262,
      "Ġweb": 4263,
      "Ġsur": 4264,
      "Ġà¦¸à§°": 4265,
      "Ġà¤¸à¤ļ": 4266,
      "à¤°à¤®à¤£": 4267,
      "Ġà¨ķà¨¹": 4268,
      "Ġsee": 4269,
      "àŃª": 4270,
      "Ø§Ù¾": 4271,
      "head": 4272,
      "Ġà¤īà¤²": 4273,
      "oud": 4274,
      "Ġrequire": 4275,
      "Ġu": 4276,
      "à¥ĭà¤ĥ": 4277,
      "Ġàª¹àªµ": 4278,
      "26": 4279,
      "à¨ħà¨°": 4280,
      "ious": 4281,
      "ĠØ¨Ø¯": 4282,
      "Ġà®īà®°": 4283,
      "ĠØ¯ÛĴ": 4284,
      "Ġfound": 4285,
      "ĠØ´Ûģ": 4286,
      "à´Ĥ,": 4287,
      "0000": 4288,
      "à®İ": 4289,
      "ampaign": 4290,
      "Ġà¤ªà¤°à¤®": 4291,
      "ĠÚ©Ø±Ø¯": 4292,
      "Ġàª¨àªµ": 4293,
      "Ú©Ø§Ø±": 4294,
      "ama": 4295,
      "Ġà¬Ĩà¬ľ": 4296,
      "Ġav": 4297,
      "ĠÙħØ·Ø§Ø¨ÙĤ": 4298,
      "(--": 4299,
      "Ġà¦¸à¦¤": 4300,
      "à´°à´¨": 4301,
      "à²¥à²µ": 4302,
      "Provider": 4303,
      "ised": 4304,
      "à´²à´¤": 4305,
      "ĠÙĨØ¸Ø±": 4306,
      "à¨²à¨ķ": 4307,
      "à¦·à¦¤": 4308,
      "ĠØ§Øª": 4309,
      "ĠÙ¾ÛģÙĦÛĴ": 4310,
      "ÙĤÙĦ": 4311,
      "ĠØŃÚ©ÙĪÙħØª": 4312,
      "Ġà¬ħà¬°": 4313,
      "àŃ§àŃ": 4314,
      "Ġfr": 4315,
      "Ġà¨µà¨°à¨¤": 4316,
      "à¤Ĥ,": 4317,
      "PR": 4318,
      "à¨Ĺà¨¤": 4319,
      "Ġclient": 4320,
      "à²Łà²ķ": 4321,
      "Ġà¤¸à¤µ": 4322,
      "à¦¿-": 4323,
      "à¦°à¦¶": 4324,
      "ung": 4325,
      "ĠØ³ÙĨ": 4326,
      "à¨ĸà¨£": 4327,
      "ency": 4328,
      "Response": 4329,
      "à¤²à¤Ĺ": 4330,
      "ope": 4331,
      "à¦®à¦²": 4332,
      "plication": 4333,
      "à¦¨à¦¨": 4334,
      "àªĹàª¨": 4335,
      "Ġà°ªà°¨": 4336,
      "Ġ2022": 4337,
      "Ġà²¨à²¨": 4338,
      "Ġdisc": 4339,
      "à¯Ī,": 4340,
      "à´µà´¶": 4341,
      "Ø³Ùħ": 4342,
      "ĠØ¹Ø±": 4343,
      "Ġà¤īà¤ķ": 4344,
      "Ġà¦²à¦ķ": 4345,
      "à¦®à¦ķ": 4346,
      "base": 4347,
      "à¨¤à¨®": 4348,
      "Ġàªıàª®": 4349,
      "àª³àªµ": 4350,
      "button": 4351,
      "Ġà§§à§¯": 4352,
      "à°ªà°¤": 4353,
      "ĠAll": 4354,
      "à¤¬à¤¦": 4355,
      "uc": 4356,
      "ĠHTTP": 4357,
      "ĠØªØ§": 4358,
      "95": 4359,
      "Ġà¦ıà¦²": 4360,
      "Ġla": 4361,
      "ara": 4362,
      "ĠLe": 4363,
      "ports": 4364,
      "duc": 4365,
      "Ġà®®à®¤": 4366,
      "à²ªà²¨": 4367,
      "à¤¬à¤Ī": 4368,
      "let": 4369,
      "à°ļà°¨": 4370,
      "Ø¬ÛĮ": 4371,
      "à¬ĸà¬°": 4372,
      "ĠØ§ÙĨØ³": 4373,
      "âķ": 4374,
      "idd": 4375,
      "à¤¶à¤®": 4376,
      "This": 4377,
      "ocument": 4378,
      "side": 4379,
      "ivity": 4380,
      "à´²à´ª": 4381,
      "à³ĩà²Ĥ": 4382,
      "É¨": 4383,
      "env": 4384,
      "à¬ĩà¬¨": 4385,
      "à²°à²°": 4386,
      "à°Łà°²": 4387,
      "ails": 4388,
      "à¤¨à¤ª": 4389,
      "àª¸àª®": 4390,
      "Ġà®Ĭ": 4391,
      "rap": 4392,
      "iy": 4393,
      "ĠØŃØ³": 4394,
      "ĠHow": 4395,
      "à¦°à¦¥à¦®": 4396,
      "Ġà¤Ĩà¤ķ": 4397,
      "Ġà´ħà´¦": 4398,
      "ĠYou": 4399,
      "Ø§ØµÙĦ": 4400,
      "tool": 4401,
      "à¬³à¬¨": 4402,
      "ÙħØ±": 4403,
      "Ø§ØŃØ¨": 4404,
      "à°¤à°²": 4405,
      "Ġàªĸàª°": 4406,
      "âķĲ": 4407,
      "Ġsecond": 4408,
      "à°ħ": 4409,
      "Ġà¦¨à¦¹à¦¯": 4410,
      "start": 4411,
      "--------------------------------": 4412,
      "Ġà¨¨à¨µ": 4413,
      "wit": 4414,
      "ĠÙħÙĦÚ©": 4415,
      "ĠØ§Ûģ": 4416,
      "Ġng": 4417,
      "à¦¶à§°": 4418,
      "Ġà²īà²¦": 4419,
      "Ġ21": 4420,
      "Ġà¤°à¤ķ": 4421,
      "Ġà¤Ĩà¤ıà¤ķ": 4422,
      "Ġpoint": 4423,
      "ants": 4424,
      "Ġ2023": 4425,
      "à¤¶à¤²": 4426,
      "33": 4427,
      "à°Ĺà°°": 4428,
      "Ø§Ø¦ÙĦ": 4429,
      "Ġregex": 4430,
      "ploy": 4431,
      "à¤łà¤ķ": 4432,
      "à´±à´¤": 4433,
      "Ø¯Ø§ÙĦ": 4434,
      "à¬£à¬¸": 4435,
      "curity": 4436,
      "à²Łà²¨": 4437,
      "ling": 4438,
      "à§Ģà¥¤": 4439,
      "Ġà¤ħà¤¦": 4440,
      "ĠOn": 4441,
      "à¨µà¨¨": 4442,
      "ÛĮÙĨÛĮ": 4443,
      "ateg": 4444,
      "Ġexper": 4445,
      "String": 4446,
      "Ġoffic": 4447,
      "Ġintern": 4448,
      "Ġà¬ªà¬ķ": 4449,
      "à¨¼à¨¾à¨Ĥ": 4450,
      "àŃŁà¬®": 4451,
      "DE": 4452,
      "Ġà¬ıà¬¥": 4453,
      "Ġà®®à®°": 4454,
      "ĠÙĦÙĪÚ¯ÙĪÚº": 4455,
      "à¬¾à¬ģ": 4456,
      "Ġà°µà°¸": 4457,
      "point": 4458,
      "àª¨àª®": 4459,
      "\"),": 4460,
      "cause": 4461,
      "Ġtech": 4462,
      "Ġàª¬àª¹": 4463,
      "istory": 4464,
      "Ġà®īà®±": 4465,
      "àª°àª¥": 4466,
      "à°·à°¯": 4467,
      "à¤ıà¤®": 4468,
      "à§±à¦¨": 4469,
      "Ġà¬īà¬¦": 4470,
      "Ġnews": 4471,
      "à¬°à¬¥": 4472,
      "àŃ«": 4473,
      "rid": 4474,
      "à¤·à¤¦": 4475,
      "tain": 4476,
      "ĠÙĪØ¬Ûģ": 4477,
      "umb": 4478,
      "âķĲâķĲ": 4479,
      "Ġdirect": 4480,
      "her": 4481,
      "àªķàª²": 4482,
      "à¦Łà¦ķ": 4483,
      "Ġà²ĩà²°": 4484,
      "Ġà¤°à¤¸": 4485,
      "Ġweek": 4486,
      "à¨ľà¨¨": 4487,
      "dis": 4488,
      "à¤¯à¤¹": 4489,
      "Ġà¨ķà¨®": 4490,
      "àªªàª£": 4491,
      "Ġvis": 4492,
      "ĠØªÙĤ": 4493,
      "Ġbecause": 4494,
      "Ġà¬¬à¬¡": 4495,
      "cp": 4496,
      "ĠÚ©Ø´": 4497,
      "Ø§Ø±Øª": 4498,
      "à¤ħà¤¨": 4499,
      "des": 4500,
      "à§¯": 4501,
      "à¬°à¬¶": 4502,
      "reg": 4503,
      "Ġhere": 4504,
      "à¤µà¤Ń": 4505,
      "Ġà¬§à¬°": 4506,
      "Ġear": 4507,
      "Ġàª¤àª¥": 4508,
      "à°°à°ľ": 4509,
      "Ġten": 4510,
      "à¤¦à¤¶": 4511,
      "Ġfile": 4512,
      "ured": 4513,
      "à¤²à¤¸": 4514,
      "à¤®à¤Ĺ": 4515,
      "Ġà§«": 4516,
      "à«ĩàªĤ": 4517,
      "iya": 4518,
      "à¥Ĵ": 4519,
      "à³į.": 4520,
      "à¬²à¬°": 4521,
      "à¤ĸà¤²": 4522,
      "à±į.": 4523,
      "Ar": 4524,
      "ĠĠĠĠĠĠĠĠĠĠĠĠĠĠĠĠĠĠĠĠĠ": 4525,
      "Ġfilm": 4526,
      "Ġà´¨àµ½à´ķ": 4527,
      "Ġitems": 4528,
      "Ġcountry": 4529,
      "Ġà¤ıà¤¸": 4530,
      "Ġà¬ĺà¬°": 4531,
      "à´¤à´¨": 4532,
      "romise": 4533,
      "à´ħ": 4534,
      "Ġwrit": 4535,
      "à²µà²²": 4536,
      "Ġgap": 4537,
      "Ġvari": 4538,
      "ĠØ¨ÛĴ": 4539,
      "velop": 4540,
      "Ġboth": 4541,
      "àªĹàª¤": 4542,
      "Ġàª§àª°": 4543,
      "97": 4544,
      "Ġgiv": 4545,
      "Ġà¤ıà¤®": 4546,
      "Ġà§ª": 4547,
      "().": 4548,
      "à¤¤à¤ļ": 4549,
      "Ġàª¸àª¹": 4550,
      "ane": 4551,
      "Ġconf": 4552,
      "essages": 4553,
      "known": 4554,
      "à®®à®¤": 4555,
      "ouse": 4556,
      "à¦°à¦¨": 4557,
      "Ø§ÙħÙĦ": 4558,
      "à¤µà¤°à¤£": 4559,
      "Ø³Ú©": 4560,
      "Ø§ØªÛĴ": 4561,
      "Ġbus": 4562,
      "rol": 4563,
      "ĠCont": 4564,
      "Ġsuccess": 4565,
      "à¤Ĺà¤³": 4566,
      "ending": 4567,
      "Ġrele": 4568,
      "Ġter": 4569,
      "Ġconsole": 4570,
      "fe": 4571,
      "Ġsay": 4572,
      "Ġdevelop": 4573,
      "ĠÙĪÛĮ": 4574,
      "ĠàªĨàªªàª£": 4575,
      "à±ģà°ģ": 4576,
      "ĠØ±ÙĪØ²": 4577,
      "Ø§ÛĮØ§": 4578,
      "Ġcle": 4579,
      "à´®à´¤": 4580,
      "ĠFor": 4581,
      "Ġà²ķà²¡": 4582,
      "empl": 4583,
      "Ġplace": 4584,
      "Ġà´²à´Ń": 4585,
      "label": 4586,
      "aly": 4587,
      "Ġcontent": 4588,
      "aka": 4589,
      "de": 4590,
      "à´ªà´ķ": 4591,
      "Ġà¤¸à¤ª": 4592,
      "aim": 4593,
      "à²³à²²": 4594,
      "Ġà¬¬à¬¸": 4595,
      "Ġà¨ķà¨°à¨ķ": 4596,
      "à¦°à¦Ń": 4597,
      "ĠÙħØŃÙħØ¯": 4598,
      "ules": 4599,
      "à¦ĩà¦¯": 4600,
      "Ġgroup": 4601,
      "ĠØ¯Ø§Ø±": 4602,
      "ĠØµØ±Ùģ": 4603,
      "à²µà²¤": 4604,
      "Ġ22": 4605,
      "ĠØµØ§ØŃØ¨": 4606,
      "ptional": 4607,
      "lection": 4608,
      "ĠØ¨Ø§Ø±": 4609,
      "ĠØ¹ÙħØ±": 4610,
      "Ġgu": 4611,
      "Ġà´µà´¨": 4612,
      "ĠØ§ÙĦÙħ": 4613,
      "à¤£à¤¸": 4614,
      "96": 4615,
      "Ġcomple": 4616,
      "ÙĨÚĨ": 4617,
      "Ġà¦ĩà¦¨": 4618,
      "board": 4619,
      "à¤¯à¤¥": 4620,
      "à±ĩ.": 4621,
      "Ġà¦ħà¦ª": 4622,
      "Ġrow": 4623,
      "Ġà´ıà´±": 4624,
      "Ġà¨ĩà¨²": 4625,
      "à¦¦à¦ķ": 4626,
      "way": 4627,
      "Ġà¤¸à¤ŀ": 4628,
      "ĠàªĨàªľ": 4629,
      "à²°à²¨": 4630,
      "Ġtim": 4631,
      "Ġmuch": 4632,
      "ĠâĢĵ": 4633,
      "Ġà²ķà²²": 4634,
      "ĠÚ©Ø±ØªØ§": 4635,
      "Ġà¤¶à¤¹à¤°": 4636,
      "Ġseason": 4637,
      "Ġà´İà´²": 4638,
      "ĠØ³Ø§Ùħ": 4639,
      "à¬ĩà¬²": 4640,
      "result": 4641,
      "à¬¤à¬®": 4642,
      "à²¯à²¦à²²": 4643,
      "àªŀ": 4644,
      "Ġ\"{{": 4645,
      "Ġaut": 4646,
      "à´Łà´°": 4647,
      "AM": 4648,
      "à°¨à°®": 4649,
      "à¨¸à¨®": 4650,
      "àª¸àª°": 4651,
      "Ġàªľàªµ": 4652,
      "Ġinput": 4653,
      "ĠàªĨàªĹ": 4654,
      "àª¬àª°": 4655,
      "flow": 4656,
      "Ġpy": 4657,
      "Ġdist": 4658,
      "Ġà¨ĺà¨°": 4659,
      "Ġà¤¸à¤¦": 4660,
      "à®²à®ķ": 4661,
      "uration": 4662,
      "Ġàªħàª°": 4663,
      "ĠPl": 4664,
      "à¬Ŀ": 4665,
      "ĠÙģØ±ÙħØ§ÛĮØ§": 4666,
      "ĠØ§Øµ": 4667,
      "ped": 4668,
      "àª²àª®": 4669,
      "function": 4670,
      "à´ķà´¤": 4671,
      "ĠÚ©Ø±ÛĮÚº": 4672,
      "Ġversion": 4673,
      "à¨ķà¨Ł": 4674,
      "ather": 4675,
      "à´ªà´¨": 4676,
      "tal": 4677,
      "Ġtak": 4678,
      "Ġbl": 4679,
      "à®µà®®": 4680,
      "Ġà¤¤à¤°à¤¹": 4681,
      "Ġà´·": 4682,
      "à´°à´¦": 4683,
      "Ġà²İà²¨": 4684,
      "__": 4685,
      "Ø±ÛĮÙģ": 4686,
      "Ġà°īà°¦": 4687,
      "ĠØªØ¨": 4688,
      "Ġ})": 4689,
      "\"><": 4690,
      "Ġcompany": 4691,
      "mock": 4692,
      "Ġown": 4693,
      "ĠØ¹ÙĦÙħ": 4694,
      "itor": 4695,
      "BaseURL": 4696,
      "à¬§à¬°": 4697,
      "ged": 4698,
      "Ġ28": 4699,
      "Ġà¦¨à¦¯": 4700,
      "Ø±ÛĮØ¨": 4701,
      "ĠÙĦÛĴ": 4702,
      "à¨¸à¨°": 4703,
      "Ġà¤Ĩà¤Ī": 4704,
      "ider": 4705,
      "ished": 4706,
      "ule": 4707,
      "Ġ2020": 4708,
      "ĠÙħØ¬Ú¾": 4709,
      "ases": 4710,
      "àµ¼à´¨": 4711,
      "à¤ķà¤ķ": 4712,
      "Ġval": 4713,
      "ands": 4714,
      "à¦ķà¦ķ": 4715,
      "à¤µà¤ľ": 4716,
      "Ġgener": 4717,
      "àª¥àªµ": 4718,
      "23": 4719,
      "count": 4720,
      "à¨²à¨¦": 4721,
      "Ġsupport": 4722,
      "Ġstud": 4723,
      "à¬°à¬Ń": 4724,
      "ĠØ¨ÙĨØ¯": 4725,
      "Ġevent": 4726,
      "Tool": 4727,
      "ani": 4728,
      "ĠRs": 4729,
      "Ġhttp": 4730,
      "ĠMinister": 4731,
      "ogle": 4732,
      "à¤¶à¤¯": 4733,
      "ribut": 4734,
      "ourt": 4735,
      "à¤¨à¤ļ": 4736,
      "Ġà¤ľà¤¨à¤¤": 4737,
      "condition": 4738,
      "à®ķà®´": 4739,
      "ĠÚ©ÙĨ": 4740,
      "à°°à°¯": 4741,
      "ĠØŃÙĤ": 4742,
      "],": 4743,
      "ware": 4744,
      "Ġ2021": 4745,
      "àªĸàª¤": 4746,
      "Ø§Ø¹Øª": 4747,
      "à¤ķà¤Ł": 4748,
      "box": 4749,
      "Ġà°ħà°ª": 4750,
      "client": 4751,
      "Ġaccess": 4752,
      "IC": 4753,
      "Ġà¤µà¤ķ": 4754,
      "Ġà¤ħà¤ļ": 4755,
      "Ġà¤§à¤¨": 4756,
      "admin": 4757,
      "Ġvulner": 4758,
      "na": 4759,
      "down": 4760,
      "';": 4761,
      "Message": 4762,
      "Ġà¬¸à¬®àŃŁà¬°": 4763,
      "Agent": 4764,
      "Ġà¤Ĭ": 4765,
      "Ġà¤ħà¤¥": 4766,
      "Ø¨Ø§ÙĨ": 4767,
      "à®±à®©": 4768,
      "ness": 4769,
      "map": 4770,
      "token": 4771,
      "sk": 4772,
      "};": 4773,
      "Ġà¬ľà¬¨": 4774,
      "ĠÚ©ØªØ§Ø¨": 4775,
      "à²²à²¸": 4776,
      "Ġfour": 4777,
      "àµ¼à´Ł": 4778,
      "arm": 4779,
      "ception": 4780,
      "78": 4781,
      "Ġused": 4782,
      "Ġà°ĸ": 4783,
      "Ġà²ķà²³": 4784,
      "olicy": 4785,
      "Ġàª¬àª§": 4786,
      "Ġconfig": 4787,
      "Ġbig": 4788,
      "à®Łà®ª": 4789,
      "Ġvar": 4790,
      "à¤Ĺà¤ķ": 4791,
      "Ġà²ķà²¨": 4792,
      "ĠIf": 4793,
      "ĠØ¸": 4794,
      "Ú©ÙĨ": 4795,
      "Ø§ÙħÛĮ": 4796,
      "urs": 4797,
      "ĠØ²ÙĨØ¯": 4798,
      "à®ķà®Ł": 4799,
      "Ġà´Ĩà´¦": 4800,
      "Ġ23": 4801,
      "Ġfind": 4802,
      "Ġdb": 4803,
      "sub": 4804,
      "Ġbel": 4805,
      "Ġà°ħà°°": 4806,
      "à¬¬à¬³": 4807,
      "illion": 4808,
      "à¨°à¨Ń": 4809,
      "Ø´Øª": 4810,
      "ĠØ±Ø³ÙĪÙĦ": 4811,
      "py": 4812,
      "ĠÙħØµ": 4813,
      "Ġdem": 4814,
      "Ġaround": 4815,
      "Ġbuild": 4816,
      "OT": 4817,
      "ĠAd": 4818,
      "à¤Ńà¤¯": 4819,
      "à´¯à´°": 4820,
      "Ġà¦īà¦¨": 4821,
      "ording": 4822,
      "à²ªà²¤": 4823,
      "Ġàª²àªĹ": 4824,
      "Ġà´¸à´¹": 4825,
      "Ġà¤ķà¤Ī": 4826,
      "à²°à²¦à²²": 4827,
      "ĠÙ¾ÛĮØ¯": 4828,
      "rest": 4829,
      "Ġleg": 4830,
      "à¦ĸà¦¤": 4831,
      "Ġaction": 4832,
      "à¬Ĺà¬¤": 4833,
      "ĠÛģÙĪØªÛĮ": 4834,
      "Wh": 4835,
      "current": 4836,
      "ke": 4837,
      "Settings": 4838,
      "ĠØ¯ÙĪØ³Ø±": 4839,
      "à¤ľà¤®": 4840,
      "ĠÙĪØ§ÙĤ": 4841,
      "ĠØ§ÙĤ": 4842,
      "list": 4843,
      "adi": 4844,
      "olve": 4845,
      "ocus": 4846,
      "ĠØ®Ø·": 4847,
      "à¨Ĺà¨²": 4848,
      "ĠÙĪØ²ÛĮØ±": 4849,
      "ÙĤÛģ": 4850,
      "version": 4851,
      "Ġthose": 4852,
      "AI": 4853,
      "ron": 4854,
      "àªŁàª®": 4855,
      "Ġàª«àª°": 4856,
      "ĠàŃª": 4857,
      "à®¤à®ķ": 4858,
      "ØºÛĮØ±": 4859,
      "bu": 4860,
      "à¤¹à¤¸": 4861,
      "Ġcar": 4862,
      "ĠShe": 4863,
      "à®Ĩ": 4864,
      "à°µà°ļ": 4865,
      "ÙĪØ¹": 4866,
      "à¦¦à¦°": 4867,
      "Ġref": 4868,
      "àª·àª£": 4869,
      "Ġà¦¬à¦Ľà¦°": 4870,
      "True": 4871,
      "ĠÙħÙĪØ¬ÙĪØ¯": 4872,
      "àŃ±à¬°": 4873,
      "à°°à°ª": 4874,
      "à¦°à¦§": 4875,
      "à¤ħà¤°": 4876,
      "ailable": 4877,
      "àŃ©": 4878,
      "à¨°à¨¥": 4879,
      "ĠØ¯ÙĨÛĮØ§": 4880,
      "Ġà¦«à¦²": 4881,
      "ĠØ¬Ø§ØªØ§": 4882,
      "metrics": 4883,
      "à°ĺ": 4884,
      "Ġà¨¸à¨Ł": 4885,
      "Ġmain": 4886,
      "ĠâĢĺ": 4887,
      "à¤£à¤®": 4888,
      "Ġà®¹": 4889,
      "àª¡àª¨": 4890,
      "place": 4891,
      "Ġwom": 4892,
      "Ġà¤¸à¤¯": 4893,
      "à¤½à¤¨": 4894,
      "Ġhealth": 4895,
      "ces": 4896,
      "ĠØ´Ø®Øµ": 4897,
      "Ġperform": 4898,
      "à¦¸à¦²": 4899,
      "Ġstill": 4900,
      "à¤ĩà¤ıà¤ķ": 4901,
      "Ġ26": 4902,
      "ĠàŃ«": 4903,
      "Ġà¤Ńà¤¯": 4904,
      "ĠCl": 4905,
      "Ġà¬Ŀ": 4906,
      "Ġà°ªà°¦": 4907,
      "Ġeng": 4908,
      "ĠÙĪØ±": 4909,
      "Ġà²ħà²¤": 4910,
      "Ġà¬Ĩà¬ķ": 4911,
      "org": 4912,
      "Ġà¦ļà¦ķ": 4913,
      "ĠSe": 4914,
      "Ġà¦¸à¦°à¦ķ": 4915,
      "Ġpat": 4916,
      "à°¯à°°": 4917,
      "mb": 4918,
      "Ġà¦ıà¦®à¦¨": 4919,
      "Ġà®ĩà®¤à®©": 4920,
      "Ġà¦ªà¦¥": 4921,
      "Ġà¤ľà¤¸": 4922,
      "Ġà¬ħà¬¸": 4923,
      "ĠàªĨàªªàªµ": 4924,
      "à´¿,": 4925,
      "àªĩàª¨": 4926,
      "ÙĦÙģ": 4927,
      "ĠÙ¾Ø§Ø³": 4928,
      "à«§": 4929,
      "Ġà¤ĺà¤Ł": 4930,
      "Ġcatch": 4931,
      "à¬Łà¬ķ": 4932,
      "à´±à´µ": 4933,
      "Ġà²ħà²¥à²µ": 4934,
      "Ġà¤«à¤°": 4935,
      "à¦¬à¦¬": 4936,
      "loc": 4937,
      "async": 4938,
      "edium": 4939,
      "Ġà´ķà´®": 4940,
      "àªĪàªı": 4941,
      "Ġà®ļà®°": 4942,
      "ĠØ±ÛĮ": 4943,
      "www": 4944,
      "Ġà°¤à°®": 4945,
      "Ġà¤ľà¤²": 4946,
      "à¬¤à¬ķ": 4947,
      "Ġà°ħà°¤": 4948,
      "Ġpolicy": 4949,
      "à´²à´ķ": 4950,
      "Ġàª¸àª°àªķ": 4951,
      "Ġà®µà®´à®Ļ": 4952,
      "à°²à°¯": 4953,
      "à§ģà¦ģ": 4954,
      "Ġà¦°à¦¯": 4955,
      "Ùĳ": 4956,
      "ÙĪÙĨÚ©Ûģ": 4957,
      "à¨°à¨ļ": 4958,
      "Service": 4959,
      "Ġà´ħà´Ń": 4960,
      "umm": 4961,
      "Ġï·º": 4962,
      "Ġà°ķà°°": 4963,
      "Ġdiffer": 4964,
      "ply": 4965,
      "}`": 4966,
      "à¦¨à¦Ł": 4967,
      "à§ĩà¦ģ": 4968,
      "à¦£à§°": 4969,
      "Ġsl": 4970,
      "à¤°à¤¥à¤®": 4971,
      "Ġcheck": 4972,
      "Ġ};": 4973,
      "à«ĤàªĤ": 4974,
      "Ġà°ħà°ķ": 4975,
      "à¤°à¤¦à¤°": 4976,
      "ology": 4977,
      "flex": 4978,
      "à´ķà´±": 4979,
      "àµ¼à´®": 4980,
      "à²°à²¹": 4981,
      "à®ļà®©": 4982,
      "cline": 4983,
      "Ġà¨ķà¨Ī": 4984,
      "andid": 4985,
      "àŃŁà¬¬": 4986,
      "ÚĪÛĮ": 4987,
      "à§°à¦¸": 4988,
      "ĠÙħØ°": 4989,
      "Ġà¦¸à¦®à¦¸": 4990,
      "mission": 4991,
      "àªķàª¡": 4992,
      "raw": 4993,
      ":\"": 4994,
      "isk": 4995,
      "face": 4996,
      "à°¡à°²": 4997,
      "à¦¼à§ĩà¥¤": 4998,
      "ithub": 4999,
      "à°ķà°ª": 5000,
      "Ġà®ħà®´": 5001,
      "Ġang": 5002,
      "à¨°à¨«": 5003,
      "ĠÙģØ±Ùħ": 5004,
      "Ġà¤¤à¤¨": 5005,
      "ĠØŃØ§ØµÙĦ": 5006,
      "Ġà²ĺ": 5007,
      "Ġprovid": 5008,
      "fl": 5009,
      "Ġà¤¨à¤ķ": 5010,
      "à´ķà´®": 5011,
      "ÙĴ": 5012,
      "ĠEng": 5013,
      "Ġà¬²à¬ķ": 5014,
      "ĠÙ¾ÛģÙĨÚĨ": 5015,
      "Ø§ÙĨÙĪÚº": 5016,
      "Ġàªħàª¥àªµ": 5017,
      "inal": 5018,
      "à´¯à´±": 5019,
      "à§±à¦¤": 5020,
      "à²¤à²®": 5021,
      "ĠØ¯Ûģ": 5022,
      "à°¨à°ª": 5023,
      "ĠØ´ÛĮ": 5024,
      "à¥Īà¤Ĥ.": 5025,
      "à¦ĩà¦¤": 5026,
      "To": 5027,
      "UI": 5028,
      "àªĸàªµ": 5029,
      "Ġà®ħà®¤à®©": 5030,
      "ĠÙģÛĮØµ": 5031,
      "ĠØªØµ": 5032,
      "Ġà°İà°ķ": 5033,
      "ĠÛ±Û": 5034,
      "à¨°à¨§": 5035,
      "à¤ıà¤Ĺ": 5036,
      "Ġà¦¶à¦¤": 5037,
      "Ġbro": 5038,
      "ĠØ§ÙħØ§Ùħ": 5039,
      "Ġcor": 5040,
      "Ġinformation": 5041,
      "Ġagent": 5042,
      "Ġtra": 5043,
      "Ġincre": 5044,
      "Ġà®®à®£": 5045,
      "ram": 5046,
      "à¤°à¤¯à¤¤": 5047,
      "Ġsince": 5048,
      "Ġà¤ľà¤¹": 5049,
      "File": 5050,
      "à¥Ģ-": 5051,
      "ÙĪØ§": 5052,
      "à¦¬à¦ķ": 5053,
      "Ġann": 5054,
      "à²Ńà²µ": 5055,
      "Ġà¬ħà¬¬": 5056,
      "Ġà¨¸à¨µ": 5057,
      "à¥ĳ": 5058,
      "à²¨à²µ": 5059,
      "ugg": 5060,
      "Man": 5061,
      "Ġà¦Ĩà¦®à¦°": 5062,
      "ĠÃ": 5063,
      "àª¯àª¤": 5064,
      "Ġà¤īà¤ł": 5065,
      "à¬°à¬¥à¬®": 5066,
      "à´ªà´Ł": 5067,
      "ets": 5068,
      "active": 5069,
      "da": 5070,
      "à¤ļà¤¤": 5071,
      "Ġà¤¹à¤µ": 5072,
      "34": 5073,
      "Ġà®¤à®°": 5074,
      "UL": 5075,
      "à¦¨à¦¯": 5076,
      "await": 5077,
      "Ġinvest": 5078,
      "Ø´Ûģ": 5079,
      "icon": 5080,
      "itive": 5081,
      "Ġreal": 5082,
      "Ġincluding": 5083,
      "à¤¸à¤ļ": 5084,
      "ĠThey": 5085,
      "à¤ľà¤¤": 5086,
      "à¤§à¤®": 5087,
      "Ġà¨ķà¨²": 5088,
      "Ġà¤Ĺà¤£": 5089,
      "ĠSing": 5090,
      "Ġmo": 5091,
      "():": 5092,
      "à°®à°°": 5093,
      "Ġà¦ķà¦°à¦Ľ": 5094,
      "atic": 5095,
      "à®ķà®©": 5096,
      "Ġà¤¨à¤°": 5097,
      "Ġà¬ħà¬¤": 5098,
      "ĠØ¢Ø¦ÛĮ": 5099,
      "ship": 5100,
      "SH": 5101,
      "Ġâ": 5102,
      "ĠØ¨ÙĨØ§": 5103,
      "Ġà´ķà´°": 5104,
      "Ġdefault": 5105,
      "Ġcode": 5106,
      "à¤°à¤ķà¤°à¤£": 5107,
      "à¬²à¬ķ": 5108,
      "irm": 5109,
      "à²ķà²°à²£": 5110,
      "Ġà¤ªà¤Ľ": 5111,
      "Ġ60": 5112,
      "ij": 5113,
      "Ġmen": 5114,
      "à°¨à°ķ": 5115,
      "Host": 5116,
      "AV": 5117,
      "Ġà°ļà°°": 5118,
      "olean": 5119,
      "Ġlife": 5120,
      "Ġà¤°à¤ĸ": 5121,
      "Ġà¨¸à¨°": 5122,
      "à°¨à°µ": 5123,
      "Ġà¦ıà¦ľà¦¨": 5124,
      "Ø¨Ø§Ø±": 5125,
      "Ø³Ù¹": 5126,
      "à°·à°£": 5127,
      "77": 5128,
      "à°²à°ª": 5129,
      "Ġà¦ĵà¦ª": 5130,
      "={{": 5131,
      "Ġà°²à°ķ": 5132,
      "Ġà¦ħà§°": 5133,
      "Ġrecent": 5134,
      "Ġà®Ĵà®©": 5135,
      "auth": 5136,
      "Ġcome": 5137,
      "github": 5138,
      "Ġà¨ªà¨¤": 5139,
      "àªļàª¨": 5140,
      "email": 5141,
      "ample": 5142,
      "ideo": 5143,
      "Ø§Ø³Øª": 5144,
      "à¨Ĩà¨¦": 5145,
      "ead": 5146,
      "à¤¯à¤¶": 5147,
      "à°·à°²": 5148,
      "ĠØ±Ø¶": 5149,
      "à®¹": 5150,
      "à¤ļà¤²": 5151,
      "à°Ĺà°²": 5152,
      "Ġà¤īà¤ªà¤¸": 5153,
      "à´Ńà´µ": 5154,
      "Ġsim": 5155,
      "à°°à°²": 5156,
      "Ġà¤¨à¤¦": 5157,
      "pact": 5158,
      "à¬ķà¬®": 5159,
      "ĠÚ©Ø±ÛĴ": 5160,
      "ĠGo": 5161,
      "html": 5162,
      "Ġcolor": 5163,
      "ĠÙħÛģ": 5164,
      "agement": 5165,
      "Ġà²Īà²Ĺ": 5166,
      "ready": 5167,
      "Ġet": 5168,
      "Ġsoc": 5169,
      "ÙĦÙĪÙħ": 5170,
      "Ġhapp": 5171,
      "à¤µà¤§": 5172,
      "Ġtotal": 5173,
      "à®ļà®¤": 5174,
      "ĠØ¹ÙĨ": 5175,
      "arent": 5176,
      "à®³à®®": 5177,
      "Ġà°ªà°Ł": 5178,
      "ĠØªÛĮ": 5179,
      "Ġproject": 5180,
      "Ġrole": 5181,
      "Ġà®ĩà®ª": 5182,
      "Call": 5183,
      "à²ħ": 5184,
      "à¤¾'": 5185,
      "OM": 5186,
      "Ġà¦Ĩà¦¯": 5187,
      "Ġ2019": 5188,
      "Åĭ": 5189,
      "Se": 5190,
      "à¤ĩà¤²": 5191,
      "mon": 5192,
      "à²ŀ": 5193,
      "Ø¯ÙĪ": 5194,
      "ĠÙ¹ÛĮ": 5195,
      "sed": 5196,
      "à¤¹à¤²": 5197,
      "Ġà¨¸à¨¬": 5198,
      "Ġserv": 5199,
      "uted": 5200,
      "Ġart": 5201,
      "Ġà¦¹à¦ļ": 5202,
      "ada": 5203,
      "Ġà¤Ĩà¤ªà¤£": 5204,
      "à´²à´µ": 5205,
      "Ġdays": 5206,
      "Ġà¦ļà§°à¦ķ": 5207,
      "oun": 5208,
      "ĠÚ©ÙĦ": 5209,
      "Ġàªħàª§": 5210,
      "Ġà²İà²°à²¡": 5211,
      "àµ»à´¸": 5212,
      "Ġà´®à´¤": 5213,
      "à²¦à²ķ": 5214,
      "Ø§Ø¯Ûģ": 5215,
      "IM": 5216,
      "Ġà´ħà´®": 5217,
      "ĠÙĪØ³ÙĦÙħ": 5218,
      "atform": 5219,
      "à®¯à®µ": 5220,
      "Ġà¦¬à¦¡": 5221,
      "àª¯àª°": 5222,
      "open": 5223,
      "Ġà°īà°ª": 5224,
      "plugin": 5225,
      "à´ªà´°": 5226,
      "à²¸à²¬": 5227,
      "Ġ27": 5228,
      "à®¤à®©à®°": 5229,
      "à¦¨à¦¬": 5230,
      "ĠØ¹ÙħÙĦ": 5231,
      "àª°àª¦": 5232,
      "Ġà²¬à²¹": 5233,
      "rl": 5234,
      "à´Łà´¯": 5235,
      "tenant": 5236,
      "Ġà¤ļà¤¤": 5237,
      "Ġà¬¤à¬¥": 5238,
      "85": 5239,
      "Ġà¨ľà¨¨": 5240,
      "à¤¶à¤¸": 5241,
      "à¨¾à¨Ĥ,": 5242,
      "Ġeach": 5243,
      "ways": 5244,
      "²Û": 5245,
      "ĠØ§Ø´": 5246,
      "Ġbreak": 5247,
      "à¤ĩà¤Ł": 5248,
      "à°İà°¸": 5249,
      "ÙĨØ³": 5250,
      "Ġ\"@": 5251,
      "Ġclassification": 5252,
      "rowser": 5253,
      "Ġgoing": 5254,
      "iod": 5255,
      "Ġflex": 5256,
      "à¤ªà¤·": 5257,
      "toBe": 5258,
      "less": 5259,
      "à¨°à¨¡": 5260,
      "Ġdev": 5261,
      "Ú©ÙĪ": 5262,
      "otal": 5263,
      "Ġwithout": 5264,
      "à¦Ĺà¦²": 5265,
      "Ġrounded": 5266,
      "à¤Ĺà¤¸": 5267,
      "ĠØ®ÙĦØ§Ùģ": 5268,
      "aving": 5269,
      "search": 5270,
      "Ġfact": 5271,
      "Ġà¬ªà¬¦": 5272,
      "Ġappro": 5273,
      "àª¡àªµ": 5274,
      "Ġà®®à®Ł": 5275,
      "ration": 5276,
      "Ġà¦ħà¦²": 5277,
      "àŃĩà¬ģ": 5278,
      "Ġappe": 5279,
      "Ø¹Øª": 5280,
      "ĠØ§Ø³ÛĮ": 5281,
      "ored": 5282,
      "à¨¢": 5283,
      "à§°à¦¦": 5284,
      "ĠØ¢Ø¨": 5285,
      "ae": 5286,
      "à¤¸à¤ª": 5287,
      "à¬®à¬ķ": 5288,
      "ĠUS": 5289,
      "ĠØºÛĮØ±": 5290,
      "Ġfamil": 5291,
      "à¤¥à¤ķ": 5292,
      "à´ķà´²": 5293,
      "à¨¬à¨²": 5294,
      "ĠHowever": 5295,
      "à¥¤\"": 5296,
      "Ġà¤ªà¤ŀ": 5297,
      "Ġà®¨à®®": 5298,
      "ĠØ±ÛģÛĮ": 5299,
      "Ġmust": 5300,
      "ĠØ§Ø³ØªØ¹": 5301,
      "Ġà¥§à¥¯": 5302,
      "acy": 5303,
      "Ġà°Ĩà°®": 5304,
      "ĠÙ¾ÛĮØ¯Ø§": 5305,
      "Ġfew": 5306,
      "ler": 5307,
      "ÙĪØ±Ù¹": 5308,
      "yp": 5309,
      "omet": 5310,
      "Ġà¦īà¦ªà¦¸": 5311,
      "Ø¢ÙĨ": 5312,
      "Ġcustom": 5313,
      "à¦Łà§°": 5314,
      "Ġà¦ĺà§°": 5315,
      "Ġà¨īà¨¤": 5316,
      "Ġà¤®à¤¦": 5317,
      "Ġà¬Ĩà¬°à¬®": 5318,
      "ĠCVE": 5319,
      "Ġline": 5320,
      "Ġexec": 5321,
      "à¦¸à¦ķà¦²à§°": 5322,
      "Ġglobal": 5323,
      "Ġlet": 5324,
      "provider": 5325,
      "à±ĩ,": 5326,
      "Sh": 5327,
      "Ġsystem": 5328,
      "Ø«Ø±": 5329,
      "ali": 5330,
      "Ġà¦ªà¦¤": 5331,
      "create": 5332,
      "Ġask": 5333,
      "pty": 5334,
      "Ġà¦ħà¦¹": 5335,
      "à¨®à¨£": 5336,
      "bg": 5337,
      "àª°àª¹": 5338,
      "ĠÙħØ²": 5339,
      "à¤¡à¤°": 5340,
      "host": 5341,
      "Ġ@": 5342,
      "Ġquest": 5343,
      "ism": 5344,
      "Ø¹ÙĨÛĮ": 5345,
      "ÙĪÙĨÙĪÚº": 5346,
      "default": 5347,
      "Ġà¬ķà¬°à¬¨": 5348,
      "à¦ªà¦¦": 5349,
      "à°¾.": 5350,
      "à´µàµ¼": 5351,
      "à¬³à¬ķ": 5352,
      "By": 5353,
      "Ġà®µà®ķ": 5354,
      "Ø¹ÛĮ": 5355,
      "à¤¨à¤®à¤¨": 5356,
      "Ġdifferent": 5357,
      "à¤®à¤¯": 5358,
      "Ø§Ø¸": 5359,
      "etwork": 5360,
      "à®£à®®": 5361,
      "ives": 5362,
      "à®±à®ķ": 5363,
      "Ġàªķàª²": 5364,
      "Ġà¨Ńà¨°": 5365,
      "à§ĩ?": 5366,
      "à®Łà®ķ": 5367,
      "Ġà´ħà´§": 5368,
      "Ġà¦ħà¦¬à¦¸": 5369,
      "à¨ªà¨¨": 5370,
      "Ġà®¤à®Ł": 5371,
      "àª¾àªĤ,": 5372,
      "à°¨à°°": 5373,
      "Ġà¤µà¤¨": 5374,
      "Ġchild": 5375,
      "à°Ĺà°¤": 5376,
      "ÙĦÛĮÙħ": 5377,
      "Ġrecord": 5378,
      "hing": 5379,
      "à¦¶à¦ķ": 5380,
      "Ġeps": 5381,
      "à°¯à°¡": 5382,
      "now": 5383,
      "ĠÚĪÛĮ": 5384,
      "Ġà¬Łà¬Ļ": 5385,
      "àŃĢ,": 5386,
      "Input": 5387,
      "An": 5388,
      "ati": 5389,
      "à¦¸à§°": 5390,
      "ĠÙĦÛĮØ§": 5391,
      "ÙĪÙĨÛĮ": 5392,
      "orth": 5393,
      "rite": 5394,
      "Ġclo": 5395,
      "à¤ľà¤Ĺ": 5396,
      "ĠÙĨØ§": 5397,
      "ours": 5398,
      "Ġchar": 5399,
      "Ġepss": 5400,
      "Ġàª¸àª¤": 5401,
      "Ġà´ªà´¤": 5402,
      "ained": 5403,
      "}>": 5404,
      "ĠØ¬ÙĦ": 5405,
      "21": 5406,
      "à²²à²°": 5407,
      "àªķàª®": 5408,
      "the": 5409,
      "inary": 5410,
      "Ġdon": 5411,
      "tag": 5412,
      "à¬¬à¬¤": 5413,
      "cle": 5414,
      "Ġà°ªà°¡": 5415,
      "à¤¹à¤£à¤ľ": 5416,
      "Ġlatest": 5417,
      "Ġà¨Ĩà¨¦": 5418,
      "67": 5419,
      "ĠÛĮÚ©": 5420,
      "ÙĪØ§Ø±": 5421,
      "Ġà¨¸à¨ª": 5422,
      "à´µà´¯": 5423,
      "55": 5424,
      "Ġ{{": 5425,
      "à±Ģ,": 5426,
      "ĠØ¯Ø¹": 5427,
      "ins": 5428,
      "à¤¸à¤µ": 5429,
      "Ġà®ļà®¨": 5430,
      "Ġà²Ĩà²¯": 5431,
      "Ġà¦¹à¦ĩà¦¯": 5432,
      "à¦¤à§°à¦¤": 5433,
      "OST": 5434,
      "]:": 5435,
      "àŃ®": 5436,
      "à®±à®®": 5437,
      "à®±à®©à®°": 5438,
      "Ġà¥§à¥§": 5439,
      "0220": 5440,
      "Ġà®İà®´": 5441,
      "à°Ĺà°¨": 5442,
      "ĠØ´Ø¯": 5443,
      "Ġà¤¦à¤ķ": 5444,
      "ĠØ³ÛĮØ§": 5445,
      "aining": 5446,
      "ql": 5447,
      "Ø§Ú¯Ø±": 5448,
      "Ġàªªàª¤": 5449,
      "Ġthink": 5450,
      "ken": 5451,
      "Ġà¦¸à¦ķ": 5452,
      "ĠTest": 5453,
      "this": 5454,
      "à¨®à¨¤": 5455,
      "ĠØ§ÙĨÛģÛĮÚº": 5456,
      "SC": 5457,
      "Ġà¤¦à¤²": 5458,
      "ÚĳÛĮ": 5459,
      "ember": 5460,
      "Ġprov": 5461,
      "Ġà¤·": 5462,
      "à²¨à²¡": 5463,
      "ĠØ³ÙħØ¬Ú¾": 5464,
      "inter": 5465,
      "à°²à°®": 5466,
      "ĠDel": 5467,
      "hent": 5468,
      "Ġtool": 5469,
      "land": 5470,
      "rivate": 5471,
      "à¬Ĩà¬¯": 5472,
      "Ġà°İà°²": 5473,
      "Ġmarket": 5474,
      "ÙħÛĮØ±": 5475,
      "Ġrece": 5476,
      "94": 5477,
      "à±Ĥ.": 5478,
      "ĠØ´ÛģØ±": 5479,
      "Ġ\"/": 5480,
      "ounc": 5481,
      "Ġà¤ħà¤ľ": 5482,
      "à¤¯à¤£": 5483,
      "tle": 5484,
      "à±Ģà°Ĥ": 5485,
      "ĠÙĦÚ©Ú¾": 5486,
      "Ġsol": 5487,
      "ĠÙ¾Ø³": 5488,
      "à¦ĩà§°": 5489,
      "Ġà´Ĩà´¶": 5490,
      "At": 5491,
      "Ġpower": 5492,
      "à¬ªà¬¡": 5493,
      "Ġà¦Ľà¦¬": 5494,
      "ĠàŃ¨àŃ¦": 5495,
      "CT": 5496,
      "ĠØ¢Ø±": 5497,
      "ĠàªħàªŃ": 5498,
      "à¬¬à¬ķ": 5499,
      "à®¯à®Ļ": 5500,
      "à®´à®¨": 5501,
      "à¤¬à¤¹": 5502,
      "ĠØ¥": 5503,
      "Ġà®Ĩà®¯": 5504,
      "[^": 5505,
      "à®°à®ļ": 5506,
      "à¤¯à¤µà¤¹": 5507,
      "à´ĩ": 5508,
      "Ġà²Ĳ": 5509,
      "à¬°à¬¨": 5510,
      "à¦¹à¦²": 5511,
      "à²¡à²¬": 5512,
      "à«¨": 5513,
      "Ġhome": 5514,
      "Ġà¤īà¤ªà¤²à¤¬": 5515,
      "dated": 5516,
      "Ġà´ħà´²": 5517,
      "Ġà¦¶à¦ķ": 5518,
      "Ø§ØªÛĮ": 5519,
      "Ġà¤«à¤²": 5520,
      "Ġtechn": 5521,
      "Ġcare": 5522,
      "Value": 5523,
      "Ġà®Ĳ": 5524,
      "Ġcve": 5525,
      "ĠØ®ÛĮ": 5526,
      "Ġsit": 5527,
      "Ġca": 5528,
      "à¦Ľà§°": 5529,
      "à¨Łà¨¨": 5530,
      "68": 5531,
      "ÙĨØ¬": 5532,
      "à«ģàªĤ,": 5533,
      "rict": 5534,
      "à¦¯à¦¬à¦¸": 5535,
      "à²Ĺà²¡": 5536,
      "ĠAPI": 5537,
      "à®ķà®ķ": 5538,
      "post": 5539,
      "à²ĩ": 5540,
      "Ġinv": 5541,
      "Ġlabel": 5542,
      "à´¹à´¤": 5543,
      "For": 5544,
      "php": 5545,
      "à°Łà°ķ": 5546,
      "ĠÙħØ®Øª": 5547,
      "à²ķà²²": 5548,
      "Ġusers": 5549,
      "Ġstyle": 5550,
      "à²¶à²¨": 5551,
      "}}/": 5552,
      "Ġà¤®à¤ľ": 5553,
      "ED": 5554,
      "sure": 5555,
      "Ġtoo": 5556,
      "à°°à°¹": 5557,
      "Ġà®ĩà®µà®°": 5558,
      "ĠØµÙĪØ±Øª": 5559,
      "à²¤à²¹": 5560,
      "Ġfield": 5561,
      "chema": 5562,
      "Ġà¤¬à¤¦à¤²": 5563,
      "Ġà¬Ĩà¬¦": 5564,
      "Ġview": 5565,
      "Ġàª¥àª¤": 5566,
      "à¤¥à¤¨": 5567,
      "ĠØµÙĦÛĮ": 5568,
      "à´ķàµ¾à´ķ": 5569,
      "à´Ļàµ¾à´ķ": 5570,
      "ta": 5571,
      "Ġplan": 5572,
      "Ġà¤īà¤ªà¤¯": 5573,
      "Ġofficial": 5574,
      "àªªàª¤": 5575,
      "ention": 5576,
      "à¦Ļà§°": 5577,
      "Ġàªħàª¹": 5578,
      "ĠWorld": 5579,
      "Ġà¬¸à¬¨": 5580,
      "à¬¶à¬¨": 5581,
      "Ġà¦ĺà¦Ł": 5582,
      "df": 5583,
      "ĠPromise": 5584,
      "ĠØ¨ÙĦÚ©Ûģ": 5585,
      "àŃ¯": 5586,
      "Ġservice": 5587,
      "à¨¸à¨¦": 5588,
      "à¤¸à¤¸": 5589,
      "etch": 5590,
      "utes": 5591,
      "Ġes": 5592,
      "Ġanother": 5593,
      "Ġcontinue": 5594,
      "der": 5595,
      "à¤½à¤¸": 5596,
      "Ind": 5597,
      "à§ĭà¦ģà¥¤": 5598,
      "à°ł": 5599,
      "ĠuseState": 5600,
      "Ġtri": 5601,
      "ĠÚ©ÛģÙĨØ§": 5602,
      "Ġà¤¹à¤¸": 5603,
      "à²µà²¦": 5604,
      "Ġà¤°à¤¹à¤¨": 5605,
      "web": 5606,
      "Event": 5607,
      "User": 5608,
      "ĠÙħÚ¯Ø±": 5609,
      "Ġà¥§à¥¨": 5610,
      "ffic": 5611,
      "àŃ¬": 5612,
      "Run": 5613,
      "ĠÙĨØ´": 5614,
      "ually": 5615,
      "à¤īà¤Ł": 5616,
      "ior": 5617,
      "à¬ªà¬ķ": 5618,
      "We": 5619,
      "On": 5620,
      "append": 5621,
      "Content": 5622,
      "ĠSingh": 5623,
      "AG": 5624,
      "à²Ĩ": 5625,
      "Ġrest": 5626,
      "fn": 5627,
      "à°°à°¦": 5628,
      "]+": 5629,
      "ird": 5630,
      "Ġoper": 5631,
      "à¨¸à¨ª": 5632,
      "Ø¯ÛĮØ«": 5633,
      "Ġta": 5634,
      "Ġà´µà´³": 5635,
      "Ġà°ĩà°ķ": 5636,
      "Ġbusiness": 5637,
      "ref": 5638,
      "à®±à®¨": 5639,
      "Ġside": 5640,
      "à°¬à°°": 5641,
      "Url": 5642,
      "àŃŃ": 5643,
      "Ġà²ĵ": 5644,
      "ĠRes": 5645,
      "Ġà°¦à°°": 5646,
      "ĠÚ¯Ú¾Ø±": 5647,
      "top": 5648,
      "go": 5649,
      "ÙĪÙĤ": 5650,
      "Ġspe": 5651,
      "Ġà´µà´²": 5652,
      "true": 5653,
      "imary": 5654,
      "à´ł": 5655,
      "Ġà´Ĩà´ķ": 5656,
      "Ġà¬Ĩà¬¶": 5657,
      "Ġnever": 5658,
      "Info": 5659,
      "Ġvulnerability": 5660,
      "Text": 5661,
      "okens": 5662,
      "Ġpublic": 5663,
      "Ġà¥§à¥«": 5664,
      "ĉĉĉĉĉĉĉĉ": 5665,
      "à´Ļà´¨": 5666,
      "à¤ĩà¤°à¤¹": 5667,
      "Ġà¨ĵ": 5668,
      "Ù¾Ø±": 5669,
      "ka": 5670,
      "Ġà²¸à²²": 5671,
      "uss": 5672,
      "Ġà²ªà²¤": 5673,
      "Ġà´ľà´¨": 5674,
      "à¤łà¤¨": 5675,
      "Ġà´¬à´¨": 5676,
      "ĠDep": 5677,
      "Ġorder": 5678,
      "With": 5679,
      "âĶģ": 5680,
      "à¤Ĺà¤¦": 5681,
      "à¤Ńà¤ķ": 5682,
      "Ġjson": 5683,
      "à¥Įà¤ģ": 5684,
      "à¨²à¨£": 5685,
      "anel": 5686,
      "Ġà°ħà°¸": 5687,
      "Ġgrow": 5688,
      "ĠØŃØµ": 5689,
      "à¥¤à¥¤": 5690,
      "ĠÙĪØ§ÙĦÛĮ": 5691,
      "Ġà²ıà²¨": 5692,
      "ÙĪÙ¹": 5693,
      "àŃ§": 5694,
      "Ġmod": 5695,
      "Ġà¤ªà¤¢": 5696,
      "Ġà¦ķà¦°à¦¬": 5697,
      "à¤°à¤®à¤®": 5698,
      "pay": 5699,
      "oss": 5700,
      "ĠØªÙĨ": 5701,
      "Ø°Ø§": 5702,
      "Time": 5703,
      "Ġput": 5704,
      "à¨£à¨ķ": 5705,
      "Ġà®İà®²": 5706,
      "à¤¨à¤¯": 5707,
      "ĠÙħÚ©": 5708,
      "ÙĦØ¨": 5709,
      "à¨¨à¨ķ": 5710,
      "à¬¤à¬Ļ": 5711,
      "à¤Łà¤¤": 5712,
      "Ġà²īà²ª": 5713,
      "ĠÚĨÚ¾ÙĪ": 5714,
      "ðŁ": 5715,
      "ances": 5716,
      "gray": 5717,
      "site": 5718,
      "-[": 5719,
      "Ġàªħàª¤": 5720,
      "à¦®à¦°": 5721,
      "Ú¯Ø§Ûģ": 5722,
      "ĠSo": 5723,
      "Ġà®Ĩà®Ł": 5724,
      "En": 5725,
      "à´ķà´£": 5726,
      "à¦®à¦¬": 5727,
      "ĠØ§ÙĨÛģÙĪÚº": 5728,
      "year": 5729,
      "ĠOptional": 5730,
      "ene": 5731,
      "à¨¸à¨ķ": 5732,
      "Ø²ÛĮ": 5733,
      "à¦Ĺà¦°": 5734,
      "à¦§à§°": 5735,
      "Ġà§¬": 5736,
      "Ġà´Ĵà´¨": 5737,
      "Ġà¤¸à¤¬à¤¸": 5738,
      "à¬¾à¬Ĥ": 5739,
      "Ġà²ĩà²¦à²°": 5740,
      "ĠĠĠĠĠĠĠĠĠĠĠĠĠĠĠĠ": 5741,
      "ills": 5742,
      "ĠØ¨ÛĮÙĨ": 5743,
      "Ġà°īà°¤": 5744,
      "Ø¯Ø§Ø¯": 5745,
      "à¤³à¤¤": 5746,
      "Ġà¨Ŀ": 5747,
      "outh": 5748,
      "ief": 5749,
      "Ġà²¸à²¦": 5750,
      "à¤µà¤ľà¤¨": 5751,
      "creen": 5752,
      "Ġà¤°à¤µ": 5753,
      "à¦¥à¦¨": 5754,
      "ĠRaj": 5755,
      "Ġalready": 5756,
      "âĶģâĶģ": 5757,
      "Ġgot": 5758,
      "Ġà®Ĩà®°": 5759,
      "à²¡à²°": 5760,
      "Ġà¦ķà¦°à¦²": 5761,
      "Ø¸Ùħ": 5762,
      "wa": 5763,
      "ÛģØ§Ø±": 5764,
      "ĠÙĨÙĤ": 5765,
      "ended": 5766,
      "à¤ķà¤µ": 5767,
      "Ġà´Ĩà´µà´¶": 5768,
      "Pl": 5769,
      "ran": 5770,
      "Ġà°Ĳ": 5771,
      "ĠØªØ¬": 5772,
      "ĠIN": 5773,
      "àªķàª¸": 5774,
      "unity": 5775,
      "à¤¯à¤Ĺ": 5776,
      "Ġà°¸à°¹": 5777,
      "endor": 5778,
      "ÙħÛĮÚº": 5779,
      "Ġà¤¨à¤¨": 5780,
      "ĠàªĬ": 5781,
      "à¦¹à¦¨": 5782,
      "Col": 5783,
      "uct": 5784,
      "wp": 5785,
      "à¨¬à¨¦": 5786,
      "Ġemail": 5787,
      "Ġhost": 5788,
      "Ø±ÙĪØ¹": 5789,
      "ĠØ§ÛĴ": 5790,
      "Ġà«¨": 5791,
      "Ġturn": 5792,
      "à°ļà°°": 5793,
      "à¤²à¤°": 5794,
      "88": 5795,
      "mail": 5796,
      "Ġmeet": 5797,
      "Ġà®Ī": 5798,
      "àµģà´Ĥ,": 5799,
      "Ġport": 5800,
      "à¦Ĺà¦£": 5801,
      "Ġà²ªà²ķ": 5802,
      "Ġà¤¸à¤®à¤°": 5803,
      "uj": 5804,
      "Ġà¤¸à¤²": 5805,
      "ĠØ¬Ø§ÙĨØ¨": 5806,
      "à¦¬à¦ª": 5807,
      "Ġsource": 5808,
      "Ġà¨µà¨ľ": 5809,
      "ĠØ¯ÙĪÙĨÙĪÚº": 5810,
      "à¬ªà¬¨": 5811,
      "Ø§Ø¦ÙĨ": 5812,
      "ĠÛģÙĪÚ¯Ø§": 5813,
      "PL": 5814,
      "à¤¨à¤¦": 5815,
      "à¤ļà¤®": 5816,
      "ĠÙħØ§ÙĦ": 5817,
      "ural": 5818,
      "Ġgreat": 5819,
      "Ġadded": 5820,
      "rate": 5821,
      "ÛģØ§ÛĮ": 5822,
      "à´¤àµ½": 5823,
      "where": 5824,
      "âĶĢâĶĢâĶĢâĶĢâĶĢâĶĢâĶĢâĶĢ": 5825,
      "à¤Ńà¤ıà¤ķ": 5826,
      "ĠEn": 5827,
      "vious": 5828,
      "Ġfocus": 5829,
      "ĠÙĨÚ©": 5830,
      "Ġà°®à°§": 5831,
      "une": 5832,
      "Ġàªµàªĸàª¤": 5833,
      "Ġsing": 5834,
      "à¦¨à¦¸": 5835,
      "Ġà¤īà¤ªà¤ļ": 5836,
      "ĠÙ¾ÚĳÚ¾": 5837,
      "Ġma": 5838,
      "Ġà²Ĩà²¸": 5839,
      "Ġlot": 5840,
      "Ġkeep": 5841,
      "à´§à´¤": 5842,
      "Ġà¦Ĺà¦²": 5843,
      "à¦¼à§ģ": 5844,
      "ĠCV": 5845,
      "ĠØ³Ú©ØªØ§": 5846,
      "à§°à¦¬": 5847,
      "à®¯à®±": 5848,
      "Ġà¦Ńà¦¯": 5849,
      "Ġreader": 5850,
      "Ġàª°àª¸": 5851,
      "Ġà®¨à®Łà®¤": 5852,
      "era": 5853,
      "à¦Ľà¦¨": 5854,
      "à¬¨à¬ķ": 5855,
      "Ġplayers": 5856,
      "ĠØ¬Ø§Ø±ÛĮ": 5857,
      "à´¯àµ»": 5858,
      "à°¤à°ķ": 5859,
      "ĠDelhi": 5860,
      "Ġà®ªà®±": 5861,
      "ĠÚĨÛĮØ²": 5862,
      "ĠOr": 5863,
      "à¦¯à¦¸": 5864,
      "\\\\\\\\": 5865,
      "Ġavailable": 5866,
      "ĠØ§Ø³ØªØ¹ÙħØ§ÙĦ": 5867,
      "login": 5868,
      "olved": 5869,
      "Ġà²ħà²¦à²°": 5870,
      "Ġraw": 5871,
      "ĠÙħØ¬Ú¾ÛĴ": 5872,
      "Ġà¦Ĳ": 5873,
      "à¤£à¤µ": 5874,
      "ĠØ¨Ø¬": 5875,
      "ĠÙ¾Ø§Ø±": 5876,
      "ĠØ§ÙĦØŃ": 5877,
      "Ġadv": 5878,
      "Ġà¦ĵà¦ªà§°à¦¤": 5879,
      "Ser": 5880,
      "à¨²à¨®": 5881,
      "ality": 5882,
      "à¤°à¤Ĺ": 5883,
      "Ġà¬ĺà¬Łà¬£": 5884,
      "à¬ĩà¬¯": 5885,
      "Result": 5886,
      "ĠØ§Ú©": 5887,
      "à¬ļà¬°": 5888,
      "ĠØ¢Ø¬": 5889,
      "Ġà²Ĺà²³": 5890,
      "à«ī": 5891,
      "à´¯à´µ": 5892,
      "à´ķà´¨": 5893,
      "à¦ķà¦¬": 5894,
      "Ġfac": 5895,
      "Ġà´¨à´®": 5896,
      "Ġà¤¸à¤¹à¤¯": 5897,
      "Ġprot": 5898,
      "à²İà²¸": 5899,
      "à¥ĩà¤Ĥà¥¤": 5900,
      "à¬¡à¬°": 5901,
      "Ġà²ħà²ª": 5902,
      "Ġà¬ĸà¬¬à¬°": 5903,
      "Ġseries": 5904,
      "false": 5905,
      "à®³à®©à®°": 5906,
      "He": 5907,
      "Ġà¦Ĺà¦£": 5908,
      "à¤·à¤¸": 5909,
      "Ø§ÛģÙħ": 5910,
      "Ġà¦ľà¦¯": 5911,
      "Ġà¬Ĩà¬¬": 5912,
      "66": 5913,
      "Ġà¦Ĺà§°": 5914,
      "ĠØ´Ø§Ûģ": 5915,
      "ves": 5916,
      "amm": 5917,
      "Ġàªµàª¸": 5918,
      "Ġà¬Ńà¬²": 5919,
      "àª¹àª¨": 5920,
      "Ġà§§à§¦": 5921,
      "ĠØ²ÙĨØ¯Ú¯ÛĮ": 5922,
      "cf": 5923,
      "Ġà¤ķà¤¤": 5924,
      "Log": 5925,
      "ÙĦØ¦ÛĴ": 5926,
      "ĠCol": 5927,
      "Ġimpact": 5928,
      "Ġdue": 5929,
      "Ġà´Ĩà´£": 5930,
      "Ġlevel": 5931,
      "à¤ıà¤¨": 5932,
      "Context": 5933,
      "ĠThere": 5934,
      "ummary": 5935,
      "à²°à²¶": 5936,
      "Ġà°¤à°ª": 5937,
      "ĠØ®Ø¨Ø±": 5938,
      "la": 5939,
      "hand": 5940,
      "à°µà°¹": 5941,
      "Ø¯ÛĮÙĨ": 5942,
      "à¤¥à¤²": 5943,
      "\"],": 5944,
      "sible": 5945,
      "à²ļà²¨": 5946,
      "à´ļà´¯": 5947,
      "Ġdisplay": 5948,
      "Ġà²ľà²¨à²°": 5949,
      "à²ķà²µ": 5950,
      "ĠØ®Ø¯Ø§": 5951,
      "ived": 5952,
      "Ġà°Ĩà°¸": 5953,
      "BA": 5954,
      "à¤Ĩà¤Ī": 5955,
      "Ġà¨Ĩà¨Ī": 5956,
      "à¦°à¦ļ": 5957,
      "icated": 5958,
      "Ġtoday": 5959,
      "Ġà¤¤à¤¬": 5960,
      "Ġwon": 5961,
      "Ġà¦ħà¦ķ": 5962,
      "Ġ31": 5963,
      "Ġleft": 5964,
      "Ġà¤Ĩà¤ł": 5965,
      "à²®à²¦": 5966,
      "Ġà´®à´£": 5967,
      "Ġinterest": 5968,
      "à¯į!": 5969,
      "Ġà®ĩà®£": 5970,
      "slate": 5971,
      "Ġà¨¢": 5972,
      "à´¸à´°": 5973,
      "Ġissu": 5974,
      "à²ļà²°": 5975,
      "Ġacross": 5976,
      "Ġà¦¤à¦ĸà¦¨": 5977,
      "cribe": 5978,
      "idth": 5979,
      "Ġà´Ĩà´¯": 5980,
      "à§ĭ,": 5981,
      "Ø§ÙĨÚĨ": 5982,
      "àª§àª¨": 5983,
      "ĠAss": 5984,
      "ĠCVSS": 5985,
      "/**": 5986,
      "Click": 5987,
      "Ġà¤ķà¤¨": 5988,
      "Ġà®ĩà®µ": 5989,
      "Ġusing": 5990,
      "à¦®à¦¯": 5991,
      "used": 5992,
      "ÙĪØµ": 5993,
      "Ġbg": 5994,
      "39": 5995,
      "à¤¯à¤ľ": 5996,
      "ĠØ´Ø±ÙĪØ¹": 5997,
      "Ġ(\"": 5998,
      "Ø±Ùħ": 5999,
      "iron": 6000,
      "ĠÚ¯ÙĪ": 6001,
      "Ġà´İà´¸": 6002,
      "ences": 6003,
      "emplate": 6004,
      "à¨£à¨Ĺ": 6005,
      "à¦¹à¦¸": 6006,
      "Ġexp": 6007,
      "(()": 6008,
      "Ġreason": 6009,
      "Ġà®ªà®¯": 6010,
      "Ġ2018": 6011,
      "à²Ĺà²µ": 6012,
      "Ġmak": 6013,
      "Ø§ÙĦÙħ": 6014,
      "ĠNo": 6015,
      "(`": 6016,
      "els": 6017,
      "Ġ{\"": 6018,
      "Ġà´ĩà´ª": 6019,
      "[^\\\\": 6020,
      "Ġà°ħà°¡": 6021,
      "Ġcwe": 6022,
      "aged": 6023,
      "à¤°à¤ªà¤¤": 6024,
      "JSON": 6025,
      "inst": 6026,
      "ĠØ§ÙģØ±": 6027,
      "ĠØ¹ÙĪ": 6028,
      "ately": 6029,
      "Ġà®ªà®¯à®©": 6030,
      "ĠCWE": 6031,
      "Ġà°ĩà°ļ": 6032,
      "Ġpot": 6033,
      "Ġà´¸à´¨": 6034,
      ".\"\"\"": 6035,
      "Ġpage": 6036,
      "ÙĦØ·": 6037,
      "Ġà¤¹à¤¤": 6038,
      "ury": 6039,
      "Ġvendor": 6040,
      "Ø®ÙĪ": 6041,
      "à²ķà²³": 6042,
      "Ġà°¨à°Ł": 6043,
      "ĠÛĶ(": 6044,
      "àµ¼à´·": 6045,
      "à¤Ńà¤µà¤¤": 6046,
      "àªŁàªķ": 6047,
      "Ġprom": 6048,
      "Ġà¬ħà¬¬à¬¸": 6049,
      ")\"": 6050,
      "Ø¦Ø±": 6051,
      "size": 6052,
      "à±ĭ,": 6053,
      "Ġàª¥àªµ": 6054,
      "API": 6055,
      "Ġdan": 6056,
      "à§°à¦¯": 6057,
      "à´ķà´ª": 6058,
      "Ġà¦Łà¦ķ": 6059,
      "Ġfull": 6060,
      "ox": 6061,
      "à®®à®°": 6062,
      "à²¯à²¸": 6063,
      "istry": 6064,
      "Ġà´īà´ªà´¯": 6065,
      "à¦®à¦¦": 6066,
      "Ġtook": 6067,
      "Part": 6068,
      "./": 6069,
      "ih": 6070,
      "à¨§à¨°": 6071,
      "Ġà®¤à®Ļ": 6072,
      "ĠØŃÙħ": 6073,
      "Ġàªīàªªàª¯": 6074,
      "dom": 6075,
      "ION": 6076,
      "ension": 6077,
      "Ġpop": 6078,
      "à²°à²Ĺà²³": 6079,
      "Ġà´ħà´µà´°": 6080,
      "ĠÛĶ\"": 6081,
      "Ø¬Ø¨": 6082,
      "84": 6083,
      "(\"/": 6084,
      "new": 6085,
      "à¦¶à¦¤": 6086,
      "Ġà°ıà°°": 6087,
      "Ġbat": 6088,
      "à¬ĩà¬Ł": 6089,
      "Ġpolice": 6090,
      "List": 6091,
      "hook": 6092,
      "ĠÙħØ§": 6093,
      "à¬¹à¬°": 6094,
      "Ġà¤ĩà¤²": 6095,
      "ĠÙħØªØ¹": 6096,
      "ĠÙĤØ±Ø§Ø±": 6097,
      "Ġà¤ļà¤ķ": 6098,
      "Ġà®ĩà®¯à®ķ": 6099,
      "à§°à¦£à§°": 6100,
      "à®°à®£à®®": 6101,
      "ĠØ§ÛģÙĦ": 6102,
      "Ø§Øº": 6103,
      "Ġà§Ń": 6104,
      "4730": 6105,
      "ĠØªÛĮÙĨ": 6106,
      "Ġ[\"": 6107,
      "orn": 6108,
      "Ø§Ø¨ÛĮ": 6109,
      "ĠÚĨÚ¾": 6110,
      "ĠState": 6111,
      "itial": 6112,
      "à¤ļà¤¯": 6113,
      "Ġà®¤à®±": 6114,
      "Ø®Ø±": 6115,
      "Ref": 6116,
      "Ġà¨ł": 6117,
      "Ġadmin": 6118,
      "Ġstand": 6119,
      "Ø¤": 6120,
      "à¥ĩ-": 6121,
      "Ø³ØªÛĮ": 6122,
      "foreground": 6123,
      "Ġà®ªà®Łà®¤": 6124,
      "bers": 6125,
      "Ġseen": 6126,
      "ĠØ¯ÛĮÚ¯Ø±": 6127,
      "Ġà´ħà´ª": 6128,
      "ories": 6129,
      "à¤¿à¤ģ": 6130,
      "Ġàªħàª²": 6131,
      "à¦ļà¦¯": 6132,
      "004730": 6133,
      "Ġmedia": 6134,
      "00473045": 6135,
      "Ġcame": 6136,
      "ĠÙĦØ§": 6137,
      "Ġà¦¶à§°": 6138,
      "à¨ĩà¨ķ": 6139,
      "à©ĭ.": 6140,
      "Ġobject": 6141,
      "à´¾à´Ĥ.": 6142,
      "Ġà¬ªà¬¹": 6143,
      "ivers": 6144,
      "à®´à®ķ": 6145,
      "ott": 6146,
      "Ġdr": 6147,
      "ume": 6148,
      "join": 6149,
      "à°²à°°": 6150,
      "Ġà¬ıà¬®": 6151,
      "ini": 6152,
      "à¥ĩà¤Ĥ,": 6153,
      "ĠDe": 6154,
      "Ġverified": 6155,
      "à¤¤à¤ķà¤°": 6156,
      "à®¤à®µà®°": 6157,
      "Ø§Ø«": 6158,
      "ormal": 6159,
      "Ġà¬·": 6160,
      "Ġà¬īà¬ļ": 6161,
      "à©Īà©±": 6162,
      "ĠÙħÛĮØ±ÛĴ": 6163,
      "ES": 6164,
      "Ġà¦ªà¦ķ": 6165,
      "à¤ĩà¤¸": 6166,
      "Ġà¦ĵà¦²": 6167,
      "à²¯à²Ĺà²³": 6168,
      "Ġà®īà®Ļ": 6169,
      "Ġà°¸à°®à°¯": 6170,
      "no": 6171,
      "border": 6172,
      "74": 6173,
      "Ġoffer": 6174,
      "DI": 6175,
      "ĠHost": 6176,
      "à´Łà´ª": 6177,
      "à¨¼à©ĭ": 6178,
      "Ġbetter": 6179,
      "aud": 6180,
      "icro": 6181,
      "ected": 6182,
      "Ġà´¸à´°": 6183,
      "Ġbeh": 6184,
      "Ġà¬Ĩà¬¨": 6185,
      "ĠÛģÙĪØªÛĴ": 6186,
      "Ø§Ø¦Ø±": 6187,
      "Ġà¬¯à¬¦": 6188,
      "ĠÙħØ§Ø±": 6189,
      "Ġret": 6190,
      "à¤Ĩà¤°": 6191,
      "(?": 6192,
      "Ġà¦¬à¦²à¦²": 6193,
      "ĠÚ©ÙħÛĮ": 6194,
      "../../": 6195,
      "àª®àªľ": 6196,
      "Ġà®ķà®Łà®¨": 6197,
      "à¬ħà¬¨": 6198,
      "Ø§ÙĨÛģÙĪÚº": 6199,
      "ense": 6200,
      "à²¨à²Ĺà²³": 6201,
      "à¤°à¤¹à¤£": 6202,
      "index": 6203,
      "uter": 6204,
      "à°ľà°¯": 6205,
      "oney": 6206,
      "Ġà¦¶à¦¬": 6207,
      "Ø§Ø²ÛĮ": 6208,
      "Ġà¤ªà¤µ": 6209,
      "ĠØ§ÙĨØ¯": 6210,
      "à°ŀ": 6211,
      "Ġlocal": 6212,
      "600": 6213,
      "Ġàª¥àªĩ": 6214,
      "ĠØ¬Ø§ÙĨÛĴ": 6215,
      "ety": 6216,
      "Ġago": 6217,
      "ĠMar": 6218,
      "Ġà¦Ŀ": 6219,
      "à¨¹à¨¨": 6220,
      "à¬®à¬¤": 6221,
      "Ġà´īà´¦": 6222,
      "ĠSup": 6223,
      "Ġ35": 6224,
      "ĠØ¯ÙĪØ³Ø±ÛĴ": 6225,
      "à²¦à²µ": 6226,
      "Ġaccount": 6227,
      "Ġà¬Ĩà¬Ĺ": 6228,
      "ĠBh": 6229,
      "àªĹàª®": 6230,
      "Ġà¤¦à¤¶": 6231,
      "à¨ħà¨¨": 6232,
      "à¦®à¦£": 6233,
      "à°ķà°Ł": 6234,
      "Ġlik": 6235,
      "Ġ29": 6236,
      "Ġcrit": 6237,
      "Ġshort": 6238,
      "Ġaud": 6239,
      "Ġà°¨à°®": 6240,
      "Ġpartic": 6241,
      "Ġ({": 6242,
      "àª®àªķ": 6243,
      "Ġà¨īà¨¹à¨¨": 6244,
      "à´°à´§": 6245,
      "Ġà¬ķà¬¬": 6246,
      "null": 6247,
      "Ú¯Ûģ": 6248,
      "Ġà¨Ĩà¨®": 6249,
      "Ġà¤®à¤¸": 6250,
      "uture": 6251,
      ")à¥¤": 6252,
      "Ġàª¹àªľ": 6253,
      "_-": 6254,
      "à¦ĸà¦²": 6255,
      "Ġdeli": 6256,
      "Ġunknown": 6257,
      "Change": 6258,
      "Ġtarget": 6259,
      "àµĨ.": 6260,
      "Ġà´§": 6261,
      "istan": 6262,
      "Ġclaim": 6263,
      "Ġdat": 6264,
      "ÛĶÛĶ": 6265,
      "ilities": 6266,
      "Auth": 6267,
      "Ġà°µà°°à°ķ": 6268,
      "à¬Ńà¬³": 6269,
      "à¤¹à¤°à¤£": 6270,
      "Ġà¬ķà¬³": 6271,
      "Ġà¦ħà§±": 6272,
      "But": 6273,
      "à¤µà¤Ł": 6274,
      "ĠUp": 6275,
      "muted": 6276,
      "à¨°à¨²": 6277,
      "UT": 6278,
      "Ġcost": 6279,
      "ĠØªØ´": 6280,
      "Ġstop": 6281,
      "à¨ĩà¨¤": 6282,
      "Ġà´²à´ķ": 6283,
      "au": 6284,
      "ising": 6285,
      "à²·à²¦": 6286,
      "Ġlit": 6287,
      "ague": 6288,
      "Ġà²²à²ķ": 6289,
      "dev": 6290,
      "ĠÚ©Ø§ÙĨ": 6291,
      "Ġà¤ıà¤¨": 6292,
      "ources": 6293,
      "Ġoptions": 6294,
      "Ġà¦§à¦¨": 6295,
      "à§ĩ-": 6296,
      "Ġàª¤àª°àª«": 6297,
      "ĠÙħØ³Øª": 6298,
      "ÚĳÛĴ": 6299,
      "àª°àª¶": 6300,
      "Ġà¤ħà¤«": 6301,
      "àŃŁà¬¬à¬¸": 6302,
      "unch": 6303,
      "à¨¦à¨²": 6304,
      "ĠÚ©Ø±ÙĪ": 6305,
      "rip": 6306,
      "ĠÙħØ¹ÙĦÙĪÙħ": 6307,
      "Ġpur": 6308,
      "Ġà¦Ĩà¦ĩ": 6309,
      "ĠÙģÙĪ": 6310,
      "ÛĮØ¯Ûģ": 6311,
      "à´İà´¸": 6312,
      "ĠAny": 6313,
      "Ø§Ø¦Ùħ": 6314,
      "trim": 6315,
      "Ġwomen": 6316,
      "à¬Ī": 6317,
      "Ġcover": 6318,
      "à²¯à²µà²¨": 6319,
      "Ġà¤²à¤¡": 6320,
      "Ġfive": 6321,
      "à´ķà´°à´£": 6322,
      "ĉĉĉĉĉĉĉ": 6323,
      "As": 6324,
      "Or": 6325,
      "ĠØ¨Ú¾Ø±": 6326,
      "Ġfamily": 6327,
      "ĠØ§Ù¹Ú¾": 6328,
      "à¤¨à¤Ĺà¤°": 6329,
      "Ġà´ªà´Ļ": 6330,
      "Ġà¬Ĩà¬²": 6331,
      "à¤¯à¤ķà¤°": 6332,
      "ogg": 6333,
      "Ġà¤ĵà¤°": 6334,
      "à©ĭ,": 6335,
      "Ġà²İà²¸": 6336,
      "Ġà²¹à²£": 6337,
      "Ġconc": 6338,
      "Open": 6339,
      "valid": 6340,
      "}</": 6341,
      "Ġfar": 6342,
      "Ġà¦ħà¦ŀ": 6343,
      "ĠØ¹Ø§Ùħ": 6344,
      "ecord": 6345,
      "àŃŁà¬¸": 6346,
      "Ġà²¸à²ļ": 6347,
      "Ġà¬Ĩà¬°": 6348,
      "ĠÙĤØ¨": 6349,
      "à¤Łà¤µ": 6350,
      "Ġà°¤à°Ĺ": 6351,
      "ENT": 6352,
      "([": 6353,
      "Ġà¤¸à¤Ļ": 6354,
      "à²¨à²¨": 6355,
      "àŃģ,": 6356,
      "ĠÚ©Ø¨": 6357,
      "ĠÛĮØ¹ÙĨÛĮ": 6358,
      "ĠØ¬Ø§ØªÛĮ": 6359,
      "Ġinfo": 6360,
      "Ġà¦ĵà¦¯": 6361,
      "iance": 6362,
      "Ġà´ĩà´°": 6363,
      "Ġà¦¹à¦ĵà¦¯": 6364,
      "ĠØ´Ø§ÙħÙĦ": 6365,
      "Ġgiven": 6366,
      "ĠØ§ÙģØ±Ø§Ø¯": 6367,
      "Ġà´Ĳ": 6368,
      "Ġà©": 6369,
      "à²ªà²Ł": 6370,
      "à²¬à²²": 6371,
      "à®°à®ª": 6372,
      "ifest": 6373,
      "Ġsecurity": 6374,
      "à°°à°§": 6375,
      "à¤¯à¤ķà¤¤": 6376,
      "ĠWith": 6377,
      "ertain": 6378,
      "à®µà®¤à®±": 6379,
      "Ġimportant": 6380,
      "Ġmaking": 6381,
      "à¤¡à¤®": 6382,
      "Ġdepart": 6383,
      "ret": 6384,
      "chool": 6385,
      "Ġblock": 6386,
      "Ġà§§": 6387,
      "Ġàªľàª¨": 6388,
      "event": 6389,
      "conom": 6390,
      "Ġà¬Ĩà¬ªà¬£à¬Ļ": 6391,
      "à´Łà´±": 6392,
      "icle": 6393,
      "ÙĪØ±Ûģ": 6394,
      "Ġjob": 6395,
      "settings": 6396,
      "Ġà¨īà¨ª": 6397,
      "Ġruns": 6398,
      "à¤±": 6399,
      "ĠØ±ØŃ": 6400,
      "à¤Ľà¤¤": 6401,
      "Ġà¤¸à¤ľ": 6402,
      "Ġà¦¬à¦¯": 6403,
      "Ø´ØªÛģ": 6404,
      "ĠAt": 6405,
      "max": 6406,
      "à°¨à°¸": 6407,
      "à®ªà®®": 6408,
      "à¤¼à¤¿": 6409,
      "ired": 6410,
      "my": 6411,
      "ffer": 6412,
      "Ġàªħàªª": 6413,
      "ika": 6414,
      "ĠÛģÙħØ§Ø±ÛĴ": 6415,
      "Ġà¦¹à¦ĩà¦¤": 6416,
      "ump": 6417,
      "à¤ĺà¤°": 6418,
      "ĠInst": 6419,
      "urther": 6420,
      "ĠCent": 6421,
      "Ġtenant": 6422,
      "Client": 6423,
      "obile": 6424,
      "Ġà¦Ĩà§°à¦®": 6425,
      "Ġà°ĩà°µ": 6426,
      "Ġtaken": 6427,
      "79": 6428,
      "à´Ĩ": 6429,
      "ĠØ§ÛĮØ³ÛĴ": 6430,
      "à°¨à°²": 6431,
      "76": 6432,
      "state": 6433,
      "any": 6434,
      "Ġà¤µà¤¡": 6435,
      "].": 6436,
      "Ġà¦ıà¦¦": 6437,
      "Ù¾ÛĮ": 6438,
      "Ġexc": 6439,
      "ĠØ§ÛĮØ³Ø§": 6440,
      "ui": 6441,
      "Ġà¨ªà©ľ": 6442,
      "ÛĮÙĨÛģ": 6443,
      "Ġà´ķà´³": 6444,
      "Ġchang": 6445,
      "Ùĩ": 6446,
      "organization": 6447,
      "Ġà¤Ńà¤ķ": 6448,
      "ĠØ¨ÚĳÚ¾": 6449,
      "à¬Łà¬¨": 6450,
      "Ġbow": 6451,
      "ĠAI": 6452,
      "gress": 6453,
      "à²¸à²¦": 6454,
      "à°ªà°²": 6455,
      "ĠØŃØ¯": 6456,
      "Ġàªĩàª¨": 6457,
      "Ġmga": 6458,
      "ĠDet": 6459,
      "à§¦à§¦": 6460,
      "Ġà¤ķà¤µ": 6461,
      "ĠÛĮÛģØ§Úº": 6462,
      "Ġà´®à´°": 6463,
      "[_-": 6464,
      "à¨ķà¨Łà¨°": 6465,
      "à¦«à¦²": 6466,
      "à¤°à¤·": 6467,
      "Ġmight": 6468,
      "Un": 6469,
      "à´¯à´¸": 6470,
      "nder": 6471,
      "à¨ĩà¨¸": 6472,
      "Ġsays": 6473,
      "thing": 6474,
      "ĠØ¬ÙĪØ§Ø¨": 6475,
      "[_-]?": 6476,
      "ĠÙħØ®": 6477,
      "Ġenv": 6478,
      "ÙĨÙ¹": 6479,
      "ĠÛģØ²Ø§Ø±": 6480,
      "à²¥à²³": 6481,
      "à§ģ,": 6482,
      "Ġà¨īà¨¦": 6483,
      "à²®à²°": 6484,
      "Ġà¬ħà¬Ľ": 6485,
      "cve": 6486,
      "à¦¯à§±à¦¸": 6487,
      "ĠAct": 6488,
      "ĠIs": 6489,
      "ĠÛģÙĨØ¯": 6490,
      "td": 6491,
      "total": 6492,
      "à²®à²ķ": 6493,
      "Ø´Ø´": 6494,
      "31": 6495,
      "à°®à°ķ": 6496,
      "ĠÙ¾ÙĪ": 6497,
      "Ġapplication": 6498,
      "à¨¤à¨µ": 6499,
      "à²§à²¨": 6500,
      "._": 6501,
      "Ġà«§à«": 6502,
      "ua": 6503,
      "àª¨àªµ": 6504,
      "AAAAAAAAAAAAAAAAAAAAAAAAAAAAAAAAAAAAAAAAAAAAAAAAAAAAAAAAAAAAAAAA": 6505,
      "Ġà¦°à¦ķ": 6506,
      "Ġapi": 6507,
      "Ġda": 6508,
      "ĠØ¨Ø§Ø±ÛĴ": 6509,
      "])": 6510,
      "Ġq": 6511,
      "Ġben": 6512,
      "Ġà¤ĵà¤²": 6513,
      "mber": 6514,
      "à°ľà°°": 6515,
      "Ġconsider": 6516,
      "à¨°à¨£": 6517,
      "à¤¾à¥ĩ": 6518,
      "artment": 6519,
      "duction": 6520,
      "https": 6521,
      "Ġfinal": 6522,
      "sw": 6523,
      "à¤¥à¤¸": 6524,
      "emp": 6525,
      "Ġsocial": 6526,
      "ights": 6527,
      "Ġpresent": 6528,
      "ND": 6529,
      "Ġà¦Ĩà¦Ĺà¦¤": 6530,
      "Ġaway": 6531,
      "isc": 6532,
      "à¨¹à©ľ": 6533,
      "Ø²Ø±": 6534,
      "ĠàªĨàªµàª¤": 6535,
      "Ġke": 6536,
      "à¤¬à¤¸": 6537,
      "Ġalways": 6538,
      "raft": 6539,
      "Ġà¦¬à¦ķ": 6540,
      "Ġà¤Ńà¤µà¤¨": 6541,
      "à¦ĸà¦¨à§°": 6542,
      "Ġà¦¯à¦¥": 6543,
      "à°¶à°ķ": 6544,
      "à°±": 6545,
      "à¤ĸà¤¤": 6546,
      "à¬£à¬°": 6547,
      "à¦¼à¦¾,": 6548,
      "wd": 6549,
      "Ġà®µà®²": 6550,
      "Ġà°Ĩà°¦": 6551,
      "ĠØ§Ø¨ÙĨ": 6552,
      "Ġorganization": 6553,
      "stand": 6554,
      "Ġrate": 6555,
      "xl": 6556,
      "à¦¹à¦®": 6557,
      "Ġgre": 6558,
      "ourn": 6559,
      "ĠØ¨ØŃ": 6560,
      "LS": 6561,
      "ards": 6562,
      "Ġdesign": 6563,
      "à¦°à¦ĵ": 6564,
      "ĠÙĤØ§ÙĦ": 6565,
      "Ġextract": 6566,
      "md": 6567,
      "à¦¦à¦²": 6568,
      "ĠØ¨Ø¹": 6569,
      "à¨Īà¨Ĩ": 6570,
      "Ġà´¨à´Łà´¨": 6571,
      "ĠØ¹ÙĦØ§ÙĤ": 6572,
      "Ġà®µà®´à®ķ": 6573,
      "iew": 6574,
      "}/": 6575,
      "Ø§Ø¨ÙĦ": 6576,
      "\".": 6577,
      "ĠÚ©Ø³": 6578,
      "à¦®à¦¸": 6579,
      "ĠÚ©ÛĮÙĦØ¦ÛĴ": 6580,
      "Ġlaw": 6581,
      "ĠàªĨàªµàª¶": 6582,
      "ĠØ³Ø§ÙħÙĨÛĴ": 6583,
      "script": 6584,
      "àª®àª²": 6585,
      "AD": 6586,
      "à¥ģ,": 6587,
      "Ġà¥¤\"": 6588,
      "Ġri": 6589,
      "ĠĠĠĠĠĠĠĠĊ": 6590,
      "à¨Īà¨¨": 6591,
      "ought": 6592,
      "bd": 6593,
      "ĠÙħØ§ÙĨ": 6594,
      "ĠCO": 6595,
      "à¨²à¨¸": 6596,
      "Ġà®ĩà®°à®£": 6597,
      "bed": 6598,
      "book": 6599,
      "Ø§ÛĮÚ©": 6600,
      "Ġà¦¨à¦ķà§°": 6601,
      "à§±à¦²": 6602,
      "Ġà¤ĩà¤®": 6603,
      "plic": 6604,
      "à°ĩ": 6605,
      "ampion": 6606,
      "à´ļà´°": 6607,
      "Ġvideo": 6608,
      "ĠMe": 6609,
      "à¦¸à¦¬": 6610,
      "à¨ĸà¨¦": 6611,
      "à¤¶à¤µ": 6612,
      "à¦¹à¦°": 6613,
      "Ġàª¥àª¶": 6614,
      "à¤²à¤ļ": 6615,
      "Ġalong": 6616,
      "àª·àª¨": 6617,
      "Ġà¨Ķ": 6618,
      "Ġbook": 6619,
      "Ġà¬ķà¬£": 6620,
      "à°ªà°ķ": 6621,
      "cho": 6622,
      "Ġà°°à°ķ": 6623,
      "aster": 6624,
      "elete": 6625,
      "Ġà¤Ĩà¤¸": 6626,
      "Ø§Ø¦Ø¯": 6627,
      "ĠØ§ÙĦØ¹": 6628,
      "Ġà¤¥à¤ª": 6629,
      "bit": 6630,
      "thers": 6631,
      "Ġà¦·": 6632,
      "fp": 6633,
      "à¦ľà¦ķ": 6634,
      "Ġà²®à²°": 6635,
      "à¦ľà¦¯": 6636,
      "ĠÚ©ÛĮÙĪÙĨÚ©Ûģ": 6637,
      "mp": 6638,
      "Ġà®ħà®Ļ": 6639,
      "Ġà¤ĩà¤¤à¤°": 6640,
      "isting": 6641,
      "ĠØ´Ø¹": 6642,
      "àªķàªµ": 6643,
      "Ġà¨ħà¨ª": 6644,
      "ĠÙħÙĪÙĤ": 6645,
      "metry": 6646,
      "lement": 6647,
      "Ġàª¦àª°àª®": 6648,
      "roller": 6649,
      "ĠError": 6650,
      "orage": 6651,
      "Ġvia": 6652,
      "ĠØ§ÙħØ±ÛĮÚ©": 6653,
      "Ġà¬¸à¬¤": 6654,
      "ging": 6655,
      "mark": 6656,
      "ĠÙħÙĪÙĦ": 6657,
      "Ġay": 6658,
      "àª®àª®": 6659,
      "à¤£à¤ķ": 6660,
      "à´°à´¶": 6661,
      "Ġà²ĩà²¤": 6662,
      "Ġà¤¹à¤²": 6663,
      "Ġeffect": 6664,
      "ĠÙħØ®ØªÙĦÙģ": 6665,
      "Ø¨ÙĪ": 6666,
      "Ġthings": 6667,
      ".\\": 6668,
      "Ġformer": 6669,
      "Ġà¦ļà§°": 6670,
      "à¦ıà¦ĩ": 6671,
      "Ġà¦Ĩà¦§": 6672,
      "ĠØ¨Ø®": 6673,
      "ĠPol": 6674,
      "aya": 6675,
      "à©ľà¨ķ": 6676,
      "mand": 6677,
      "Ġsix": 6678,
      "Ġstarted": 6679,
      "Mode": 6680,
      "Ġ\"\"": 6681,
      "ĠÙ¾Ø±ÙĪ": 6682,
      "ips": 6683,
      "hether": 6684,
      "Ġmult": 6685,
      "adesh": 6686,
      "Ġemploy": 6687,
      "Met": 6688,
      "Ġpast": 6689,
      "ĠSc": 6690,
      "à¤°à¤¥": 6691,
      "ĠGod": 6692,
      "à´°à´µàµ¼à´¤": 6693,
      "erc": 6694,
      "rec": 6695,
      "ĠØªÙģ": 6696,
      "ĠÙ¾ÙĪØ±": 6697,
      "à¨¡à¨°": 6698,
      "à§°à¦¹à¦£": 6699,
      "à²¯à²µà²°": 6700,
      "ÛĮÙĨÛĴ": 6701,
      "àª³àª¨": 6702,
      "Ġraise": 6703,
      "à¤¦à¤ª": 6704,
      "à²¶à²¦": 6705,
      "Ġà¥§à¥®": 6706,
      "ĠJSON": 6707,
      "Ø¢Ù¾": 6708,
      "Ġboolean": 6709,
      "?\"": 6710,
      "ĠØ¯ÙĪØ±Ø§ÙĨ": 6711,
      "uck": 6712,
      "atures": 6713,
      "à´¬à´¨": 6714,
      "wards": 6715,
      "Sc": 6716,
      "à¤£à¤¨": 6717,
      "Ġà°µà°¦": 6718,
      "Ġà¤ħà¤ªà¤°": 6719,
      "à¬¨à¬¸": 6720,
      "à¤ľà¤µ": 6721,
      "ĠMon": 6722,
      "ÚĨÛĮ": 6723,
      "ĠàŃ¬": 6724,
      "Ġà¦ĵà¦ĩ": 6725,
      "ament": 6726,
      "Ġà¤īà¤¡": 6727,
      "Ġload": 6728,
      "ajor": 6729,
      "Ġà¤ħà¤ĺ": 6730,
      "ÙĤØ±": 6731,
      "Ġàª¸àª®àªľ": 6732,
      "check": 6733,
      "à®ªà®©": 6734,
      "ination": 6735,
      "Ġà¬¬à¬¢": 6736,
      "âĢľ": 6737,
      "Ġmove": 6738,
      "ĠGovernment": 6739,
      "meric": 6740,
      "à¥Ģ'": 6741,
      "Ġà¬®à¬£": 6742,
      "Ġàªµàªļ": 6743,
      "ones": 6744,
      "à¥¤\\": 6745,
      "ternal": 6746,
      "Hostname": 6747,
      "Ġà¦ħà§±à¦¸": 6748,
      "Ġrespon": 6749,
      "à´µà´¦": 6750,
      "Ġindust": 6751,
      "à¯į'": 6752,
      "Ġà°ªà°²": 6753,
      "ĠAgent": 6754,
      "Ġà¬¦à¬°": 6755,
      "ĠÚĨÙĦ": 6756,
      "à´°à´ŀ": 6757,
      "Ġà³": 6758,
      "à¬°à¬§": 6759,
      "Ġfailed": 6760,
      "Ġtable": 6761,
      "à¤ªà¤Ł": 6762,
      "Ġà¬ıà¬ªà¬°": 6763,
      "Ġproble": 6764,
      "Ġà¦ħà¦¸à¦®à§°": 6765,
      "89": 6766,
      "à´±à´ķ": 6767,
      "Ġà°ħà°¤à°¨": 6768,
      "à¬Ńà¬°": 6769,
      "à´±à´Ļ": 6770,
      "ĠÚ¯ÙģØª": 6771,
      "Ġperiod": 6772,
      "05": 6773,
      "OW": 6774,
      "ÛĮØŃ": 6775,
      "Ġcampaign": 6776,
      "Ġmillion": 6777,
      "Ġrep": 6778,
      "à²¡à²¦": 6779,
      "Ġà§®": 6780,
      "à´·àµ»": 6781,
      "Ġpolit": 6782,
      "AP": 6783,
      "oo": 6784,
      "ots": 6785,
      "ĠØ§ÙĦØ³": 6786,
      "ĠÚ¯Ú¾": 6787,
      "ĠØ¨ÛģØªØ±": 6788,
      "à¦¸à¦ª": 6789,
      "Ġà¦ıà¦ĩà¦¬": 6790,
      "ĠØ®ÛĮØ§ÙĦ": 6791,
      "³Û": 6792,
      "inc": 6793,
      "Ġtrack": 6794,
      "Ġà®¨à®²": 6795,
      "Ġdom": 6796,
      "Ġà¤īà¤Ń": 6797,
      "à¦ļà¦¤": 6798,
      "Ġeas": 6799,
      "ily": 6800,
      "ĠØŃØ±": 6801,
      "hold": 6802,
      "à°ķà°¨": 6803,
      "Ġà¤Ńà¤Ĺ": 6804,
      "àªĹàª²": 6805,
      "Ġà¦¬à¦ľ": 6806,
      "Ġtold": 6807,
      "à¬¥à¬°": 6808,
      "ĠIm": 6809,
      "à¨ħà¨ķà¨¤": 6810,
      "Ġfore": 6811,
      "àª³àªķ": 6812,
      "Ġflo": 6813,
      "uman": 6814,
      "ĠÚĪØ§ÙĦ": 6815,
      "Ġà¦¸à¦¦à¦¸": 6816,
      "Ġsomet": 6817,
      "aring": 6818,
      "àª¯àª²": 6819,
      "earch": 6820,
      "à¦°à¦ĩ": 6821,
      "Ġà®¤à®µ": 6822,
      "àªĹàªµ": 6823,
      "à´Ĺà´®": 6824,
      "Ġ500": 6825,
      "ught": 6826,
      "à¦°à¦¹à¦£": 6827,
      "ĠÙĤØ±Ø¢ÙĨ": 6828,
      "task": 6829,
      "ony": 6830,
      "Ġni": 6831,
      "ĠPh": 6832,
      "à¦¾'": 6833,
      "Ø¬ÙĪ": 6834,
      "Ġimm": 6835,
      "Ġà¤¶à¤¨": 6836,
      "Ġà¨¤à¨ķ": 6837,
      "Ġ{}": 6838,
      "à¨ħà¨¤": 6839,
      "Ġamong": 6840,
      "Ø§Ø±ÛĮØ®": 6841,
      "rand": 6842,
      "ĠØ¨ØªØ§": 6843,
      "ĠMah": 6844,
      "à´ľà´¨": 6845,
      "ÙħÛĮØª": 6846,
      "à¤ªà¤ļ": 6847,
      "Ø§Ø¨Øª": 6848,
      "Ġà¦¬à¦Ľà§°": 6849,
      "à¥¦à¥¦": 6850,
      "Ġcontext": 6851,
      "à¦ķà¦¨": 6852,
      "Ġà¤®à¤¤à¤¦": 6853,
      "à²²à²¨": 6854,
      "Ġ80": 6855,
      "oor": 6856,
      "ĠÙħØ«": 6857,
      "alert": 6858,
      "Ġyang": 6859,
      "400": 6860,
      "lish": 6861,
      "à¤ĺà¤Łà¤¨": 6862,
      "Api": 6863,
      "à¦łà¦¨": 6864,
      "ĠØ¬ÛĮØ³ÛĴ": 6865,
      "Ġà´ħà´µà´¸": 6866,
      "à¨¨à¨¸": 6867,
      "abase": 6868,
      "Ġà¦Ĩà¦ĩà¦¨": 6869,
      "Ġà¬¸à¬Ń": 6870,
      "Ġà¦ľà¦²": 6871,
      "Ġà¥§à¥ª": 6872,
      "CC": 6873,
      "Ġà¦®à§°": 6874,
      "amb": 6875,
      "Ġà²Ĩà²ķ": 6876,
      "includ": 6877,
      "HE": 6878,
      "à¤°à¤£à¤®": 6879,
      "hes": 6880,
      "à²®à²Ĺ": 6881,
      "Ġà²ħà²¡": 6882,
      "dict": 6883,
      "Ġàªīàª¦": 6884,
      "cret": 6885,
      "Ġcalled": 6886,
      "ĠØ²ÙħÛĮÙĨ": 6887,
      "à°Ĳ": 6888,
      "ti": 6889,
      "Ġsy": 6890,
      "ĠÙĨÙħØ§Ø²": 6891,
      "off": 6892,
      "Ġcro": 6893,
      "Ġins": 6894,
      "Ġair": 6895,
      "à°°à°¶": 6896,
      "à¨²à¨¬": 6897,
      "Ġnon": 6898,
      "metadata": 6899,
      "ĠÛģØ§ØªÚ¾": 6900,
      "Ø§Ø³ÛĮ": 6901,
      "à¦°à¦ª": 6902,
      "filter": 6903,
      "Ġà®İà®£": 6904,
      "Ġchange": 6905,
      "ĠÛĮÙĤ": 6906,
      "à°¡à°¨": 6907,
      "alleng": 6908,
      "ached": 6909,
      "Ġgive": 6910,
      "Ø±Ø§": 6911,
      "Ġinc": 6912,
      "Ġà®ļà®Ł": 6913,
      "Ġexcept": 6914,
      "Ġ45": 6915,
      "Ġlimit": 6916,
      "à²°à²¯": 6917,
      "ÙģÛģ": 6918,
      "Ġàªħàª¸": 6919,
      "ĠBinary": 6920,
      "ĠDate": 6921,
      "à¥Ģ)": 6922,
      "à²°à²µà²¨": 6923,
      "Ġwater": 6924,
      "ĠÙĨØ³": 6925,
      "à¦ķà¦¦": 6926,
      "à¦¸à¦¹": 6927,
      "Ġàªł": 6928,
      "Ġstory": 6929,
      "Ġà¤¤à¤®": 6930,
      "ĠÙħØªØ¹ÙĦÙĤ": 6931,
      "efore": 6932,
      "Ġcreated": 6933,
      "uid": 6934,
      "à¦ĩà¦°": 6935,
      "password": 6936,
      "à¦ľà¦¨à¦ķ": 6937,
      "oice": 6938,
      "Ġmar": 6939,
      "Ø§ÙĨØ¯": 6940,
      "Ġà¬ħà¬ª": 6941,
      "ÙĬ": 6942,
      "Ġbas": 6943,
      "Ġà¦ħà¦Ĺ": 6944,
      "72": 6945,
      "ĠPar": 6946,
      "ĠØŃØ¯ÛĮØ«": 6947,
      "ively": 6948,
      "Ġà¨¸à¨®à¨Ŀ": 6949,
      "Ø¬ÙĨ": 6950,
      "ØŃØ¶": 6951,
      "rist": 6952,
      "Ġunt": 6953,
      "Ġpotential": 6954,
      "Ġfri": 6955,
      "Ġyet": 6956,
      "àªľàª¬": 6957,
      "Ġcricket": 6958,
      "69": 6959,
      "ĠMay": 6960,
      "ĠØ¨Ø±Ø§ÛĮ": 6961,
      "Ġ);": 6962,
      "Ġà°ĺ": 6963,
      "Ġà®ħà®³à®µ": 6964,
      "à¦£à¦¤": 6965,
      "Ġà¦Ĩà¦°à¦ĵ": 6966,
      "à¦¨à¦ĵ": 6967,
      "Ġà¤ĳà¤«": 6968,
      "à¤°à¤µà¤°": 6969,
      "Ġà¥§à¥©": 6970,
      "!!": 6971,
      "à¨¸à¨¥": 6972,
      "ĠÚ©ÛģØªÛĴ": 6973,
      "ÛĮØ¨": 6974,
      "ĠGoogle": 6975,
      "à´±à´ª": 6976,
      "ategory": 6977,
      "Ġà¥¤\\": 6978,
      "Ġà´İà´Ł": 6979,
      "AB": 6980,
      "target": 6981,
      "Ġball": 6982,
      "Ġà¤¸à¤®à¤Ŀ": 6983,
      "Ġà¬Ĺà¬¤": 6984,
      "Ġcred": 6985,
      "ÛĮØ§Ø¯": 6986,
      "ye": 6987,
      "ami": 6988,
      "ĠàªĨàª¤": 6989,
      "ĠØ¢ÛĮØ§": 6990,
      "à¨ĸà¨°": 6991,
      "Act": 6992,
      "à´Łà´®": 6993,
      "Ġà¨¬à¨ļ": 6994,
      "Ġà¤ħà¤¡": 6995,
      "Ġà²®à²ķ": 6996,
      "Ġà®ħà®³": 6997,
      "à¤ªà¤µ": 6998,
      "à´¤à´ª": 6999,
      "à¦¬à¦¦": 7000,
      "Ġà¦¦à¦ķ": 7001,
      "Ġà¬ıà¬ł": 7002,
      "Ġtask": 7003,
      "Ġbring": 7004,
      "à®³à®©": 7005,
      "Ġà¬¸à¬Ļ": 7006,
      "Ġbecome": 7007,
      "Ġorgan": 7008,
      "ĠCup": 7009,
      "Up": 7010,
      "Ø¡": 7011,
      "Ġà¬¨à¬¥": 7012,
      "ĠØ¢Ø²": 7013,
      "Ġclear": 7014,
      "Ġlive": 7015,
      "Ø§ÙĦØ¨": 7016,
      "project": 7017,
      "Ġà¤°à¤¨": 7018,
      "Ġimpro": 7019,
      "à°¦à°Ł": 7020,
      "Ġpayload": 7021,
      "Ġhard": 7022,
      "à®¾,": 7023,
      "Ġàª¤àª®àª¨": 7024,
      "ĠPak": 7025,
      "Ġsize": 7026,
      "à®²à®µ": 7027,
      "Ġ2017": 7028,
      "ĠÙĪØ§ÙĦØ§": 7029,
      "à¦¯à¦¬à¦¹": 7030,
      "Ġvoid": 7031,
      "à¦·à§°": 7032,
      "Ġengine": 7033,
      "ĠÙĨÙģ": 7034,
      "ĠAust": 7035,
      "Ġà®ĩà®Ł": 7036,
      "ables": 7037,
      "ĠBl": 7038,
      "ĠØŃÚ©Ùħ": 7039,
      "Ent": 7040,
      "ĠØ°Ø±ÛĮ": 7041,
      "Ġà¤¨à¤Ĺà¤°à¤ª": 7042,
      "ises": 7043,
      "à¤µà¤¡à¤£": 7044,
      "49": 7045,
      "``": 7046,
      "ĠÚ©ÙĪØ´Ø´": 7047,
      "ĠOne": 7048,
      "à²¤à²ķ": 7049,
      "à¤Łà¤¸": 7050,
      "ĠØ´Ú©": 7051,
      "Ø§ÙĤÛĮ": 7052,
      "leg": 7053,
      "àª²àªµ": 7054,
      "à´·à´¤": 7055,
      "à²¶à²ķ": 7056,
      "Ġà¤¸à¤¹à¤ķ": 7057,
      "250": 7058,
      "Ø§ÙħÛģ": 7059,
      "Ġà§°à¦ľ": 7060,
      "à¦²à¦Ĺ": 7061,
      "ĠàªĽàª¤": 7062,
      "à²¦à²µà²°": 7063,
      "ØªÙĪ": 7064,
      "Ù¹Ø³": 7065,
      "qual": 7066,
      "Ġà´īà´¤": 7067,
      "uation": 7068,
      "ĠØ§Ù¾ÙĨØ§": 7069,
      "ĠInches": 7070,
      "à¤§à¤¸": 7071,
      "ocol": 7072,
      "à´¯à´²": 7073,
      "Ġold": 7074,
      "à°ľà°ķ": 7075,
      "Status": 7076,
      "ĠØ³Ú©ØªÛĴ": 7077,
      "Work": 7078,
      "Ø³Ø±ÛĮ": 7079,
      "Ġve": 7080,
      "Ġnear": 7081,
      "Ú¯ÙĪ": 7082,
      "Ġà²ħà²µà²¨": 7083,
      "angu": 7084,
      "trans": 7085,
      "raph": 7086,
      "à¤¿.": 7087,
      "ponent": 7088,
      "apped": 7089,
      "à¬°à¬¹à¬£": 7090,
      "à¦°à¦²": 7091,
      "ĠØ³ÛĮØ¯": 7092,
      "Ġà¬īà¬ł": 7093,
      "Ġà¤ıà¤¤": 7094,
      "Ġà¬¹à¬ľ": 7095,
      "Ġplatform": 7096,
      "alf": 7097,
      "argin": 7098,
      "àªķàª¤": 7099,
      "nap": 7100,
      "700": 7101,
      "à¬®à¬²": 7102,
      "ĠàªĨàª¶": 7103,
      "Ġà²ħà²®": 7104,
      "Ġà¨ķà¨°à¨µ": 7105,
      "Ġà°ĩà°²": 7106,
      "à¤¤à¤°à¤£": 7107,
      "à¦®à¦§": 7108,
      "Ġmiss": 7109,
      "Ġkind": 7110,
      "med": 7111,
      "hel": 7112,
      "à¬·à¬ķ": 7113,
      "Ġtyp": 7114,
      "uro": 7115,
      "Ġste": 7116,
      "vis": 7117,
      "Ġà´ªà´¦": 7118,
      "à´§à´¨": 7119,
      "Ġà¨ļà¨²": 7120,
      "Ġsettings": 7121,
      "à´¯à´®à´¨": 7122,
      "Ø§Ø¦Ø²": 7123,
      "Ġà¦Ĩà§°à¦ķ": 7124,
      "Ġà¤¸à¤¹à¤Ń": 7125,
      "Ġà¥¨à¥«": 7126,
      "Ġservices": 7127,
      "ĠÙĦÚĳ": 7128,
      "à¤°à¤°": 7129,
      "à®°à®°": 7130,
      "ĠØ§ØŃÙħØ¯": 7131,
      "à¦¿à¦ĥ": 7132,
      "Ġà²ķà²Ł": 7133,
      "Ġest": 7134,
      "Ġà®īà®¤": 7135,
      "service": 7136,
      "à®¾?": 7137,
      "Ġà¤ħà¤Ĺà¤°": 7138,
      "Ġresults": 7139,
      "Ġquestion": 7140,
      "Ġà¤ķà¤¶": 7141,
      "à²Łà²¦": 7142,
      "ĠTe": 7143,
      "à¨µà¨²": 7144,
      "ĠàŃŃ": 7145,
      "Ġmonths": 7146,
      "à¤·à¤§": 7147,
      "Ġà¤Ĩà¤īà¤¨": 7148,
      "Ġà¨¸à¨¤": 7149,
      "FA": 7150,
      "uh": 7151,
      "à°²à°µ": 7152,
      "Ġupdate": 7153,
      "à¤¤à¤¥": 7154,
      "ĠØ¢Ú¯": 7155,
      "Ġà°ľà°¨": 7156,
      "à¤µà¤¹": 7157,
      "à´±à´¯": 7158,
      "à¬Ĺà¬¡": 7159,
      "Ġàª¶àª¹": 7160,
      "Ø±Ø§Øª": 7161,
      "Ġàªħàªµ": 7162,
      "Ø§ÙħØ§Øª": 7163,
      "Ġplayed": 7164,
      "Ġà¦Ī": 7165,
      "Ġà¤¸à¤§": 7166,
      "ĠDev": 7167,
      "ĠOpen": 7168,
      "à¦īà¦ľ": 7169,
      "description": 7170,
      "à§°à¦¶": 7171,
      "Ġà¨ħà¨®à¨°": 7172,
      "à¬Ńà¬¬": 7173,
      "posed": 7174,
      "Ġà¦ħà¦¥": 7175,
      "server": 7176,
      "ØªÛĮØ§Ø±": 7177,
      "Ġà´īà´³": 7178,
      "ĠØ§ÛĮØ³": 7179,
      "42": 7180,
      "Ġà¤¸à¤«": 7181,
      "ena": 7182,
      "à°¾?": 7183,
      "à¬¸à¬¬": 7184,
      "Ġà¦īà§İ": 7185,
      "à¦ļà¦ķ": 7186,
      "ĠÙĤØ§ÙĨ": 7187,
      "Ġà¦ĩà¦¹": 7188,
      "Ġrequired": 7189,
      "Ø§ÙĪ": 7190,
      "response": 7191,
      "coming": 7192,
      "àª°àªŃ": 7193,
      "ĠØ¹Ø¨Ø¯Ø§ÙĦ": 7194,
      "ÛĮØ±Ø§ÙĨ": 7195,
      "à¨°à¨ª": 7196,
      "à®±à®µ": 7197,
      "ĠØ¨ÙĪØ¯": 7198,
      "Ġprof": 7199,
      "Ġà°µà°²": 7200,
      "ĠØ²Ø¨Ø§ÙĨ": 7201,
      "à¦Ĩà¦®": 7202,
      "Al": 7203,
      "ides": 7204,
      "ĠØ¨ÚĳÛĮ": 7205,
      "Ġinf": 7206,
      "Ġà¬ħà¬ŀ": 7207,
      "var": 7208,
      "ĠØ¬ÙĨÚ¯": 7209,
      "Ġà¤¯à¤¸à¤ķ": 7210,
      "Ġà°Ĺà°¤": 7211,
      "Ġexperience": 7212,
      "à®²à®°": 7213,
      "à¤Ńà¤Ĺ": 7214,
      "arning": 7215,
      "Ġà¦ħà¦«": 7216,
      "Ġà¬ļà¬³": 7217,
      "ĠØ¯ÛĮÙĨÛĴ": 7218,
      "à¤³à¤£": 7219,
      "Ġà¤ıà¤īà¤Ł": 7220,
      "Ġà¦ľà¦®": 7221,
      "rary": 7222,
      "Äģ": 7223,
      "Êī": 7224,
      "Ġdone": 7225,
      "à¦¤à¦²": 7226,
      "à´²à´¨": 7227,
      "Ġfeel": 7228,
      "Ġlove": 7229,
      "aces": 7230,
      "Ġà¤°à¤¹à¤¤": 7231,
      "Ġà°ħà°µà°ķ": 7232,
      "Ad": 7233,
      "mpty": 7234,
      "Ġos": 7235,
      "à°®à°²": 7236,
      "ĠØ§Ø·": 7237,
      "ATE": 7238,
      "à¦·à¦®": 7239,
      "ĠØ¬Ú¯Ûģ": 7240,
      "Ġlater": 7241,
      "ĠTo": 7242,
      "Ġà§¯": 7243,
      "Ø§Ú©Ù¹Ø±": 7244,
      "à´²à´®": 7245,
      "Ġà¬¸à¬ķ": 7246,
      "ĠØ¹ÙĨÛģ": 7247,
      "Ġà¬Ĩà¬£": 7248,
      "All": 7249,
      "Ġà¦ķà¦¨": 7250,
      "à®ķà®µà®²": 7251,
      "Ġland": 7252,
      "Ġà°§à°°": 7253,
      "Ã¡": 7254,
      "ĠØ§ÛĮÙħ": 7255,
      "à°Łà°®": 7256,
      "props": 7257,
      "Ø§Ø¯Øª": 7258,
      "Ġsens": 7259,
      "ĠØ¬Ø§Ø¦ÛĮÚº": 7260,
      "ÙĨØ¯ÛĮ": 7261,
      "Props": 7262,
      "86": 7263,
      "à´ªà´£": 7264,
      "andidate": 7265,
      "Ġà´µà´³à´°": 7266,
      "Dir": 7267,
      "à´¨à´²": 7268,
      "cd": 7269,
      ".\",": 7270,
      "RI": 7271,
      "}}\"": 7272,
      "à¤«à¤¤": 7273,
      "Pr": 7274,
      "à®µà®ķ": 7275,
      "Ġà¦ĩà¦®": 7276,
      "Ġà¥§à¥¬": 7277,
      "à´±à´±": 7278,
      "Ġà®īà®Ł": 7279,
      "ĠàŃŁ": 7280,
      "à®ļà®²": 7281,
      "Ġseveral": 7282,
      "à¤Ĺà¤¡": 7283,
      "Ġwithin": 7284,
      "Ġà¦īà§İà¦¸": 7285,
      "Ġ70": 7286,
      "ĠØ¬Ø¨Ú©Ûģ": 7287,
      "gs": 7288,
      "à´·à´®": 7289,
      "à±Īà°Ĥ": 7290,
      "à¤¨à¤¹": 7291,
      "imate": 7292,
      "ĠSp": 7293,
      "ĠØ¬ÛģØ§Úº": 7294,
      "Ġà¨ķà¨¦": 7295,
      "à´Ĳ": 7296,
      "ÙĪØ¯ÛĮ": 7297,
      "Ġà¦īà¦ªà¦ľ": 7298,
      "à°¯à°¸": 7299,
      "Ġvalid": 7300,
      "atal": 7301,
      "akh": 7302,
      "ĠØ§ÙĦÙģ": 7303,
      "Array": 7304,
      "à¦®à¦Ĺ": 7305,
      "à¦¯à§±": 7306,
      "Ġà¤īà¤¹": 7307,
      "Ġactive": 7308,
      "Ġwriter": 7309,
      "à´°à´³": 7310,
      "Ġlo": 7311,
      "odan": 7312,
      "à¤¡à¤µ": 7313,
      "ĠàŃ§àŃ¯": 7314,
      "Ġà¤£": 7315,
      "ĠĠĊ": 7316,
      "Ġà²¹à²°": 7317,
      "à³Ĥ,": 7318,
      "Ġka": 7319,
      "full": 7320,
      "à¦¨à¦ª": 7321,
      "à¨ķà©ľ": 7322,
      "oci": 7323,
      "gram": 7324,
      "43": 7325,
      "err": 7326,
      "Ġà¤Ńà¤Ĺà¤µ": 7327,
      "Ġvisit": 7328,
      "uggest": 7329,
      "ĠØ´Ø¯Ûģ": 7330,
      "Ġcompet": 7331,
      "âķĲâķĲâķĲâķĲ": 7332,
      "role": 7333,
      "Ġdel": 7334,
      "Ġbackground": 7335,
      "JP": 7336,
      "Us": 7337,
      "bl": 7338,
      "Ġà´ªà´ķ": 7339,
      "Ġ2016": 7340,
      "Ġà°¤à°²": 7341,
      "ons": 7342,
      "Ġà®¤à®¯": 7343,
      "ĠAcc": 7344,
      "CVE": 7345,
      "Ġreally": 7346,
      "ĠDh": 7347,
      "ĠØ¬Ø§Ûĵ": 7348,
      "Ġà´ªà´£": 7349,
      "ĠAmeric": 7350,
      "à²¾.": 7351,
      "à¤¡à¤¨": 7352,
      "ĠSer": 7353,
      "Ġtalk": 7354,
      "Ø±Ø¨": 7355,
      "à¦¥à¦ķ": 7356,
      "Ġknown": 7357,
      "à¤ķà¤¶": 7358,
      "à©ĩ.": 7359,
      "Ġàªªàª¸": 7360,
      "Ġàªľàª®": 7361,
      "ĠàªĨàª§": 7362,
      "Ġà°Ĩà°§": 7363,
      "ironment": 7364,
      "Count": 7365,
      "Ġmov": 7366,
      "Ġcomes": 7367,
      "ÚĪØ±": 7368,
      "ĠØ¶Ø±ÙĪØ±Øª": 7369,
      "bf": 7370,
      "Ã«": 7371,
      "umer": 7372,
      "Ġparty": 7373,
      "detail": 7374,
      "Ġmajor": 7375,
      "Ġà¤ľà¤µ": 7376,
      "PS": 7377,
      "lg": 7378,
      "Ġable": 7379,
      "Ġtimes": 7380,
      "ÙĪØ§Ø²": 7381,
      "Ġà´ªà´²": 7382,
      "ĠSet": 7383,
      "ĠSec": 7384,
      "Ø¬Ø¯": 7385,
      "ĠØ¬Ø§ØªÛĴ": 7386,
      "Ġà¬ªà¬¹à¬ŀ": 7387,
      "MS": 7388,
      "rc": 7389,
      "Ġtre": 7390,
      "Ú¯Ø±ÛĮ": 7391,
      "à¤°à¤ķà¤°": 7392,
      "Ġcontrol": 7393,
      "73": 7394,
      "à¨¹à¨®à¨£": 7395,
      "âĢĶ": 7396,
      "ffort": 7397,
      "ĠØ¢Ø¨Ø§Ø¯": 7398,
      "Ú©Ùħ": 7399,
      "à°Ĺà°®": 7400,
      "ĠRed": 7401,
      "Ġshodan": 7402,
      "à¨¨à¨²": 7403,
      "Ġà¬ªà¬¤": 7404,
      "payload": 7405,
      "rows": 7406,
      "ĠCo": 7407,
      "à¤ĩà¤ķ": 7408,
      "Ġà¤ĸà¤¡": 7409,
      "àµ¼à´µ": 7410,
      "Ġà¦īà¦ªà¦°": 7411,
      "ĠØ§ÙĪÙĦ": 7412,
      "àªīàª¨": 7413,
      "Ġcharact": 7414,
      "cap": 7415,
      "Ġfans": 7416,
      "Ġred": 7417,
      "Ġàª¬àª¦": 7418,
      "iti": 7419,
      "à®ªà®µà®°": 7420,
      "à¨²à¨µ": 7421,
      "àµ»à´¡": 7422,
      "ĠØ§Ø¶": 7423,
      "ĠØªØ§Ø±ÛĮØ®": 7424,
      "à¬¶à¬ķ": 7425,
      "mod": 7426,
      "àª¾àªĤ.": 7427,
      "Ġà¤ļà¤¨": 7428,
      "opy": 7429,
      "ĠØ°Ú©Ø±": 7430,
      "Ġàªķàª®": 7431,
      "soft": 7432,
      "à¦²à¦®": 7433,
      "à¥ī.": 7434,
      "à²ĸà²²": 7435,
      "Ġproper": 7436,
      "lier": 7437,
      "Ġà°¸à°Ń": 7438,
      "Ġà®Ĩà®ļ": 7439,
      "xs": 7440,
      "Ġwent": 7441,
      "à°®à°¤": 7442,
      "':": 7443,
      "}\"": 7444,
      "Ġthird": 7445,
      "Ġsingle": 7446,
      "Ġà¤Łà¤ķ": 7447,
      "Ġ2014": 7448,
      "Ġà®ķà®¤": 7449,
      "Ġlar": 7450,
      "Ġworking": 7451,
      "osp": 7452,
      "ÙĪÙĦÛĮØ³": 7453,
      "à§°à¦¥à¦®": 7454,
      "CL": 7455,
      "Ġà¤ªà¤ł": 7456,
      "Ġà²¤à²²": 7457,
      "Ø§ÛģÛĮ": 7458,
      "ners": 7459,
      "Ú©Ø§ÙĨ": 7460,
      "Ġà¦Ĩà¦¨à¦¨": 7461,
      "ÛģØ§": 7462,
      "àª¶àª®": 7463,
      "ĠØ¢Ø³": 7464,
      "Ġdep": 7465,
      "yan": 7466,
      "Ø§Ú©Ûģ": 7467,
      "à¬«à¬³": 7468,
      "Ġreported": 7469,
      "US": 7470,
      "aid": 7471,
      "à³ģà²ĥ": 7472,
      "à®ªà®ķ": 7473,
      "ĠàªŁàªķ": 7474,
      "à´Ĺà´Ļ": 7475,
      "ĠàªŃàª°": 7476,
      "Ø¦ÛĮÚº": 7477,
      "àµ¼à´ļ": 7478,
      "Ġident": 7479,
      "Ġleading": 7480,
      "Partial": 7481,
      "Ġà¨ħà¨¦": 7482,
      "Ùİ": 7483,
      "à¨¬à¨ķ": 7484,
      "Ġà¦ĩà¦ī": 7485,
      "Ġ\\": 7486,
      "Ġbase": 7487,
      "field": 7488,
      "));": 7489,
      "41": 7490,
      "Ġfall": 7491,
      "à²ķà²Ł": 7492,
      "Ġà®µà®Ł": 7493,
      "àª£àª¨": 7494,
      "ĠÙħÛĮØ±ÛĮ": 7495,
      "à§°à¦²": 7496,
      "Ġà¤ħà¤ĸ": 7497,
      "Ġà®¤à®©à®¤": 7498,
      "Ġhandle": 7499,
      "Ġfurther": 7500,
      "Ġà²¬à²¦à²²": 7501,
      "tegr": 7502,
      "àª°àªľ": 7503,
      "Ġdict": 7504,
      "exec": 7505,
      "ongress": 7506,
      "Ġexpected": 7507,
      "Ġspecial": 7508,
      "Ø³ÙĨ": 7509,
      "ically": 7510,
      "à²ľà²ķ": 7511,
      "ĠØµÙģ": 7512,
      "Ġà¦ıà¦®": 7513,
      "ĠØ¯Ø³Øª": 7514,
      "Ġà®¨à®Łà®¨": 7515,
      "bar": 7516,
      "block": 7517,
      "call": 7518,
      "à°Ī": 7519,
      "iles": 7520,
      "Ġà²¹à²²à²µ": 7521,
      "ĠDr": 7522,
      "ĠÙĪØ§ÙĤØ¹": 7523,
      "Ġexplo": 7524,
      "à²¤à²²": 7525,
      "Ġpress": 7526,
      "Ġà°İà°µà°°": 7527,
      "à§°à¦ļ": 7528,
      "router": 7529,
      "ÚĪÛĮØ§": 7530,
      "Ġfree": 7531,
      "Ġà¬ªà¬¢": 7532,
      "ĠDE": 7533,
      "à««": 7534,
      "Ġà¦ħà¦®": 7535,
      "à¦§à¦¤": 7536,
      "ĠÚĨÙĨØ¯": 7537,
      "Ġsent": 7538,
      "à²·à²¨": 7539,
      "Out": 7540,
      "pliance": 7541,
      "Ġsmall": 7542,
      "Ġà¤ĩà¤ļ": 7543,
      "eter": 7544,
      "à°µà°®": 7545,
      "uly": 7546,
      "Ġà´®à´²à´¯": 7547,
      "à¬°à¬«": 7548,
      "Ġà¤ıà¤ķà¤¤": 7549,
      "ĠJan": 7550,
      "ĠØ§ÙĨØ³Ø§ÙĨ": 7551,
      "Ġdate": 7552,
      "à¬¹à¬¨": 7553,
      "Ġfollowing": 7554,
      "aff": 7555,
      "àª£àªµ": 7556,
      "ounced": 7557,
      "à§°à¦¨": 7558,
      "ĠÙĤØ³Ùħ": 7559,
      "Ġposition": 7560,
      "Ġsearch": 7561,
      "ced": 7562,
      "à¦¾à¦ĥ": 7563,
      "à¤ķà¤¦": 7564,
      "ĠØ§Ø¸": 7565,
      "Ġserver": 7566,
      "ĠAustral": 7567,
      "ja": 7568,
      "Ã£": 7569,
      "à´±à´¨": 7570,
      "Sub": 7571,
      "dep": 7572,
      "Ġsche": 7573,
      "Ġhistory": 7574,
      "à¦Łà¦¤": 7575,
      "Ġàª¸àªµ": 7576,
      "Ġgames": 7577,
      "à¨Īà¨Ł": 7578,
      "shot": 7579,
      "ĠÙħØ¶": 7580,
      "àª¯àª¦": 7581,
      "ided": 7582,
      "idence": 7583,
      "Form": 7584,
      "Ġà§¨à§¦à§§à§": 7585,
      "à¦¹à¦ķ": 7586,
      "à²°à²¬": 7587,
      "à²ķà²¨": 7588,
      "Ġconnect": 7589,
      "Ġà¬¹à¬¸": 7590,
      "Ġà²īà²³": 7591,
      "à¤°à¤ªà¤Ł": 7592,
      "QL": 7593,
      "Tokens": 7594,
      "Ġà¤ªà¤Ł": 7595,
      "ĠØŃÙĪØ§ÙĦ": 7596,
      "ĠFin": 7597,
      "à¨¹à¨¤": 7598,
      "Ġà¨µà¨²": 7599,
      "ĠàªĹàªĪ": 7600,
      "à²°à²ķà²°à²£": 7601,
      "dates": 7602,
      "Ġà°ķà°¥": 7603,
      "ĠMod": 7604,
      "àª³àª¤": 7605,
      "Ġdetail": 7606,
      "ĠWhile": 7607,
      "à°¡à°Ĺ": 7608,
      "ĠAf": 7609,
      "sec": 7610,
      "ires": 7611,
      "Ġhit": 7612,
      "à¨¸à¨Łà¨°": 7613,
      "Ġtoken": 7614,
      "Ġcommit": 7615,
      "pose": 7616,
      "à¥Ĥà¤ģ": 7617,
      "ĠÚ©ÛĮÙĪÚº": 7618,
      "àª°àª¥àª®": 7619,
      "à¤¦à¤Ľ": 7620,
      "ĠØ¨ÚĳÛĴ": 7621,
      "87": 7622,
      "empt": 7623,
      "à«ĩ?": 7624,
      "lead": 7625,
      "output": 7626,
      "Ġà´ĵà´«": 7627,
      "59": 7628,
      "à¤Ĺà¤ª": 7629,
      "tx": 7630,
      "àª°àª¬": 7631,
      "Ġcell": 7632,
      "à¤¥à¤µ": 7633,
      "Ġà´µà´´": 7634,
      "Ù¹ÛĴ": 7635,
      "Ġà¦ıà§°": 7636,
      "ĠàªĨàª¨": 7637,
      "à´ľà´¯": 7638,
      "Ġ90": 7639,
      "local": 7640,
      "fort": 7641,
      "Ġà¨Ī": 7642,
      "à®ķà®£": 7643,
      "Ú¯Ø²": 7644,
      "ilt": 7645,
      "âĢ¢": 7646,
      "à¬ļà¬³à¬°": 7647,
      "Ġà¦ĩà¦¸à¦²": 7648,
      "Ġwhether": 7649,
      "ĠÙĨØ¨ÛĮ": 7650,
      "ML": 7651,
      "ĠØ¨Ø§Ø²": 7652,
      "sem": 7653,
      "ĠØ´Ùħ": 7654,
      "ĠØ·Ø±ÛĮ": 7655,
      "Ġà´ħà´¸": 7656,
      "ĠTech": 7657,
      "acity": 7658,
      "ersion": 7659,
      "ĠContent": 7660,
      "Ġocc": 7661,
      "ĠWhen": 7662,
      "dule": 7663,
      "750": 7664,
      "fact": 7665,
      "à¤¯à¤¯à¤¨": 7666,
      "Ġmus": 7667,
      "Ġà¦¨à¦®": 7668,
      "ĠØ¯ÛĮØªÛĴ": 7669,
      "oke": 7670,
      "ĠØ¨ØªØ§ÛĮØ§": 7671,
      "Ġà¥§à¥Ń": 7672,
      "Ġà¬¢": 7673,
      "Ġà¤¯à¤ľ": 7674,
      "pecial": 7675,
      "Ġà¦ļà¦¨": 7676,
      "Ġinternal": 7677,
      "Ġvarious": 7678,
      "ĠØ±Ø¶ÛĮ": 7679,
      "à³¦": 7680,
      "Ġà¦ıà¦ĸ": 7681,
      "ĠÚĨØ§Ø±": 7682,
      "Ġche": 7683,
      "à¦Ĺà¦¨": 7684,
      "Ø¸ÛĮÙħ": 7685,
      "à¤ħà¤ĺ": 7686,
      "sessionId": 7687,
      "Ġsal": 7688,
      "ÙģØ¸": 7689,
      "ÚĳØ§": 7690,
      "Ġà¦ªà¦¶": 7691,
      "Ġà¤Ĩà¤ı": 7692,
      "àª²àªķ": 7693,
      "Ġà¦Ńà§°": 7694,
      "à¦¨à¦®à¦¨": 7695,
      "à´¤à´¯": 7696,
      "Ġà®İà®ª": 7697,
      "ĠØ®Ø§Øµ": 7698,
      "card": 7699,
      "Ġicon": 7700,
      "Ù¹Ø§": 7701,
      "CO": 7702,
      "Ġà¤ªà¤Łà¤ķ": 7703,
      "Ġà²¨à²Ł": 7704,
      "à¬¼àŃĩ": 7705,
      "63": 7706,
      "Ġiss": 7707,
      "ublished": 7708,
      "Ġà¦¦à¦°": 7709,
      "ĠSm": 7710,
      "ĠØ¯Ùģ": 7711,
      "Ġàª²àªĸ": 7712,
      "à¬®à¬£": 7713,
      "àªĸàª°": 7714,
      "fa": 7715,
      "Ġfood": 7716,
      "Ġà®īà®¯": 7717,
      "Ġà¤¶à¤¤": 7718,
      "Ġà®¨à®ķà®°": 7719,
      "ila": 7720,
      "Ġà®¤à®ķà®µà®²": 7721,
      "kan": 7722,
      "ĠÙ¾Ø§ÙĨÛĮ": 7723,
      "Ġàªľàª¤": 7724,
      "ĠTrue": 7725,
      "nection": 7726,
      "enabled": 7727,
      "ĠØªØ³": 7728,
      "ĠAg": 7729,
      "Ġeconom": 7730,
      "Ġà¦ĺà¦°": 7731,
      "à¤¤à¤°à¤®": 7732,
      "àª¦àª®": 7733,
      "())": 7734,
      "Load": 7735,
      "medium": 7736,
      "ĠÙħÙģ": 7737,
      "Ġmom": 7738,
      "à¤¤à¤¹": 7739,
      "Ġothers": 7740,
      "Ġinj": 7741,
      "à²£à²µ": 7742,
      "ĠØ§ÛĮØ³ÛĮ": 7743,
      "IST": 7744,
      "Ġide": 7745,
      "à¬ľà¬£": 7746,
      "ĠNOT": 7747,
      "ĠØ®ÙĪØ§Ûģ": 7748,
      "Ġà´ĩà´µ": 7749,
      "Ġà´¶à´°": 7750,
      "Ġheaders": 7751,
      "Par": 7752,
      "à²Łà²µ": 7753,
      "Ġà¥¨à¥¦à¥§": 7754,
      "cb": 7755,
      "Ø§ÙĨØ³": 7756,
      "Ġà¨ħà¨Ĺ": 7757,
      "Ġà®ĩà®±": 7758,
      "à¤¯à¤¸à¤®": 7759,
      "yo": 7760,
      "Ġà¦¶à¦°": 7761,
      "ĠØ§Ø®ØªÛĮØ§Ø±": 7762,
      "Ġasked": 7763,
      "ĠØ¹ÙĪØ§Ùħ": 7764,
      "Ġà¦Ĩà¦ļ": 7765,
      "ĠSouth": 7766,
      "Ġà¤¯à¤¸à¤²": 7767,
      "Ġecho": 7768,
      "Ġrisk": 7769,
      "br": 7770,
      "à¤¯à¤§": 7771,
      "à¨ªà¨ı": 7772,
      "Ù¾ÙĪØ±Ù¹": 7773,
      "Ġnetwork": 7774,
      "à¦Ńà¦¬": 7775,
      "ĠØªØ¹ÙĦÙĤ": 7776,
      "Ġwebsite": 7777,
      "à¤ľà¤¹": 7778,
      "à²¯à²ķà²°": 7779,
      "ĠĠĠĠĠĠĠĠĠĠĠĠĠĠĠĠĠĠĠĠĠĠĠĠĠ": 7780,
      "ĠAfter": 7781,
      "à¦ĸà§°": 7782,
      "Cline": 7783,
      "à¤·à¤®à¤¤": 7784,
      "Ġquery": 7785,
      "à¤²à¤Ń": 7786,
      "ĠØ¬ÙĦØ¯": 7787,
      "à¥į'": 7788,
      "Ġonce": 7789,
      "rior": 7790,
      "`,": 7791,
      "à¨¤à¨ķ": 7792,
      "Ġà¨ħà¨ķ": 7793,
      "ĠUR": 7794,
      "item": 7795,
      "Ġfuture": 7796,
      "ĠÙĪÙģ": 7797,
      "ĠØ§ÙĨØ¯Ø±": 7798,
      "Ġà¤¤à¤²": 7799,
      "à´®à´¸": 7800,
      "Ġàª®àª¦": 7801,
      "Ġà®īà®¤à®µ": 7802,
      "ĠâĢ¢": 7803,
      "witter": 7804,
      "Ġchildren": 7805,
      "à´ªà´¯": 7806,
      "ĠBe": 7807,
      "ING": 7808,
      "Ġhaving": 7809,
      "Ġà¨®à¨ľ": 7810,
      "Ġà²ħà²¸": 7811,
      "Ġà®İà®¨": 7812,
      "à¤ľà¤¨à¤ķ": 7813,
      "Ġchalleng": 7814,
      "Ġà¬¦à¬³": 7815,
      "à¯į\"": 7816,
      "Ġfight": 7817,
      "à²¸à²¬à²¹": 7818,
      "Ġà¬Ĩà¬¹": 7819,
      "ĠØ¬ÙħØ¹": 7820,
      "Ġmark": 7821,
      "lease": 7822,
      "ĠWeb": 7823,
      "à¤¥à¤¤": 7824,
      "iddle": 7825,
      "à¤ıà¤²": 7826,
      "ĠBu": 7827,
      "ĠHind": 7828,
      "primary": 7829,
      "ĠØ§ÙĨØªØ®": 7830,
      "gy": 7831,
      "àªļàª°": 7832,
      "Ġyoung": 7833,
      "reate": 7834,
      "à¦¸à¦ķ": 7835,
      "Ġhold": 7836,
      "ĠCourt": 7837,
      "Ġà°¸à°®à°¸": 7838,
      "à®°à®Ļ": 7839,
      "ĠØ®Ø±": 7840,
      "Ġcourt": 7841,
      "Ġdevelopment": 7842,
      "Ġà¨ªà¨²": 7843,
      "ocal": 7844,
      "Ġviol": 7845,
      "Ġsum": 7846,
      "ĠàŃ®": 7847,
      "Ġprice": 7848,
      "source": 7849,
      "à¤·à¤°": 7850,
      "à²£à²¦": 7851,
      "vie": 7852,
      "à®ĩà®¨": 7853,
      "Ġprovide": 7854,
      "ping": 7855,
      "Ġà®ħà®µà®©": 7856,
      "à¨ľà¨µ": 7857,
      "ocker": 7858,
      "ĠàŃ§àŃ¦": 7859,
      "Ġperformance": 7860,
      "à¨Ĩà¨ª": 7861,
      "Ġheld": 7862,
      "Ġà¦¯à¦ĸà¦¨": 7863,
      "Ġvict": 7864,
      "ĠÚĨØ§ÛģÛĮ": 7865,
      "witch": 7866,
      "Ġà²ħà²¦à²¨": 7867,
      "ĠØ´Ø±ÛĮÙģ": 7868,
      "àª®àª°": 7869,
      "Ġobj": 7870,
      "Ġdecision": 7871,
      "uru": 7872,
      "Ġà¬®à¬¸": 7873,
      "Ø±ÛĮÙħ": 7874,
      "Ġà²¸à²®à²¸": 7875,
      "ĠØ¨Øª": 7876,
      "ids": 7877,
      "color": 7878,
      "à¤¸à¤¬": 7879,
      "ĠWWE": 7880,
      "ĠÚĨÛĮ": 7881,
      "indows": 7882,
      "Ġwicket": 7883,
      "Ġnam": 7884,
      "Ġàªĺàª°": 7885,
      "à³Ĥ.": 7886,
      "ĠÛ²Û": 7887,
      "àŃŁà¬¬à¬¹": 7888,
      "Date": 7889,
      "à´¨à´µ": 7890,
      "Ġscript": 7891,
      "à¤Ľà¤²": 7892,
      "Ġà¬¸à¬®àŃŁ": 7893,
      "Ed": 7894,
      "lim": 7895,
      "à¥ĩ'": 7896,
      "Ġcity": 7897,
      "ĠÙħØ±Øª": 7898,
      "prompt": 7899,
      "ÙĪÙħÛĮ": 7900,
      "Ġà¦¬à¦Ļ": 7901,
      "ĠàªĨàª®": 7902,
      "à¨ªà¨¸": 7903,
      "Ġà¤ĩà¤¸à¤¸": 7904,
      "clus": 7905,
      "ĠWhat": 7906,
      "================================": 7907,
      "à¨¦à¨Ĺ": 7908,
      "Ġà¤¨à¤¸à¤ķ": 7909,
      "à¨¼à¨¿à©°": 7910,
      "Ġàª¤àªª": 7911,
      "yn": 7912,
      "ĠCongress": 7913,
      "Ġissue": 7914,
      "ze": 7915,
      "Ġprint": 7916,
      "Ġcases": 7917,
      "Ġface": 7918,
      "ĠØ¯Ø§Ø®": 7919,
      "ĠÙĪÙĤ": 7920,
      "Ġbeg": 7921,
      "à¤¶à¤°": 7922,
      "ĠĠĠĠĠĠĠĠĠĠĠĠĠĠĠĠĠĠĠĠĠĠĠĠĠĠĠ": 7923,
      "Ġdeal": 7924,
      "92": 7925,
      "93": 7926,
      "Ġsect": 7927,
      "Ġà¬ªà¬ŀ": 7928,
      "Ġà°İà°®": 7929,
      "àª¤àªķ": 7930,
      "Ġlength": 7931,
      "à¨Ĺà¨¦": 7932,
      "Ġ)}": 7933,
      "àªľàªķ": 7934,
      "right": 7935,
      "Ġbased": 7936,
      "ĠÙĦÛģ": 7937,
      "à¬ļà¬³": 7938,
      "lib": 7939,
      "hip": 7940,
      "à¤¾)": 7941,
      "à°µà°¸": 7942,
      "ĠØ§Ø¸ÛģØ§Ø±": 7943,
      "ĠØ¯Ú¾": 7944,
      "Ġà¦¯à¦¤": 7945,
      "à²§à²°": 7946,
      "ĠØ¨Ø¹Ø¶": 7947,
      "ster": 7948,
      "à¦ĩà¦ľ": 7949,
      "ĠØ®Ø¯": 7950,
      "Ġà¬Ĺà¬£": 7951,
      "Ġ32": 7952,
      "ÙĦØ§ÙĪÛģ": 7953,
      "ĠØ§ÙĦÙĨ": 7954,
      "Ġà²Ĩà²¤": 7955,
      "Ġevents": 7956,
      "stream": 7957,
      "ĠØ§Ø³Ùħ": 7958,
      "Ġà¬ļà¬¨": 7959,
      "ĠØ²Ùħ": 7960,
      "cast": 7961,
      "à´ļà´¨": 7962,
      "Ġà¨Ĳà¨¸": 7963,
      "56": 7964,
      "57": 7965,
      "Int": 7966,
      "à²°à²³": 7967,
      "ÙĦØ§ÙĨ": 7968,
      "Ġaddition": 7969,
      "Ġregion": 7970,
      "82": 7971,
      "ĠØ§Ø³ÙĦØ§ÙħÛĮ": 7972,
      "à¦¯à¦¯": 7973,
      "Ġà²ħà²ķ": 7974,
      "à¦¯à§±à¦¹": 7975,
      "doc": 7976,
      "ĠÙħÛĮÙĨ": 7977,
      "à°¡à°°": 7978,
      "ĠGet": 7979,
      "Ġà¤ħà¤µà¤§": 7980,
      "à´®à´¨": 7981,
      "Ġà²®à²§": 7982,
      "Ġà¨Ĩà¨īà¨£": 7983,
      "Web": 7984,
      "ball": 7985,
      "Exception": 7986,
      "ees": 7987,
      "ĠØ¨Ø§Ø¨": 7988,
      "ĠUnited": 7989,
      "Ø´Ø±": 7990,
      "page": 7991,
      "à«©": 7992,
      "Ġàªµàª¡": 7993,
      "àµ¼à´ª": 7994,
      "Ġstrong": 7995,
      "à«ħ": 7996,
      "imes": 7997,
      "illed": 7998,
      "eline": 7999,
      "plement": 8000,
      "ea": 8001,
      "Ø§Ø´Øª": 8002,
      "ediation": 8003,
      "ĠÚ©Ø¨Ú¾ÛĮ": 8004,
      "à¨¨à¨µ": 8005,
      "ably": 8006,
      "Ġàªķàª°àª¶": 8007,
      "àª°àª¯": 8008,
      "à²§à²µ": 8009,
      "Ġinclude": 8010,
      "Ġà²§à²°": 8011,
      "TE": 8012,
      "ieve": 8013,
      "ĠÚ©Ø¦ÛĮ": 8014,
      "à¤¢à¤¤": 8015,
      "ona": 8016,
      "à¯ĩ,": 8017,
      "Ġà´¨à´Łà´ķ": 8018,
      "Ġstar": 8019,
      "Ġà¬ħà¬Ĺ": 8020,
      "umar": 8021,
      "fr": 8022,
      "limit": 8023,
      "à²¨à²ķ": 8024,
      "à¤°à¤«": 8025,
      "Ġà²ªà²Ł": 8026,
      "Ġà¤ĩà¤¸à¤²": 8027,
      "Ġprevious": 8028,
      "à¬¸à¬®": 8029,
      "à¤¢à¤²": 8030,
      "ĠÛĮÛģÛĮ": 8031,
      "Ġà´¨à´Łà´ªà´Ł": 8032,
      "ØŃØ¶Ø±Øª": 8033,
      "à¤Ĺà¤ļ": 8034,
      "ĠÙģØ§Ø±": 8035,
      "ĠØªÙħÛģ": 8036,
      "Ġhover": 8037,
      "abs": 8038,
      "à¤ĩà¤¸à¤ķ": 8039,
      "à²·à²Ĺà²³": 8040,
      "Ġ2015": 8041,
      "Ġnullable": 8042,
      "Ph": 8043,
      "Ġà¤ķà¤Ł": 8044,
      "Ġ+=": 8045,
      "Ø§ØªØ§": 8046,
      "Ġà°İà°¦": 8047,
      "ĠPakistan": 8048,
      "ites": 8049,
      "ĠTV": 8050,
      "ĠØ¹Ø²": 8051,
      "à´ŀà´¤": 8052,
      "Ġinstance": 8053,
      "SO": 8054,
      "à¬ĩà¬ķ": 8055,
      "ponents": 8056,
      "Ø±ÙģØª": 8057,
      "Card": 8058,
      "HT": 8059,
      "à¨¸à¨¨": 8060,
      "Ġorig": 8061,
      "Ġsomething": 8062,
      "àŃŁà¬Ļ": 8063,
      "à¯ĩ.": 8064,
      "Ġà¦ļà¦¨à¦¤": 8065,
      "ĠØŃÙĤÛĮ": 8066,
      "ĠØ±ÙĪØ§ÛĮØª": 8067,
      "à®ī": 8068,
      "Ø§Ø¦Ø¹": 8069,
      "percent": 8070,
      "Ġà²¤à²ª": 8071,
      "ĠÙĤØ§Ø¦Ùħ": 8072,
      "Ġà¦®à¦¨à¦¤": 8073,
      "ita": 8074,
      "ĠPat": 8075,
      "ios": 8076,
      "ĠMr": 8077,
      "ĠUser": 8078,
      "BI": 8079,
      "Ġurl": 8080,
      "à©Ģ-": 8081,
      "ÙĦØ§ØŃ": 8082,
      "ulation": 8083,
      "ĠÙħØ²ÛĮØ¯": 8084,
      "ashboard": 8085,
      "à´°à´µà´°": 8086,
      "Ġinn": 8087,
      "ĠàªľàªĹ": 8088,
      "irl": 8089,
      "ender": 8090,
      "success": 8091,
      "à¤ķà¤£": 8092,
      "dat": 8093,
      "à§ĩ'": 8094,
      "ĠÙĪÛģØ§Úº": 8095,
      "anks": 8096,
      "Ġpick": 8097,
      "à¤¡à¤£": 8098,
      "Ġà¥©à¥¦": 8099,
      "idden": 8100,
      "à¦¨à¦¦": 8101,
      "Ġà¦¨à¦Ĺ": 8102,
      "àª²àª¤": 8103,
      "ĠÚĪØ§Ú©Ù¹Ø±": 8104,
      "83": 8105,
      "ique": 8106,
      "Ġà®ªà®³": 8107,
      "à®¾.": 8108,
      "ialog": 8109,
      "à®¤à®°à®µ": 8110,
      "àª¨àª¸": 8111,
      "à¨¦à¨¦": 8112,
      "Ġfeature": 8113,
      "à¤¿à¥¤": 8114,
      "/*": 8115,
      "ĠWest": 8116,
      "Ġjustify": 8117,
      "à¤¨à¤Ĺ": 8118,
      "Ġdocument": 8119,
      "Ġenc": 8120,
      "format": 8121,
      "bt": 8122,
      "Ġà¦ªà¦¢": 8123,
      "ley": 8124,
      "à®²à®Ļ": 8125,
      "Ġà®ħà®ķ": 8126,
      "agn": 8127,
      "ØµØ±": 8128,
      "Ġpoints": 8129,
      "Ġschool": 8130,
      "ĠÙħØ§Ûģ": 8131,
      "]*": 8132,
      "à°¤à°Ĺ": 8133,
      "àª¯àªµ": 8134,
      "ĠThat": 8135,
      "ĠØ§ÙĨØªØ¸": 8136,
      "à¨¨à¨¦": 8137,
      "à¨Ĩà¨²": 8138,
      "ĠØŃØ¶ÙĪØ±": 8139,
      "Ø¨Ø§ÙĦ": 8140,
      "ĠÙħÙĪÙĤØ¹": 8141,
      "Ã©": 8142,
      "ÛĮÙĨØ§": 8143,
      "ĠKhan": 8144,
      "ibility": 8145,
      "Ġà¤µà¤Ł": 8146,
      "Ø²Ø§": 8147,
      "headers": 8148,
      "ĠÙħÙħ": 8149,
      "ĠÚ©ÛĮÛĴ": 8150,
      "rive": 8151,
      "àµ½à´ª": 8152,
      "ĠØ§ÙĨØ¬": 8153,
      "acc": 8154,
      "Ġà®īà®¯à®°": 8155,
      "à°ķà°®": 8156,
      "Ġreview": 8157,
      "Ġà¬¨à¬¬": 8158,
      "Ġdeath": 8159,
      "ĠØ³ÙĪØ§ÙĦ": 8160,
      "Ġpack": 8161,
      "Ġà¨¸à¨«": 8162,
      "Ú¾ÙĪÚº": 8163,
      "Ġà®īà®Łà®²": 8164,
      "models": 8165,
      "alys": 8166,
      "Ġà¨µà¨°à¨Ĺ": 8167,
      "à¤ĸà¤®": 8168,
      "Ġhappen": 8169,
      "ued": 8170,
      "Ġmode": 8171,
      "Ġmoney": 8172,
      "àµ¼à´¦": 8173,
      "à¨£à¨¤": 8174,
      "Ġstay": 8175,
      "91": 8176,
      "And": 8177,
      "ium": 8178,
      "Ġok": 8179,
      "à°£à°¯": 8180,
      "Ġà¦ıà¦ķà¦ľà¦¨": 8181,
      "Ġarea": 8182,
      "Ġdetails": 8183,
      "54": 8184,
      "anch": 8185,
      "Ġà¤ĩà¤¸à¤®": 8186,
      "Ġshare": 8187,
      "UN": 8188,
      "à¨ķà¨®": 8189,
      "unj": 8190,
      "àµ¼à´¶": 8191,
      "ĠÙħØ³Ø¦": 8192,
      "à®¾à¯į": 8193,
      "Ġà¤¹à¤Ł": 8194,
      "à¬¬à¬¨à¬°": 8195,
      "Ġà°Ĩà°²": 8196,
      "Ġà¦¹à¦ĩà¦²": 8197,
      "à¦īà¦¤": 8198,
      "Ġmatches": 8199,
      "Ġprivate": 8200,
      "ĠØ¢Ø¦ÛĴ": 8201,
      "à°§à°®": 8202,
      "Ġut": 8203,
      "à²Ĺà²¦à²²": 8204,
      "Ġlight": 8205,
      "enu": 8206,
      "à¬¨à¬¤": 8207,
      "Ġfast": 8208,
      "à¨¼à©į": 8209,
      "ĠØ«Ø§Ø¨Øª": 8210,
      "à¤®à¤Ń": 8211,
      "Item": 8212,
      "Ġextractors": 8213,
      "Task": 8214,
      "gov": 8215,
      "à°²à°Ĺ": 8216,
      "Ġwatch": 8217,
      "Ġfund": 8218,
      "Ġà²°à²ķ": 8219,
      "Ġpossible": 8220,
      "Ġ..": 8221,
      "à²Ĳ": 8222,
      "Ġà´ĸ": 8223,
      "ering": 8224,
      "Ġ\"\",": 8225,
      "à´¹à´®": 8226,
      "ĠØªÚ¾ÛĮÚº": 8227,
      "Ġcam": 8228,
      "Ġà´¸àµ¼à´ķ": 8229,
      "à°¡à°µ": 8230,
      "resent": 8231,
      "à¬ıà¬¸": 8232,
      "Ġà²ıà²ķ": 8233,
      "à¬ĩà¬¸": 8234,
      "ĠSession": 8235,
      "ĠMal": 8236,
      "Ġàªµàª°àª¸": 8237,
      "Ġhouse": 8238,
      "Ġlow": 8239,
      "Ġà¬ħà¬ķ": 8240,
      "ĠÙģØ¶": 8241,
      "position": 8242,
      "Ø§Ø¤Úº": 8243,
      "Ûķ": 8244,
      "Ġless": 8245,
      "ĠàªħàªĹ": 8246,
      "à´µà´ķ": 8247,
      "ĠØ±Ø§Ûģ": 8248,
      "à¤³à¤²": 8249,
      "à²¸à²µ": 8250,
      "Ġà°ıà°®": 8251,
      "ils": 8252,
      "oll": 8253,
      "Ġàª¹àª¶": 8254,
      "security": 8255,
      "column": 8256,
      "Ġà´®à´¨à´¸": 8257,
      "62": 8258,
      "ns": 8259,
      "Ġà¬¹à¬°": 8260,
      "Ġwhy": 8261,
      "àªĸàª¨": 8262,
      "ĠPOST": 8263,
      "plan": 8264,
      "Ġà¦ĸà¦¬à¦°": 8265,
      "ĠPM": 8266,
      "Ġrespect": 8267,
      "CP": 8268,
      "has": 8269,
      "à§°à§±": 8270,
      "FI": 8271,
      "anj": 8272,
      "duced": 8273,
      "à°°à°ľà°²": 8274,
      "à¨Ľà¨²": 8275,
      "à¬°à¬£à¬°": 8276,
      "light": 8277,
      "à¤²à¤¯à¤ķ": 8278,
      "à²Ńà²¦à²²": 8279,
      "Ġopport": 8280,
      "cell": 8281,
      "tics": 8282,
      "vul": 8283,
      "Ø¯ÛĮØ¯": 8284,
      "ĠØµØ¯Ø±": 8285,
      "ĠØ¯Ø±ÙħÛĮ": 8286,
      "Ġaddress": 8287,
      "ĠàªĹàª£": 8288,
      "à¦¯à¦ĩ": 8289,
      "à²¸à²¨": 8290,
      "Ġà¦ıà¦Ľ": 8291,
      "Ġà®µà®³à®°": 8292,
      "à²¿à²ĥ": 8293,
      "ilar": 8294,
      "ĠNational": 8295,
      "Ġmembers": 8296,
      "ULL": 8297,
      "Ġstre": 8298,
      "Ġà²ĩà²µ": 8299,
      "à¦®à¦ª": 8300,
      "ĠCline": 8301,
      "à¬ľàŃŁ": 8302,
      "'.": 8303,
      "¹Û": 8304,
      "ØŃÛģ": 8305,
      "Ġà¨ĸà¨°": 8306,
      "ĠÛģÙħÛĮÚº": 8307,
      "based": 8308,
      "à¤¿'": 8309,
      "Ġtaking": 8310,
      "Ġtoget": 8311,
      "Ġlink": 8312,
      "Ġà¥«à¥¦": 8313,
      "className": 8314,
      "Ġà¤ªà¤¸": 8315,
      "à¤·à¤¯à¤®": 8316,
      "Ġà¤Ĺà¤®": 8317,
      "eturn": 8318,
      "ians": 8319,
      "eral": 8320,
      "à¤ĩà¤¯": 8321,
      "push": 8322,
      "Úĺ": 8323,
      "oto": 8324,
      "ĠMus": 8325,
      "ancial": 8326,
      "Ġlogger": 8327,
      "Ġsuccessful": 8328,
      "ny": 8329,
      "à®ķà®ļ": 8330,
      "minal": 8331,
      "à¤¿-": 8332,
      "Ġà´ķà´²": 8333,
      "Ġà²ļà²°": 8334,
      "à´ķà´£à´®": 8335,
      "Ġà¬²à¬Ĺ": 8336,
      "Ġabs": 8337,
      "node": 8338,
      "ÙĪØ´": 8339,
      "à¬ľà¬ķ": 8340,
      "à°¹à°¨": 8341,
      "If": 8342,
      "Ġà¤®à¤¦à¤¤": 8343,
      "aging": 8344,
      "ĠPart": 8345,
      "ĠØ¹ÙĪØ±Øª": 8346,
      "Ġdiff": 8347,
      "SA": 8348,
      "ĠURL": 8349,
      "à´ªà´±": 8350,
      "Ġà¬¥à¬°": 8351,
      "Ġ\"@/": 8352,
      "ĠØŃØµÛģ": 8353,
      "à®°à®Ł": 8354,
      "oring": 8355,
      "cloud": 8356,
      "Ġà¨Łà¨°": 8357,
      "Ġà¤Ľà¤²": 8358,
      "ÙĪÙĨØ§": 8359,
      "à¤Ĩà¤¤": 8360,
      "Ġgetting": 8361,
      "PA": 8362,
      "context": 8363,
      "Im": 8364,
      "author": 8365,
      "jection": 8366,
      "Ġtogether": 8367,
      "Ġà¤¨à¤ľà¤°": 8368,
      "first": 8369,
      "à³ģ?": 8370,
      "wood": 8371,
      "ĠØ®ÙĪØ´": 8372,
      "ÙĨØª": 8373,
      "adow": 8374,
      "process": 8375,
      "Ġaccording": 8376,
      "VID": 8377,
      "à²µà²¸": 8378,
      "Ġpx": 8379,
      "à¨¸à¨µ": 8380,
      "Ġàªªàª¦": 8381,
      "Ġà²µà²¸": 8382,
      "Ġà¦ĩà¦īà¦¨": 8383,
      "à¥Ģà¤Ĥ,": 8384,
      "ctions": 8385,
      "dir": 8386,
      "à«ĩ;": 8387,
      "à¤ªà¤ªà¤¤": 8388,
      "à´¤à´ķ": 8389,
      "iff": 8390,
      "only": 8391,
      "uri": 8392,
      "à¦¡à§°": 8393,
      "ĠÚ©Ø±ØªÛĮ": 8394,
      "Ġheart": 8395,
      "Ġà°īà°ªà°¯": 8396,
      "ÙĨÚĪ": 8397,
      "ĠCheck": 8398,
      "Ġequ": 8399,
      "ĠÙĤÙĪÙħ": 8400,
      "2022": 8401,
      "Options": 8402,
      "policy": 8403,
      "à²®à²¤": 8404,
      "annel": 8405,
      "ĠØ¬ÙħØ§Ø¹Øª": 8406,
      "Ġfront": 8407,
      "Ġclose": 8408,
      "Ġmb": 8409,
      "ĠID": 8410,
      "à²ľà²°": 8411,
      "Ġà¬Ńà¬³": 8412,
      "Ġà¦Ĩà¦Ĺà¦¬": 8413,
      "Ġdepartment": 8414,
      "à¤ªà¤¶": 8415,
      "ators": 8416,
      "Ġheader": 8417,
      "Ġensure": 8418,
      "Ġlittle": 8419,
      "à®©à®µ": 8420,
      "Ġstep": 8421,
      "What": 8422,
      "ixed": 8423,
      "Ġfeatures": 8424,
      "Ġtag": 8425,
      "à²µà²¹": 8426,
      "Ġmargin": 8427,
      "ØµØ¯": 8428,
      "Ø³ØªØ§ÙĨÛĮ": 8429,
      "à¨Ĺà©ľ": 8430,
      "ĠØ¹ÙĦØ§ÙĪÛģ": 8431,
      "options": 8432,
      "ĠÙĤØ¨ÙĦ": 8433,
      "case": 8434,
      "Ġfail": 8435,
      "Ġà¤ıà¤ª": 8436,
      "Ġà¬ľà¬³": 8437,
      "Ġà´ĩà´²": 8438,
      "Ġfiles": 8439,
      "ĠØ¢ÙĨÛĴ": 8440,
      "aker": 8441,
      "Ġremediation": 8442,
      "à²°à²§": 8443,
      "Ġà¨¨à¨ľ": 8444,
      "Ġà®ªà®´": 8445,
      "ĠAm": 8446,
      "ĠonClick": 8447,
      "Ġjourn": 8448,
      "itation": 8449,
      "Ġfetch": 8450,
      "ainer": 8451,
      "ÙĨØ§Ûģ": 8452,
      "Ġà¤ªà¤²": 8453,
      "ÙĦÚ©": 8454,
      "à¦¸à¦¦": 8455,
      "typeof": 8456,
      "à¤¦à¤Ĺ": 8457,
      "à¨²à¨ľ": 8458,
      "Ú¾ÛĮÙĦ": 8459,
      "à´Ĺà´¸": 8460,
      "duce": 8461,
      "Ġà¨¡à¨°": 8462,
      "Ġà¨īà¨¤à¨ª": 8463,
      "à®¯à®Ł": 8464,
      "ÙĦÛĮÙĦ": 8465,
      "Ġà¤¸à¤®à¤¯à¤®": 8466,
      "Ġà¤®à¤®": 8467,
      "Ġnormal": 8468,
      "ĠMet": 8469,
      "Ġà®İà®Ļ": 8470,
      "à¬īà¬Ľà¬¨": 8471,
      "tes": 8472,
      "icate": 8473,
      "Ġà¬°à¬ķ": 8474,
      "Ġà´¤à´®": 8475,
      "ĠØ¯ÛĮÚ©Ú¾Ø§": 8476,
      "Ġpassword": 8477,
      "KE": 8478,
      "àª®àª¦": 8479,
      "Ġà²İà²¦": 8480,
      "à¯Ĥ.": 8481,
      "ĠIntern": 8482,
      "Token": 8483,
      "Ġà°ķà°³": 8484,
      "Ġwait": 8485,
      "à¦ĵà¦ķ": 8486,
      "rief": 8487,
      "Ġ}}": 8488,
      "àŃŁà¬ª": 8489,
      "Ġà°ĩà°Ł": 8490,
      "ÙĦØª": 8491,
      "Ġàªķàªª": 8492,
      "Ġà´ªà´ł": 8493,
      "Ġà´ķà´¥": 8494,
      "Ġya": 8495,
      "last": 8496,
      "Ġhours": 8497,
      "Ø±ÛĴ": 8498,
      "àªŁàª£": 8499,
      "à¤Īà¤¨": 8500,
      "unk": 8501,
      "àªŃàªµ": 8502,
      "Ġà¥¨à¥ª": 8503,
      "ĠÙ¾Ú¾": 8504,
      "àªľàªµ": 8505,
      "ĠØ§Ø¶Ø§Ùģ": 8506,
      "Test": 8507,
      "à¤¾?": 8508,
      "ÙĦÛĮÚ©ÙĨ": 8509,
      "Ġà¤Ĩà¤ļ": 8510,
      "à¤¡à¤³": 8511,
      "Ġà¨®à¨¸": 8512,
      "Ġonline": 8513,
      "Ġà°ĩà°¨": 8514,
      "ĠÙĪØ§ÙĦÙĪÚº": 8515,
      "à¤¤à¤¶": 8516,
      "ĠAND": 8517,
      "Ġà®¨à®©": 8518,
      "ture": 8519,
      "à°µà°ķ": 8520,
      "àŃģà¥¤": 8521,
      "à®³à®ķ": 8522,
      "Ġplaying": 8523,
      "manager": 8524,
      "ĠàªĵàªĽ": 8525,
      "à§İà¦ķ": 8526,
      "Ġspace": 8527,
      "ĠÙħØ´Ú©ÙĦ": 8528,
      "umbai": 8529,
      "53": 8530,
      "800": 8531,
      "à¤®à¤ľ": 8532,
      "Ġà²¹à²¤": 8533,
      "à¬·à¬¤": 8534,
      "Ġà¬ħà¬®": 8535,
      "Ġimage": 8536,
      "LL": 8537,
      "à®£à®ª": 8538,
      "abad": 8539,
      "Ġphone": 8540,
      "à°¦à°®": 8541,
      "Ġbenef": 8542,
      "\").": 8543,
      "Ġnight": 8544,
      "à°ľà°®": 8545,
      "Ġà²ĩà²¦à²¨": 8546,
      "Ġannounced": 8547,
      "core": 8548,
      "Ġà¤ªà¤¡à¤²": 8549,
      "ĠBJP": 8550,
      "Select": 8551,
      "Ġpanel": 8552,
      "à¨¼à©Ĥ": 8553,
      "à¨ļà¨¨": 8554,
      "efault": 8555,
      "Ġlooking": 8556,
      "ĠÙģÛĮØµÙĦÛģ": 8557,
      ">>": 8558,
      "ĠÙħÙĨØª": 8559,
      "à¤µà¤ķà¤°": 8560,
      "Ġà¬ªà¬¶": 8561,
      "Ġprovider": 8562,
      "Ġupdated": 8563,
      "Root": 8564,
      "à¤¹à¤Łà¤²": 8565,
      "ĠØ§Ø¯Ø§": 8566,
      "à®°à®ķ": 8567,
      "Ġcertain": 8568,
      "Ġà¨¸à¨²": 8569,
      "à¬Ĺà¬³": 8570,
      "Ġà®İà®©à®µ": 8571,
      "ĠØ³ÛĮØ§Ø³ÛĮ": 8572,
      "BC": 8573,
      "à´·à´¯": 8574,
      "Ġà²°à²¸": 8575,
      "Ġformat": 8576,
      "Ġfoot": 8577,
      "ĠShar": 8578,
      "can": 8579,
      "ĠØ³Ø¹": 8580,
      "ĠØ³Ù¾": 8581,
      "Ġstatement": 8582,
      "Ġlikely": 8583,
      "alysis": 8584,
      "àªĵàªı": 8585,
      "Ġconcern": 8586,
      "Ġaffect": 8587,
      "ĠÙ¾ÙĪÙĦÛĮØ³": 8588,
      "olly": 8589,
      "Ġàª°àªľ": 8590,
      "à¬Ĩà¬¨": 8591,
      "à¦ıà¦°": 8592,
      "Ġfinally": 8593,
      "Ġà¦ĭ": 8594,
      "ĠØ¢Ø¯": 8595,
      "Ġà´¤à´Ł": 8596,
      "estamp": 8597,
      "à®µà®ļ": 8598,
      "à¦·à¦¦": 8599,
      "ateway": 8600,
      "Ġrange": 8601,
      "Ġissues": 8602,
      "ift": 8603,
      "à«ª": 8604,
      "à¤¡à¤¤": 8605,
      "Ø§Ø¯Ø±": 8606,
      "items": 8607,
      "à¨²à¨°": 8608,
      "àªķàª³": 8609,
      "Ġà¨Ĩà¨Ĺ": 8610,
      "ĠÙĤÛĮØ§": 8611,
      "ĠÙħØ¯Ø¯": 8612,
      "emo": 8613,
      "Ġà¤ķà¤¹à¤¤": 8614,
      "ĠEngland": 8615,
      "react": 8616,
      "à¤·à¤¯à¤¤": 8617,
      "Ġà²¨à²²": 8618,
      "ĠWH": 8619,
      "àµ»à´±": 8620,
      "udget": 8621,
      "Ġleast": 8622,
      "nes": 8623,
      "Ù¹Ø±ÛĮ": 8624,
      "dec": 8625,
      "ĠÙĨØµ": 8626,
      "Ġà¦¤à¦¤": 8627,
      "58": 8628,
      "à¦¬à¦¯": 8629,
      "Ġsure": 8630,
      "fb": 8631,
      "igger": 8632,
      "à¤Īà¤ķ": 8633,
      "à¨ªà¨²": 8634,
      "ĠBo": 8635,
      "à¦ĩà¦¦": 8636,
      "Ġà´µàµ¼à´·": 8637,
      "Ġà²ªà²¦": 8638,
      "pite": 8639,
      "Ġà¦ªà¦ŀ": 8640,
      "à¦ľà¦²": 8641,
      "à²°à²Ĺ": 8642,
      "gener": 8643,
      "à¦¦à¦¯": 8644,
      "ĠàŃ¯": 8645,
      "Ġmanager": 8646,
      "Manager": 8647,
      "ores": 8648,
      "Ġstudents": 8649,
      "most": 8650,
      "à®°à®²": 8651,
      "Ġcour": 8652,
      "à¤ĩà¤¡": 8653,
      "à¨ĩà¨°": 8654,
      "ĠØ¯ÛĮÚº": 8655,
      "Sync": 8656,
      "Ġà¤¦à¤°à¤®": 8657,
      "vd": 8658,
      "ĠSat": 8659,
      "Ġsubs": 8660,
      "percentile": 8661,
      "à©ĭà¥¤": 8662,
      "Ġà²ķà²£": 8663,
      "Ġà¦°à¦¬": 8664,
      "300": 8665,
      "à®®à®ķ": 8666,
      "Ġà¬ļà¬°": 8667,
      "ĠÙħØ±Ú©": 8668,
      "à¦§à¦¬": 8669,
      "ĠÛģÙĪÙĨØ§": 8670,
      "à¤µà¤Ĺ": 8671,
      "à²°à²ª": 8672,
      "ĠØ§ÛģÙħ": 8673,
      "workspace": 8674,
      "à¦¬à¦¹": 8675,
      "à®Łà®µ": 8676,
      "Ġà¬ħà¬«": 8677,
      "irus": 8678,
      "Ġvs": 8679,
      "Ġinterface": 8680,
      "Ġàªĵàª«": 8681,
      "Ġprovided": 8682,
      "Ġà¥¨à¥§": 8683,
      "à§°à¦Ń": 8684,
      "ero": 8685,
      "ĠØ®ØªÙħ": 8686,
      "Ġà¨Ĩà¨µ": 8687,
      "Ġactor": 8688,
      "gre": 8689,
      "Ġcard": 8690,
      "Ġà¦ķà¦¤": 8691,
      "à²µà²³": 8692,
      "ĠØ±ÛĮØ§": 8693,
      "àª¡àª°": 8694,
      "ottom": 8695,
      "ĠØ§ÙĨØ¯Ø§Ø²": 8696,
      "Ġmovie": 8697,
      "Ġmeeting": 8698,
      "ĠDetect": 8699,
      "uint": 8700,
      "à°ļà°²": 8701,
      "Ġthough": 8702,
      "ĠØ§ÙĨØªØ®Ø§Ø¨": 8703,
      "ÙħØ¹": 8704,
      "Ġà¤Ĺà¤ıà¤ķ": 8705,
      "ently": 8706,
      "ĠCr": 8707,
      "Ġà¦Ńà¦Ĺ": 8708,
      "ĠàŃ§": 8709,
      "Ġleaders": 8710,
      "2021": 8711,
      "à´¨à´¸": 8712,
      "à¬¬à¬²": 8713,
      "ither": 8714,
      "Ġearly": 8715,
      "Ġrelease": 8716,
      "Button": 8717,
      "Ġà¨¹à¨µ": 8718,
      "ĠØªÙĦ": 8719,
      "à¬ĩà¬°": 8720,
      "àª°àª§": 8721,
      "à¥¨à¥¦": 8722,
      "Ġneeds": 8723,
      "Ø§Ø¶ØŃ": 8724,
      "à¤ļà¤£": 8725,
      "Ġmal": 8726,
      "à¤ĸà¤ķ": 8727,
      "Ġà´ŀà´Ļ": 8728,
      "ĠØ¯ÙĪØ³Ø±ÛĮ": 8729,
      "Ġà¬ķà¬¨": 8730,
      "ÚĨÚ¾Ø§": 8731,
      "à¤®à¤¬": 8732,
      "domain": 8733,
      "Ġà¤ķà¤ł": 8734,
      "àŃŁà¬®à¬¨": 8735,
      "à¦·à¦®à¦¤": 8736,
      "Ġà¦ĩà¦ļ": 8737,
      "ĠÙ¹Ú¾": 8738,
      "à²µà²µà²°": 8739,
      "Ġà²ħà²Ĺà²¤": 8740,
      "à¬·àŃŁà¬°": 8741,
      "ĠàŃ±": 8742,
      "Ġà²ħà²µà²°à²¨": 8743,
      "à¨Ĺà¨°à¨¸": 8744,
      "à¬§à¬¨": 8745,
      "iting": 8746,
      "resolve": 8747,
      "Ġà²Ĩà²¡": 8748,
      "Ġà®ķà®²à®¨": 8749,
      "Ġfav": 8750,
      "Ġà®¨à®Łà®µà®Ł": 8751,
      "build": 8752,
      "BASE": 8753,
      "ĠØ¯Ø±ÙħÛĮØ§ÙĨ": 8754,
      "New": 8755,
      "´Û": 8756,
      "Ġà¤ķà¤¡": 8757,
      "à´°à´¹": 8758,
      "Ġà¦¸à¦ª": 8759,
      "à¤¯à¤®à¤¨": 8760,
      "àªĩàªı": 8761,
      "sv": 8762,
      "Ġsuggest": 8763,
      "à´ķà´ļ": 8764,
      "Ġà¤¦à¤¹": 8765,
      "à¦ľà¦¸": 8766,
      "igation": 8767,
      "ĠUnivers": 8768,
      "Ġindustry": 8769,
      "à´¦à´°": 8770,
      "52": 8771,
      "Ġà¤¨à¤¸": 8772,
      "Ġà¤ķà¤°à¤ķ": 8773,
      "Ġko": 8774,
      "ĠÙĤØ¯Ø±": 8775,
      "Ġà§§à§®": 8776,
      "Ġà¤ħà¤¥à¤µ": 8777,
      "icrosoft": 8778,
      "Ġà¥¨à¥¦à¥Ń": 8779,
      "Ġà¨ħà¨¸à¨²": 8780,
      "à²°à²ľ": 8781,
      "Ġà¨¸à¨¦": 8782,
      "à²°à²Ń": 8783,
      "rel": 8784,
      "Ø§Ø±Ø§": 8785,
      "ĠØ§ÙĦØ¨": 8786,
      "Ġàª®àª¹àª¤": 8787,
      "ĠØ¸Ø§ÛģØ±": 8788,
      "Ġtechnology": 8789,
      "à®°à®µ": 8790,
      "à¬ķà¬³": 8791,
      "Ġà¦¨à¦¦": 8792,
      "Ġàªµàª¹": 8793,
      "wordpress": 8794,
      "ĠÙ¾Ø³ÙĨØ¯": 8795,
      "à´µà´²": 8796,
      "ĠØ¯Ø§ÙĨ": 8797,
      "plugins": 8798,
      "àŃį,": 8799,
      "Ġà¤ħà¤²à¤Ĺ": 8800,
      "ĠàªĨàªĹàª³": 8801,
      "à®ķà®Ļ": 8802,
      "Ġà¬®à¬¤": 8803,
      "Ġcrore": 8804,
      "à¥Ĥ,": 8805,
      "aily": 8806,
      "Ġunderstand": 8807,
      "ĠLeague": 8808,
      "Ø¥": 8809,
      "Ġcy": 8810,
      "Ġ36": 8811,
      "Ġattacker": 8812,
      "à¤¨à¤¬": 8813,
      "à´Łà´²": 8814,
      "Command": 8815,
      "Ġàª¬àª¦àª²": 8816,
      "à´°à´³à´¤": 8817,
      "ĠÛģØ¯": 8818,
      "igate": 8819,
      "Ġeffort": 8820,
      "Ġà¤¸à¤¹à¤®à¤¤": 8821,
      "No": 8822,
      "ĠØ¯Ú©Ú¾": 8823,
      "document": 8824,
      "}:": 8825,
      "à´¸à´¨": 8826,
      "à¬³àŃŁ": 8827,
      "àªĵàª®": 8828,
      "Ġà«©": 8829,
      "à¦¯à¦¦": 8830,
      "ØªØŃ": 8831,
      "Ġà¬¸à¬¦": 8832,
      ".,": 8833,
      "à¤¯à¤¬": 8834,
      "Ġsus": 8835,
      "ÙĪÙĦØª": 8836,
      "Ġ``": 8837,
      "à°°à°¯à°¤": 8838,
      "à¨¨à¨°": 8839,
      "Ġscore": 8840,
      "Ġcompanies": 8841,
      "bject": 8842,
      "otion": 8843,
      "à§ģ-": 8844,
      "Ġmedium": 8845,
      "prise": 8846,
      "Ġmakes": 8847,
      "71": 8848,
      "Ġscreen": 8849,
      "Ġà¤Ńà¤ĩà¤°à¤¹": 8850,
      "Ġà°ķà°®": 8851,
      "à´¸à´®": 8852,
      "ira": 8853,
      "Ġrecently": 8854,
      "ĠØ³Ûģ": 8855,
      "Ġà´µà´ķ": 8856,
      "Ġbox": 8857,
      "à¦®à¦ļ": 8858,
      "Ġconduct": 8859,
      "ĠØ¹Ø¯Ø§ÙĦ": 8860,
      "ULT": 8861,
      "Ġwindow": 8862,
      "Ġdiv": 8863,
      "Ġhalf": 8864,
      "Ġ34": 8865,
      "Ġà´Ĩà´¨": 8866,
      "à¤ĸà¤£": 8867,
      "Ġinstall": 8868,
      "Ġà´ªà´Ł": 8869,
      "ĠÛģÙĪÚ¯ÛĮ": 8870,
      "à¨Ĩà¨Ī": 8871,
      "Ġever": 8872,
      "por": 8873,
      "à®¤à®Ļ": 8874,
      "Ú¾ÛĴ": 8875,
      "à²¡à²Ĺ": 8876,
      "Ġà¬ľà¬®": 8877,
      "ÙĨØ¯Ûģ": 8878,
      "iple": 8879,
      "Ġdoesn": 8880,
      "Server": 8881,
      "à¨®à¨¦": 8882,
      "ocket": 8883,
      "ĠØªØ¹ÙĦÛĮÙħ": 8884,
      "parse": 8885,
      "Ġà²¬à²³à²¸": 8886,
      "Ġminutes": 8887,
      "Ġmil": 8888,
      "Ġ\"$": 8889,
      "àª¡àª®": 8890,
      "Ġà¤¨à¤¸à¤²": 8891,
      "ĠLog": 8892,
      "à§¨à§¦": 8893,
      "Ġorg": 8894,
      "Ġur": 8895,
      "Ġà°¬à°¯": 8896,
      "ĠàªĪàª¨": 8897,
      "CE": 8898,
      "Ġber": 8899,
      "à¦¸à¦°": 8900,
      "à¯į.\\": 8901,
      "Ġà¥¦": 8902,
      "à¤ļà¤µ": 8903,
      "Ġàª¸àª«": 8904,
      "à¬ķà¬°à¬£": 8905,
      "àª¾-": 8906,
      "ĠPres": 8907,
      "ĠØ±ÙĪÙ¾": 8908,
      "Ġà§§à§«": 8909,
      "ĠÚĨØ§ÛģÛĮÛĴ": 8910,
      "Ġà²¸à²¤": 8911,
      "Ġregard": 8912,
      "08": 8913,
      "Ġà®ªà®Ļ": 8914,
      "ĠÛĮØ§Ø¯": 8915,
      "à¬¿à¬ģà¥¤": 8916,
      "à°°à°¬": 8917,
      "includes": 8918,
      "sel": 8919,
      "Ġà¦ħà¦ªà¦°": 8920,
      "ĠàªµàªĹ": 8921,
      "Ġà²®à²³": 8922,
      "Ġà§°à¦ķ": 8923,
      "Ġabove": 8924,
      "Ġcommand": 8925,
      "Ġàª¹àª°": 8926,
      "Ġsat": 8927,
      "Ġà¦¨à¦¬": 8928,
      "à¬Ĺà¬£": 8929,
      "abilities": 8930,
      "ceed": 8931,
      "grad": 8932,
      "ĠÙ¾ÙĨØ¬": 8933,
      "à´¡à´¨": 8934,
      "à¤¨à¤¸à¤Ń": 8935,
      "ĠØ§Ø¨ÙĪ": 8936,
      "Ġpersonal": 8937,
      "pur": 8938,
      "Ġà®ĵà®Ł": 8939,
      "Ġà¨¬à¨°": 8940,
      "Ġshared": 8941,
      "ĠChief": 8942,
      "Ġcal": 8943,
      "Ġà¤ħà¤¯": 8944,
      "ĠÙĪØ§Ù¾": 8945,
      "ITH": 8946,
      "Ġà¨Ĩà¨ī": 8947,
      "Ġàªīàª®": 8948,
      "parent": 8949,
      "à´¯àµ¼": 8950,
      "Ġà¬ªà¬Ł": 8951,
      "option": 8952,
      "Ġà¨®à¨°": 8953,
      "Ġà®ĩà®Łà®®": 8954,
      "Ġà´°à´ķ": 8955,
      ".)": 8956,
      "à²¶à²¦à²²": 8957,
      "ĠJes": 8958,
      "à®°à®¸": 8959,
      "à¦¸à¦¤": 8960,
      "Ġà¨²à©ľ": 8961,
      "Ġà¤Ķà¤·à¤§": 8962,
      "ava": 8963,
      "Loading": 8964,
      "dc": 8965,
      "Ġà¦ħà¦¶": 8966,
      "Ġà´ħà´ķ": 8967,
      "ĠKh": 8968,
      "Ġà¬¶à¬ķ": 8969,
      "Ġreleased": 8970,
      "-]+": 8971,
      "match": 8972,
      "à¤łà¤²": 8973,
      "Ġcannot": 8974,
      "ĠRead": 8975,
      "à²¾,": 8976,
      "ĠSu": 8977,
      "à¦ľà¦¨à§°": 8978,
      "mat": 8979,
      "Ġà¤®à¤¯": 8980,
      "à´®à´°": 8981,
      "Ġep": 8982,
      "should": 8983,
      "à¦ķà¦Ń": 8984,
      "à¦ªà¦Ł": 8985,
      "Ġà¤ıà¤²": 8986,
      "Ġeduc": 8987,
      "ĠÛģÙĨØ¯ÙĪ": 8988,
      "à¬°à¬¤à¬°": 8989,
      "Ġmid": 8990,
      "Ġà¨ĩà¨¤": 8991,
      "Ġà²ĩà²¤à²°": 8992,
      "ĠÙ¹ÛĮÙħ": 8993,
      "Ġamount": 8994,
      "ĠÙħØ°Ûģ": 8995,
      "à¤¸à¤Ń": 8996,
      "Ġ\"./": 8997,
      "ĠFalse": 8998,
      "elop": 8999,
      "Ġà¤īà¤°": 9000,
      "Ġàª²àªĪ": 9001,
      "clo": 9002,
      "à´°à´Ł": 9003,
      "agram": 9004,
      "ĠØ®Øµ": 9005,
      "à¤¡à¤¸": 9006,
      "ĠÚ©Ø±Ø¯Ûģ": 9007,
      "à¤³à¤µ": 9008,
      "Ġcoming": 9009,
      "From": 9010,
      "Ġà¦Ńà¦ķ": 9011,
      "Ġsoon": 9012,
      "unjab": 9013,
      ",'": 9014,
      "net": 9015,
      "à®°à®©": 9016,
      "Ġà¤¨à¤¤": 9017,
      "aced": 9018,
      "Field": 9019,
      "za": 9020,
      "à²µà²ķ": 9021,
      "ried": 9022,
      "à¤¨à¤¶": 9023,
      "àªµàªķ": 9024,
      "à´±àµ¼": 9025,
      "à²®à²µ": 9026,
      "elling": 9027,
      "Ġ75": 9028,
      "Ġmind": 9029,
      "Ġà°İà°¸": 9030,
      "à°¥à°²": 9031,
      "Ġà§§à§¨": 9032,
      "Ġà¦ķà¦ł": 9033,
      "Ġtrad": 9034,
      "Ġmean": 9035,
      "anguage": 9036,
      "Ġà¬īà¬Ń": 9037,
      "Ms": 9038,
      "Togg": 9039,
      "ĠNot": 9040,
      "Ġà²ĩà²µà²°": 9041,
      "ĠApple": 9042,
      "eration": 9043,
      "Ġà¨¦à¨°à¨ľ": 9044,
      "Ġà¤ħà¤Ŀ": 9045,
      "Ġopt": 9046,
      "à¨¼à©Ī": 9047,
      "ĠAb": 9048,
      "Ġà®ħà®ļ": 9049,
      "à¤ĵà¤µ": 9050,
      "ĠglobalThis": 9051,
      "Ġà¦ıà¦Ĺ": 9052,
      "à¦¥à¦²": 9053,
      "Have": 9054,
      "Ø¹ÛĴ": 9055,
      "Ġcou": 9056,
      "Ġà¥¤'": 9057,
      "Ġà®ļà®ķ": 9058,
      "ĠMad": 9059,
      "ĠMarch": 9060,
      "à°Ńà°µ": 9061,
      "Ġcut": 9062,
      "next": 9063,
      "Ġà¤¸à¤¡à¤ķ": 9064,
      "Ġà°ĩà°¤à°°": 9065,
      "Ġà®ħà®¤à®±": 9066,
      "contains": 9067,
      "ko": 9068,
      "Ġexisting": 9069,
      "pany": 9070,
      "nvd": 9071,
      "pat": 9072,
      "rain": 9073,
      "main": 9074,
      "she": 9075,
      "à®Łà®©à®°": 9076,
      "Ġnational": 9077,
      "ĠØ±Ø¨": 9078,
      "uest": 9079,
      "ĠÙħØ¨": 9080,
      "ĠÛĶ\\": 9081,
      "ÙģØªÛģ": 9082,
      "Ġàªıàª¸": 9083,
      "Ġà²Ĵà²³": 9084,
      "Ġà²ıà²°": 9085,
      "Ġcountries": 9086,
      "Ġà®²à®Ł": 9087,
      "Ġà®Īà®Ł": 9088,
      "Ġtowards": 9089,
      "ĠÙ¾ÙĪØ±ÛĮ": 9090,
      "Ġàª¨àªķ": 9091,
      "delete": 9092,
      "font": 9093,
      "lab": 9094,
      "Ġà¬ıà¬¨": 9095,
      "ĠØ¹Ø§ÙĦÙħ": 9096,
      "Ø§Ø³Ú©": 9097,
      "root": 9098,
      "Ġelect": 9099,
      "\">{": 9100,
      "Ġactiv": 9101,
      "LO": 9102,
      "Ġà²Ĺà²®à²¨": 9103,
      "Ġjoin": 9104,
      "Ġà¤¨à¤ľ": 9105,
      "ĠØŃÙĪØ§ÙĦÛĴ": 9106,
      "900": 9107,
      "ĠÙ¾Ø§Ø±Ù¹ÛĮ": 9108,
      "CR": 9109,
      "à´ķàµ½": 9110,
      "Ġnec": 9111,
      "Ġà²ĸà²°": 9112,
      "ĠØ§ÛĮØ±Ø§ÙĨ": 9113,
      "Ġ---------------------------------": 9114,
      "à¬Ĺà¬¨": 9115,
      "bc": 9116,
      "à¤§à¤¯": 9117,
      "ops": 9118,
      "adding": 9119,
      "Ġà¦ħà¦²à¦ª": 9120,
      "Ú©Ù¹": 9121,
      "Ġà¥¨à¥¨": 9122,
      "Ġrows": 9123,
      "ĠÙĤØ§ÙĨÙĪÙĨ": 9124,
      "js": 9125,
      "ĠØ§Ø«Ø±": 9126,
      "Ġà¤°à¤ķà¤®": 9127,
      "ĠHis": 9128,
      "Ġà®īà®Łà®©": 9129,
      "Ġcur": 9130,
      "ÙĤØ§ÙĦ": 9131,
      "ĠØ¨ÛĮÙ¹Ú¾": 9132,
      "Ġmeans": 9133,
      "[\\\\": 9134,
      "à°¸à°¨": 9135,
      "Ġrecomm": 9136,
      "ili": 9137,
      "Ġlost": 9138,
      "Ġà¬ĨàŃŁ": 9139,
      "ĠØ§ÙĦÛģ": 9140,
      "Ġ?\"": 9141,
      "à¬°à¬®à¬£": 9142,
      "Ġsuper": 9143,
      "asing": 9144,
      "iving": 9145,
      "ĠÙħÙĨØµ": 9146,
      "Ġplayer": 9147,
      "Ġà¦¸à¦¹à¦ľ": 9148,
      "ĠÙĨØ¸Ø§Ùħ": 9149,
      "Ġà¨¦à¨°": 9150,
      "ĠRam": 9151,
      "Ġà²Ĩà²¹": 9152,
      "uary": 9153,
      "à°¸à°®": 9154,
      "ĠBang": 9155,
      "Ġplugin": 9156,
      "ÙĪÙģ": 9157,
      "à°¾à°ģ": 9158,
      "à´²à´Ļ": 9159,
      "Ġdark": 9160,
      "scode": 9161,
      "à§°à¦§": 9162,
      "init": 9163,
      "à°°à°ļ": 9164,
      "Ġà®İà®®": 9165,
      "uge": 9166,
      "alytics": 9167,
      "Writ": 9168,
      "access": 9169,
      ":]": 9170,
      "ĠØ¨ÙĦÙĪ": 9171,
      "Ġà°Ĩà°«": 9172,
      "à¦ĸà¦¨à¦¤": 9173,
      "à¨®à¨¨": 9174,
      "Ġà´¶à´ķ": 9175,
      "ĠÙ¾Ø±ÛĮ": 9176,
      "imal": 9177,
      "à³ĭà²Ĥ": 9178,
      "àµ¼à´¡": 9179,
      "à¨ĩà¨¦": 9180,
      "Ġà¤¸à¤¸": 9181,
      "à¦ªà¦¥": 9182,
      "à´£à´¤": 9183,
      "ĠTwitter": 9184,
      "Ø´Ø§Ûģ": 9185,
      "à²ªà²ķ": 9186,
      "à¨ĸà¨¤": 9187,
      "Ġ400": 9188,
      "Ġenabled": 9189,
      "à¦¿?": 9190,
      "Ġà¤Ĩà¤ķà¤°": 9191,
      "ĠØ³ÛĮÚ©": 9192,
      "à¤ıà¤ªà¤Ľ": 9193,
      "Ġà¤ªà¤°à¤¸": 9194,
      "à¤·à¤£à¤®": 9195,
      "Ġneg": 9196,
      "fc": 9197,
      "à¬°àŃŁ": 9198,
      "à´¨à´µà´°": 9199,
      "à²¦à²Ĺ": 9200,
      "irt": 9201,
      "Ġà®İà®©à®ķ": 9202,
      "Ġà¦ħà§±à¦¶": 9203,
      "messages": 9204,
      "à¦¯à¦®à¦¨": 9205,
      "à¦Ĺà¦®": 9206,
      "à²¡à²¨": 9207,
      "Ġinternational": 9208,
      "Ag": 9209,
      "Ġà¨¬à¨¦à¨²": 9210,
      "ĠÂ·": 9211,
      "Ġà®Ĭà®°": 9212,
      "à¤²à¤ª": 9213,
      "Ġà¤Ĩà¤®à¤ļ": 9214,
      "Ġà®ĩà®Ļ": 9215,
      "ĠBar": 9216,
      "Ġà¬īà¬ªà¬¸": 9217,
      "à°¬à°Ł": 9218,
      "à°£à°®": 9219,
      "Ġenough": 9220,
      "OS": 9221,
      "fect": 9222,
      "Ġwor": 9223,
      "Ġmor": 9224,
      "ollywood": 9225,
      "Ġgl": 9226,
      "Ġà¬ħà¬Ľà¬¨": 9227,
      "51": 9228,
      "FC": 9229,
      "roid": 9230,
      "Ġbelow": 9231,
      "Ġà¬Ĩà¬¬à¬¶": 9232,
      "Prompt": 9233,
      "à²¨à²¦à²²": 9234,
      "Ġreve": 9235,
      "Ġgrowth": 9236,
      "Icon": 9237,
      "Ġinitial": 9238,
      "Ġentire": 9239,
      "Ġcritical": 9240,
      "Ġenvironment": 9241,
      "\"}": 9242,
      "à¤®à¤¶": 9243,
      "à¨¾-": 9244,
      "à§ģ'": 9245,
      "istration": 9246,
      "Ġ__": 9247,
      "à¦§à¦ķ": 9248,
      "ĠÙģØ±ÙħØ§ØªÛĴ": 9249,
      "ĠØ§ÙĦØ³ÙĦØ§Ùħ": 9250,
      "vuln": 9251,
      "Ġà¦ªà¦£": 9252,
      "ĠØ¨ØºÛĮØ±": 9253,
      "Ġà¨¹à¨ľ": 9254,
      "ÙĪØ±Ø³": 9255,
      "àªľàª¯": 9256,
      "à¨¤à¨²": 9257,
      "icult": 9258,
      "à¬¸à¬²": 9259,
      "Ġàª®àª¤": 9260,
      "ĠØ±Ú©": 9261,
      "Ġà²Ĵà²³à²Ĺ": 9262,
      "ĠÙĦÚ¯Ø§": 9263,
      "ni": 9264,
      "à¯į-": 9265,
      "à¦Ńà¦¤": 9266,
      "application": 9267,
      "Ġà¨īà¨¸à¨¨": 9268,
      "EX": 9269,
      "Ġà¬¬à¬ľ": 9270,
      "ĠØ¬Ú¾": 9271,
      "à®£à®¤": 9272,
      "ĠØ±Ø§Øª": 9273,
      "à¤½à¤½": 9274,
      "Inst": 9275,
      "Ġdeliver": 9276,
      "Ġà¦ªà¦²": 9277,
      "àªµàª®": 9278,
      "Ġloss": 9279,
      "ĠØ¢Ùħ": 9280,
      "Ġà°Ĩà°¨": 9281,
      "allow": 9282,
      "ĠàªĺàªŁ": 9283,
      "à´İà´¨": 9284,
      "à²Ī": 9285,
      "ĠÚ©Ø¦ÛĴ": 9286,
      "Ġpopular": 9287,
      ":',": 9288,
      "DK": 9289,
      "fd": 9290,
      "à¨ķà¨£": 9291,
      "Ġ\"(?": 9292,
      "Ġà¦īà¦ķ": 9293,
      "henticated": 9294,
      "àª¯àªµàª¸": 9295,
      "Ġ300": 9296,
      "LECT": 9297,
      "Ġsignific": 9298,
      "ĠØµØŃÛĮØŃ": 9299,
      ")\\": 9300,
      "à¬ªà¬¦": 9301,
      "atalog": 9302,
      "Ġà®ķà®´": 9303,
      "à¦īà¦²": 9304,
      "ØºÛĮØ±Ûģ": 9305,
      "à®ªà®µ": 9306,
      "à²³à²¬": 9307,
      "Ġà²¸à²Ń": 9308,
      "à®£à®µà®°": 9309,
      "ĠÚ©ÙĪÙĨ": 9310,
      "Ġdemand": 9311,
      "Ġà¦Ĺà¦¡": 9312,
      "];": 9313,
      "à³Ĩ?": 9314,
      "Ġpag": 9315,
      "Ġhuman": 9316,
      "à¨¾à¨Ĥà¥¤": 9317,
      "Ø¬Ø±": 9318,
      "aps": 9319,
      "ĠØ§ÙĦØ²": 9320,
      "à¨ĩà¨¹": 9321,
      "à§§à§¯": 9322,
      "à¦¯à¦ª": 9323,
      "Ġà¤ľà¤Ĺà¤¤": 9324,
      "ĠÛģÙĪÛĵ": 9325,
      "Ġhon": 9326,
      "à§Īà¥¤": 9327,
      "Ġà´ħà´Ļ": 9328,
      "ĠÙĤØ¯": 9329,
      "write": 9330,
      "ĠÙ¾ÛĮØ±": 9331,
      "ĠGu": 9332,
      "ĠØ¶Ø±ÙĪØ±ÛĮ": 9333,
      "04": 9334,
      "Dis": 9335,
      "à«¬": 9336,
      "à«®": 9337,
      "Ġà¤Ńà¤Ł": 9338,
      "à²ªà²¦": 9339,
      "ĠÂ«": 9340,
      "Acc": 9341,
      "Ġpercent": 9342,
      "ĠàªĺàªŁàª¨": 9343,
      "Ġquick": 9344,
      "à¦®à¦¹": 9345,
      "ĠÛģÙĪØ¬": 9346,
      "ĠThese": 9347,
      "False": 9348,
      "Ġàªªàª¶": 9349,
      "Ġà¬ħà¬ªà¬°": 9350,
      "à¨Ĥ,": 9351,
      "Ġà®ķà®³": 9352,
      "ĠÙĦØ§Ú©": 9353,
      "ĠChina": 9354,
      "à²¯à²µà²¸": 9355,
      "Ġà¤Īà¤¶": 9356,
      "ĠØŃØ³ÛĮÙĨ": 9357,
      "ux": 9358,
      "Ġbre": 9359,
      "ĠØ³ÙĦØ³": 9360,
      "Â»": 9361,
      "à¯į;": 9362,
      "ĠĠĠĠĠĠĠĠĠĠĠĠ": 9363,
      "ĠSund": 9364,
      "Ø§ÙĦÙĦÛģ": 9365,
      "ĠDict": 9366,
      "Ġdidn": 9367,
      "Ġbehind": 9368,
      "81": 9369,
      "RO": 9370,
      "Ġà¬ıà¬Ńà¬³": 9371,
      "Ġdisabled": 9372,
      "Ġà´ıà´¤": 9373,
      "Ġtransition": 9374,
      "Ġ\"\")": 9375,
      "ĠÚ©Ø±ÛĮÙħ": 9376,
      "ĠBy": 9377,
      "Ġselect": 9378,
      "Ġrelation": 9379,
      "Ġtem": 9380,
      "ĠSam": 9381,
      "à§±à¦ķ": 9382,
      "Ġà¤ĩà¤¤à¤¨": 9383,
      "à¦¿'": 9384,
      "ĠØ¬Ø§Ø¦Ø²": 9385,
      "Ġà´ħà´ŀ": 9386,
      "à´§à´ª": 9387,
      "à¦°à¦®à¦£": 9388,
      "nist": 9389,
      "Ġti": 9390,
      "Ġà¤°à¤¤": 9391,
      "ĠFr": 9392,
      "files": 9393,
      "Bu": 9394,
      "ĠØ¢Ø¦": 9395,
      "}\")": 9396,
      "Ø±ÛĮÙĨ": 9397,
      "Ġàª¸àªª": 9398,
      "Ġà°ĩà°¸": 9399,
      "lower": 9400,
      "ĠØªØ¹Ø¯Ø§Ø¯": 9401,
      "Ġà°ħà°µà°¸à°°": 9402,
      "Ġearlier": 9403,
      "You": 9404,
      "Ø¯Ø§Ø±ÛĮ": 9405,
      "à²¸à²ķ": 9406,
      "à²¹à²²": 9407,
      "àªļàªµ": 9408,
      "Ġà´Ĩà´³": 9409,
[...]
